[PAD]
[UNK]
[CLS]
[SEP]
[MASK]
!
"
#
$
%
&
'
(
)
*
+
,
-
.
/
0
1
2
3
4
5
6
7
8
9
:
;
<
=
>
?
@
[
\
]
^
_
`
a
b
c
d
e
f
g
h
i
j
k
l
m
n
o
p
q
r
s
t
u
v
w
x
y
z
{
|
}
~
##u
##m
##s
##i
##t
##e
##v
##r
##a
##o
##z
##n
##b
##g
##j
##d
##c
##p
##l
##f
##q
##h
##y
##k
##w
##5
##x
##7
##6
##1
##2
##0
##4
##3
##8
##9
##ti
##on
th
##er
##es
the
##nd
##or
##en
##in
##al
in
##tion
and
##an
##ro
of
##ed
##at
to
##is
##ar
##it
##ur
##ing
##ic
##ec
##ation
##ent
##om
##el
##st
##il
##re
##le
pro
##ment
for
##ul
##as
re
##ol
eu
##ve
##et
##ac
on
##si
con
##ir
##ab
su
##ig
com
##ce
st
##ers
en
ac
##ts
##mp
##ity
##ate
##ri
##pe
##ess
##ut
as
##em
##ra
##ge
co
##pp
##tin
##od
##ect
##id
##ith
##ev
##ly
##ort
##un
euro
al
or
##ow
with
##tic
ex
##os
be
##oc
res
##ter
##for
is
##th
##us
##ch
##tive
##ain
sh
##ting
europe
an
##ill
##ure
are
##uc
##im
##iti
by
wh
##op
##ion
ad
##able
inc
##ork
par
comm
##ot
imp
tour
##ies
##sion
##ud
##tions
that
##form
touris
us
##ver
##ff
ne
pl
ec
##our
##ial
ch
##evel
european
tourism
##ations
this
##age
##ran
##me
##ber
##qu
cl
##ak
comp
##gy
##ission
reg
##ap
##lo
ind
##ility
##tiv
##ities
##and
##ay
##vid
##all
acc
##ust
de
at
##ital
##duc
work
##ance
##ad
##erv
##um
##est
dat
cont
##uld
##igh
##ated
supp
un
##onom
app
tran
data
rel
incl
dig
pr
##fic
##ear
##rom
##ant
digital
exp
from
##ore
##ments
pol
##ip
##nder
##ere
inter
all
serv
sust
sustain
str
will
sp
mar
servic
##ational
##rou
##lic
##ard
##ence
##ould
me
commission
##ors
##yst
includ
econom
soc
##ystem
##ember
##ther
sm
##ates
int
##evelop
develop
##enc
tra
cons
not
##ood
des
le
##ia
##ative
##iz
ar
their
##ult
##ine
##ergy
provid
it
##gra
##ech
dis
##act
energy
sect
trans
produc
ag
##oll
##ective
##iv
rep
##ast
clim
support
per
##ov
ha
##ell
sc
ass
##rib
rec
under
##ail
can
##ub
inv
##ual
climate
services
##und
should
eff
##ich
##di
member
fin
polic
##pos
out
coun
##enti
op
more
bas
##ures
##ary
man
dec
emp
env
##io
##ural
which
##ue
up
##gh
##ake
##olo
mark
part
##loy
new
gre
##anc
dir
##so
use
se
##iron
states
tech
environ
##over
such
##ability
sustainable
mo
food
also
social
other
techn
##iness
environment
##ish
##etw
requ
have
level
pub
##ular
##der
av
plat
bus
system
platform
sk
mod
##ric
##bility
business
##ex
##get
ob
market
meas
##ical
indust
##erm
inform
##ected
propos
##ag
##ach
di
including
##ific
need
##ie
chan
partic
##ble
sector
##ene
##ign
employ
##ater
##ong
skill
inn
##ist
##ision
##am
##ry
##ener
innov
##earch
##ase
##gram
smes
he
##ese
##pr
public
proj
policy
artic
##rough
program
##ome
##ulation
region
sa
##ects
national
##ution
##ection
##els
##ss
##ding
high
strate
##str
spec
##fer
plan
##als
fund
based
##ely
am
contrib
hor
bu
skills
transp
##izon
##bo
incre
horizon
information
##lement
appro
gener
article
economic
##gies
##eng
green
##ating
##oun
##ency
##are
##ys
proc
po
diff
##ries
##ress
org
through
measures
ro
commun
##tives
et
buil
pri
##ces
resp
these
add
directive
ens
##if
invest
no
count
##abl
research
activ
action
technolo
##line
avail
development
##ack
has
la
ann
we
sub
##apt
how
pre
intern
##ens
its
shall
aut
##ources
em
loc
##ace
organ
bo
over
val
##ici
wom
assess
##ollow
follow
they
transport
red
economy
##ards
##iod
differ
##isation
adapt
cr
##een
may
##ise
pers
el
##hip
well
betw
##sition
between
##eth
change
anal
##ire
##ential
cre
##ose
fra
term
relev
financ
implement
##hol
nat
##ted
available
indic
ev
##utions
##ross
##ues
union
##ile
##ati
coll
##ents
##ous
do
impro
programme
##res
es
##ons
condi
cap
mon
exper
online
trav
there
dem
##ord
sol
report
10
##ience
set
innovation
regulation
address
##ever
oper
19
##bs
relevant
analys
where
##row
leg
gu
##ining
##iew
conditions
##agement
cost
so
particular
##uct
##work
##ok
activities
building
fi
##ied
impact
tim
specific
##ree
effici
prot
##illion
##aking
ensure
tar
##ond
inf
##ivers
##ners
related
environmental
prac
##dition
est
##now
##art
products
##alth
consum
car
##les
##int
##tim
##ory
applic
frame
##ning
##bal
rev
year
employment
jo
non
pe
compan
systems
ris
access
glo
than
prom
equ
##sive
ge
##ving
health
different
local
framework
resources
ecos
##ou
initi
general
ecosystem
global
##sible
##ey
provide
women
##ee
##ms
sec
expected
require
num
tool
into
##hold
##irc
##ps
bene
ins
target
adaptation
id
was
##led
sustainability
wast
##ultural
##ner
##ight
##ks
decision
##tit
know
fac
##tics
##tical
##ulture
following
waste
management
enter
transition
top
##fit
act
##ators
27
##ute
##arm
##uring
destin
def
strategy
med
travel
fig
##pend
models
countries
increas
auth
##iversity
##ump
##eg
sel
actions
most
##ph
##cep
agric
international
sur
annex
##ety
abo
bio
##overn
##itor
circ
conc
number
one
01
consi
lab
##ource
##ower
##cil
approach
financial
##ised
council
grou
govern
##amp
process
partners
grow
adv
##ights
##ans
fut
ty
import
##ality
main
training
technologies
see
##tain
hel
##ises
identi
been
##av
projects
consider
those
used
analysis
across
enterpr
##acts
key
water
obj
mul
##ass
value
##ian
time
12
fe
industry
##ven
perform
author
##ablish
fur
##ite
##air
establish
benefit
while
sectors
pur
future
sch
proposals
but
##tal
acces
fir
netw
page
network
addition
efficiency
companies
eng
reduc
pot
##ost
further
##li
##urr
million
00
pres
communic
figure
chall
##ences
solutions
biod
lar
##her
##de
##omes
regional
stake
##oper
workers
##ledge
project
##sibility
priv
stud
stand
pos
potential
eur
resil
only
##ide
emission
##ited
could
design
del
resul
qual
ext
covid
accoun
peop
lin
particip
##ld
knowledge
tools
service
##to
areas
final
educ
investment
##ax
within
implementation
natural
help
needs
##own
##orting
##graph
##tern
wor
total
##ious
##end
people
users
regions
20
topic
##umption
ach
##mend
examp
rem
opp
##ules
would
production
were
##iation
##struct
qu
multi
end
##tices
requirements
adop
when
##og
any
cer
##ties
share
circular
identif
improve
li
tw
gender
about
##iter
curr
det
##eness
impacts
var
apply
world
##ortun
meth
15
increase
sign
opportun
some
funding
cultural
bud
##egr
##atives
state
protection
air
##cc
working
source
integr
method
refer
include
af
shar
infra
fu
current
policies
results
##isting
labour
biodiversity
##ined
proposal
practices
rest
##ang
foc
infrastruct
accom
14
consumption
##ays
bet
##bon
##ern
requir
##atis
##rial
small
monitor
##ines
contribute
budget
##ilities
##emic
11
agriculture
##ote
cooper
focus
better
##ade
outc
costs
take
who
risk
statis
assessment
##ages
growth
##wards
long
challeng
surve
##emp
provided
##por
##ectives
soci
##out
disc
enterprises
##lia
them
saf
sing
##onomy
education
parlia
platforms
cle
compar
existing
organis
cor
private
lim
tre
form
doc
##pri
mobility
parliament
17
##fore
legal
##uce
order
industrial
ur
aim
good
single
##ination
our
farm
desc
aff
##atory
##equ
##ext
##holders
iss
fl
quality
call
lif
stakeholders
cent
min
rules
contribution
communication
ver
allow
##ten
##ban
siz
recover
##ouse
##ale
appropri
authorities
vis
##round
capac
make
##ium
important
challenges
docu
ful
##ensive
lead
direct
##til
##ty
dist
towards
compe
opportunities
estim
13
##ice
using
go
pand
##up
##land
levels
tax
first
pandemic
sme
accessibility
performance
you
person
16
table
common
businesses
ent
underst
infrastructure
##par
##ft
emissions
example
making
##lish
##urs
##yc
digitalisation
however
prov
##ength
ref
low
##lig
inclu
repres
##min
regul
##ges
review
least
both
lear
case
transform
persons
carbon
##per
##ally
mater
cooperation
pop
rights
oblig
##economy
bioeconomy
##ful
demand
lo
period
resilience
supply
technical
assoc
guid
competi
signific
offer
nec
down
large
strength
aw
consumers
##abor
##mm
material
ph
bec
consumer
beh
urban
each
industries
law
tr
##mod
##iver
##tice
significant
country
##isl
ma
short
made
benefits
recovery
##fication
fair
cover
fr
##ising
contin
partnership
recom
link
##gical
accommod
provision
society
18
##mes
product
recommend
##ectiv
##red
among
50
##ains
##uation
must
##ilit
cl6
destinations
regard
understand
means
criter
cities
if
enc
##oss
necess
possible
capacity
gran
legisl
promote
instit
organisations
poll
elect
##ange
pat
port
vul
innovative
second
vulner
effective
point
monitoring
##aus
##pes
##orts
smart
open
schem
account
##ition
objectives
sit
commit
type
terms
collabor
eval
strategies
initiative
offic
compet
dep
technology
criteria
dri
##ug
many
around
30
same
destination
buildings
accommodation
bel
invol
##force
25
##ieve
conn
##te
nature
##unc
area
inst
admin
deal
initiatives
facilit
##ling
##enting
contr
60
ow
outcomes
mic
pay
indi
role
describ
##cip
years
governance
age
expl
prior
amoun
does
##ants
##ases
##enew
investments
bi
renew
##lu
##aged
administ
ste
fact
##ved
ecosystems
study
necessary
her
due
increased
respon
two
##ral
represent
##agraph
enh
indicators
21
individ
providing
##stat
##ings
char
model
cust
custom
additional
individual
experi
bar
##ird
##itiz
sw
land
pack
##ope
##ness
achieve
reduce
increasing
24
##read
eurostat
medium
december
gap
sim
context
statistics
##ank
micro
##its
prev
indicative
population
show
life
identify
strengthen
being
jobs
func
standards
##ging
##abilities
associ
prin
prof
##ock
sharing
rural
promo
oc
##tif
cook
scope
webs
lik
citiz
deliver
ii
ren
##ibility
overall
##acy
agree
strong
third
obs
##urity
##eld
group
intro
survey
appropriate
encour
##avi
application
##ient
##anced
br
instr
compli
proced
##cept
purpos
##ator
cris
##tis
fo
22
28
crisis
observ
hum
programmes
find
vol
house
less
gate
##lud
scale
coord
octo
giv
ra
behavi
present
described
during
comple
lack
required
october
##urn
##elling
princip
lang
depend
prec
needed
ic
##df
developed
##ets
targets
best
higher
##ether
options
##ables
issues
aver
##ible
##ron
community
reduction
langu
ess
sd
##med
##kee
##rol
struct
instru
##sh
tri
concern
city
##ately
att
##ices
trade
##itig
therefore
equality
effects
cookies
##one
bor
summ
loss
##itage
clust
groups
distrib
##esting
markets
tourist
compliance
##ints
respons
heritage
##ees
what
sdg
##pects
inclusive
renov
gatekee
self
23
ear
mitig
##ind
##ive
view
off
##encies
line
##eting
##cent
##aken
comb
31
pass
consult
operators
personal
learning
##edic
compared
liv
##ently
place
changes
human
search
##iqu
safety
reporting
##uary
communities
##menting
##amb
three
plans
fuels
supporting
risks
26
employed
citizens
##ology
function
altern
annual
processes
exc
autom
maj
##reh
##ably
percent
emer
minim
essential
##ecting
compreh
behaviour
section
##ativ
elig
average
si
forest
space
create
capital
detail
major
internal
defined
way
paragraph
##aging
certain
sources
##vers
play
resid
pollution
temp
contact
media
experience
introduc
##xt
saving
understanding
##ological
29
##repr
##struc
household
sy
schemes
comprehensive
cro
cross
##urement
materials
empower
cal
les
ter
zer
ret
start
planning
field
clear
55
##mission
##gic
accord
your
##hic
##ily
control
developing
##lementing
without
intermed
percentage
particularly
##ench
##road
security
disabilities
actors
integrated
trend
road
40
providers
passeng
cho
##ances
womens
accordance
gd
mat
##enar
month
mech
##ason
succ
##lands
given
success
disp
sever
##anis
##emb
implementing
plas
own
income
sci
strategic
build
goods
posi
neut
scenar
aviation
limited
bl
##pec
user
content
special
##uts
##ession
reach
construc
finance
lower
##areness
##aces
commer
##atic
next
##gether
entrepr
ef
##eu
awareness
##uf
##iev
often
excep
again
added
referred
approaches
ensuring
undert
document
cri
##ration
##ording
government
adopted
ip
tf
fuel
list
clean
entreprene
provides
barri
together
relations
science
restric
obligations
##portion
##go
considered
##loyment
etc
size
##ough
basis
renewable
hot
##ograph
joint
##uting
unw
lat
achiev
mechanis
billion
camb
##vention
border
alread
already
##ick
##uly
includes
standard
legislation
met
oj
tourists
regulatory
improving
##ially
methods
employees
pdf
applications
renovation
construction
aspects
terr
ser
stat
proposed
amb
defin
##lied
real
various
gdp
publish
transformation
99
men
read
types
zero
prog
full
several
35
##aries
##ufact
fre
points
agricultural
evaluation
ict
incen
sin
##gar
news
documents
##ension
##sa
studies
rece
##ware
taken
activity
regarding
facilitate
##ib
practice
socio
oce
ve
assist
recyc
mob
espec
addressed
selection
cambod
broad
sump
##une
especially
core
turn
##rac
##ering
unc
participation
savings
unwto
manufact
##erman
demon
generation
applicable
home
poli
##put
intell
after
upd
financing
sized
distribution
creation
##acter
score
package
website
certi
exch
##ization
entrepreneurs
##pt
according
affected
against
bal
harm
taking
wide
##day
##ying
chains
path
barriers
jan
highl
status
ques
enforce
efficient
character
##ather
##elines
english
big
vari
hol
responsible
##ilar
ups
purs
32
culture
put
##rup
##forts
efforts
german
accessible
networks
linked
eas
##aff
##ats
conduc
resilient
fish
similar
occ
conf
whether
july
established
98
range
##arant
run
funded
bod
prim
respond
calc
sl
sal
respect
afric
guidelines
promoting
##ffici
arri
guarant
reference
very
vulnerable
result
nor
enabl
##rid
38
fost
mission
##eless
bank
refl
07
##ina
procedure
##view
##rative
before
determ
civ
##unch
larg
demonstr
slo
tas
staff
dra
power
##ple
##ourn
prepar
values
factors
collection
soft
institutions
domes
##au
##eler
quan
alternative
ever
march
funds
profession
pover
estimates
recommendations
poverty
wid
##oid
united
contract
##ronic
domestic
included
effectiv
procurement
electric
evid
##osp
##olution
##vem
relationship
proble
##mental
objective
ocean
had
identified
##mit
upt
novem
transpar
adopt
aims
since
cases
##ier
enable
acceler
decisions
centre
partnerships
ital
##board
administrative
november
journ
##uss
scp
measure
influ
progress
##tee
##side
active
chain
desk
events
committee
below
fran
note
associated
political
uptake
du
free
##king
enterprise
amounts
arriv
french
continue
ir
rate
##ured
##akers
bul
aud
ed
advanced
hand
star
applied
democ
##till
45
june
##tiveness
availability
farming
##ervation
##fici
trends
successful
##istics
##reg
##oking
##ume
proportion
targeted
42
amend
##ream
extern
purpose
enforcement
65
hy
subs
importance
publications
company
become
minimum
##ject
previous
language
instruments
pursu
##uch
##emical
resource
mean
reducing
requires
cluster
gas
##ections
january
date
avoid
likely
ww
vehic
ab
##ests
##pping
expend
grant
36
apr
cyc
still
clos
even
face
scienti
expendit
four
just
recent
above
electronic
external
right
##ified
mitigation
eus
##thers
www
03
51
care
launch
involve
notably
intellig
34
ce
bey
civil
70
back
vi
##com
treat
##ause
enhance
plastic
critical
##ios
##sib
coast
adequ
exceptions
exchange
others
via
##utes
ors
heat
beyond
pil
marine
passenger
evidence
flow
official
gatekeeper
guidance
undertaking
##ins
##ature
ability
parties
inde
##ighted
46
ap
interest
provisions
arrivals
implemented
setting
02
33
enti
remain
bulgar
subst
##holder
fully
response
##ux
spain
positive
europ
improved
37
amount
site
index
alli
effect
decl
job
multiple
customers
coordination
39
41
pt
##br
##way
integration
##shop
er
net
##gor
principles
##ves
consultation
tempor
44
fle
instance
cy
vir
##use
vulnerability
eligibility
##ways
organisation
greater
reported
carri
stakeholder
experiences
##ores
##load
workshop
selected
##lude
##urance
feed
summary
definition
uk
incentives
every
dev
extend
because
47
competitiveness
marketing
outcome
evalu
software
able
dedic
jr
chemical
interac
submission
subject
##ogn
agend
found
turnover
meet
addressing
bring
##man
proper
request
limit
trips
households
france
april
agreements
scoreboard
coastal
aug
diffic
soil
goals
sept
firms
harmon
ele
geograph
##sia
recogn
estimated
jrc
80
##pers
##ites
sea
whole
statistical
expenditure
ai
press
##etheless
nonetheless
bur
dim
pp
##map
complement
neg
advis
recommendation
restrictions
fri
tack
##ne
agencies
farmers
simp
scientific
##eric
stage
##illing
currently
living
##ique
intermediation
ship
china
contain
organic
agreement
pursuant
##ward
decre
agenda
##yn
deb
obligation
competition
losses
75
hosp
drivers
relation
topics
legislative
office
gaps
##house
calcul
september
hospital
##more
cop
highest
sales
rail
forms
collective
continu
competence
coordin
emerg
primary
nl
##ave
##ived
portug
collaboration
volume
aid
hu
thus
##ism
##itime
maritime
dedicated
64
much
##rations
class
greenhouse
experts
functioning
49
##ash
##rought
concer
attrac
90
roadmap
alliance
hub
##elf
agency
insurance
youn
##den
species
creative
examples
##going
entrepreneurship
48
having
actor
furthermore
adequate
friend
##ark
heating
operating
download
guarantee
young
tend
accept
chap
optim
associations
africa
##fficient
intensive
central
months
flo
lt
yout
contributions
step
purposes
bodies
##greg
##oling
circularity
assistance
09
53
62
##ild
compon
requesting
post
chapter
##enge
##atures
rein
ongoing
##ysical
situation
43
diversity
##ned
leaders
regulations
recycling
hard
jus
nights
##duce
subsi
organization
equip
grants
intelligence
independ
52
58
gra
##anti
challenge
syner
pilot
elements
text
##ced
##puts
##lines
input
##omp
move
##resp
complex
##atively
blue
57
##tig
##aster
foot
dimension
##reak
##ually
modelling
notice
residents
scenarios
certification
54
##ix
operational
concerned
max
align
unemp
##ensity
shows
introduction
cz
cc
rates
##ias
stor
europes
##though
season
like
preclude
electricity
log
##be
##alities
##ford
methodology
retail
dial
il
although
##bound
covered
characteristics
56
cate
##aling
##eline
clo
published
dialog
memb
spe
tex
##ertain
##alf
alloc
travell
healthy
directly
##lin
##ither
supported
laid
creativ
purch
significantly
##tise
creativity
##ification
presented
commerce
mechanisms
enabling
flex
bg
mal
##less
comput
expand
reports
outside
physical
foster
fit
##pl
islands
inves
##amic
##print
creating
director
vehicles
pour
pap
ways
moreover
visit
journal
##ensi
##utri
martin
calls
priorities
maxim
shif
##lusion
concerning
test
diver
iii
uncertain
95
inven
corr
influence
synergies
texti
dg
hyd
ten
##rality
##other
americ
facility
accomp
encouraged
germany
task
equipment
##ape
regards
##ficial
spaces
##tention
appropriately
situ
principle
im
##ancing
promotion
neutral
61
##osition
##oration
##ister
extent
customer
investig
last
mid
##ized
reven
safe
depart
involved
italy
virt
consequ
articles
inclusion
collaborative
##cial
deployment
priority
92
dyn
##ists
pros
comply
assessing
issue
scheme
encourage
respondents
operation
##tified
hydro
liter
##acc
prefer
boost
persp
privacy
extre
neutrality
97
##ont
##itation
cooling
sectoral
position
accounts
flood
##sw
##rip
##ically
event
##iques
pact
prices
tradition
adapted
engagement
reduced
professional
rap
conform
##itis
languages
friendly
63
along
uses
technological
##porate
now
tues
##iting
##gen
##abit
datab
sout
administrations
prevent
gatekeepers
europa
tuesday
##onn
##arity
reason
relative
links
explore
websites
responses
ambition
mobile
cycle
substanti
burden
72
96
hun
mis
assessments
features
achieved
59
##ret
##ceed
another
consist
rob
web
equal
few
da
day
hous
##just
##assi
concept
negative
rapid
asia
dom
mac
##ep
##lies
##sitions
frameworks
scenario
territor
cloud
dialogue
far
tsa
trust
effectiveness
transparency
interoper
conservation
five
croati
unemployment
accompan
76
rank
##eign
disrup
basic
shared
structural
commercial
question
might
pa
##ased
predic
haz
equity
competitive
rom
co2
expertise
leading
payment
achieving
gh
changing
contributing
##ectivity
eligible
hospitality
members
caus
nutri
force
##eter
manner
procedures
virtual
housing
69
##itions
##ound
##ored
developments
##ify
revision
participating
dynamic
##ef
confer
supports
spent
producers
details
te
planet
funda
##orders
afford
der
##ring
##istic
offers
treatment
vision
##akes
maintain
participate
swd
87
94
yet
##anish
suppli
board
benefici
establishing
instrument
early
emerging
##sibilities
66
borders
here
sens
##iles
resolution
answ
meeting
propose
protect
growing
offered
balance
debt
au
mig
makers
##ta
agri
figures
install
hotel
problems
temporary
footprint
##iate
forec
usage
cl2
attention
price
managed
##of
##arter
sug
arti
diss
declar
inventions
93
util
vo
engage
occup
robust
dur
##itter
spati
communications
competences
empowerment
youth
led
rather
exist
descrip
missions
bulgaria
august
dm
either
get
insi
##asons
suit
coh
adjust
times
carried
68
aust
fer
##orti
##ars
eco
arran
considering
traditional
fork
exam
analyse
pattern
portal
sloven
fall
mt
cour
##ours
sites
findings
den
##gener
aggreg
##book
location
valid
deleg
discuss
institution
##ren
inequ
##ecd
##stream
##osed
workforce
transitions
reli
##eries
acts
##ermost
##everage
processing
surveill
detailed
roman
edition
##tivity
traff
consorti
submit
adoption
swed
latest
hr
orig
incor
chec
##erc
useful
strengthening
quantit
abs
pill
##ones
##alent
##arily
outermost
modern
policym
##ventions
taxation
automo
insigh
71
dro
##ool
profit
##irect
record
obtain
fundamental
artificial
mand
##ming
##af
##ectif
lex
opportunity
flag
majority
cambodia
conduct
flows
ghg
arrange
73
##ek
##bers
##he
##uted
created
ground
febr
restoration
geographical
surveillance
february
##cing
economies
##enced
provider
publication
establishments
manufacturing
nam
##not
##ger
forward
parti
##eep
award
leadership
visitors
ee
lv
oecd
##down
##tional
ecc
produced
internet
indicator
governments
minist
hotels
drought
imm
##xim
##ented
update
##coming
harmonised
czech
origin
##oring
##ulate
indirect
worker
volun
88
half
ilo
nations
sum
close
assets
participants
##ectively
mechanism
mention
74
map
ple
##nding
reasons
stock
interventions
##ize
cannot
remote
affect
raising
structure
chemicals
east
stim
##killing
relating
intensity
baseline
modes
involvement
travellers
81
##gment
##raft
cambodias
##generation
85
once
interview
generated
sets
school
societ
connectivity
##etherlands
automated
frequ
simpl
paper
capt
host
iv
sev
##racy
##face
sex
authority
longer
questions
macro
cs
##uan
##ged
improvement
launched
description
traffic
78
##ame
##edom
reuse
##aint
plant
manag
cruc
performing
driven
broader
draw
democracy
suppliers
dissem
82
netherlands
pan
##sing
thre
##esion
##ison
##ott
prevention
booking
solid
actual
independent
83
keep
rg
##mark
##ease
acad
regular
register
overview
enhanced
directorate
crucial
dam
vacc
##sc
contracts
hubs
az
van
##itory
const
parts
child
transfer
corporate
looking
cohesion
societal
67
86
give
##most
##orth
directives
choices
components
wat
##inion
##ece
##ourg
track
payments
difficult
84
hist
repe
opinion
carry
exclud
diversi
79
##by
##rete
dead
spread
trading
samp
association
behavioural
wider
forecast
light
past
##hood
explo
separ
highly
operations
advice
designed
latv
rr
throughout
infrastructures
owners
identifying
displ
listed
highlighted
patterns
##egra
##arbon
art
differences
relevance
defence
typ
feas
enhancing
individuals
mobil
meaning
consortium
06
gl
##asing
unf
informed
book
remains
surveys
competent
sdgs
speed
conformity
insights
77
##ship
##inking
##oles
expert
concrete
mainly
##paragraph
clusters
forestry
emergency
university
commissions
##ologies
chann
head
robo
subparagraph
unions
collected
practical
integrate
packaging
observation
perspective
spatial
##vak
foreign
convention
eurof
almost
arch
base
passengers
confid
appe
aqu
vide
aged
canary
outputs
environmentally
mainstream
precar
lux
tur
und
##ithuan
disability
analy
fisheries
slovak
accelerate
ms
nov
##haus
quick
problem
amending
pillar
airc
camp
fam
gen
param
near
decline
decarbon
thematic
visitor
earth
series
holid
##gn
##ides
anim
##apan
manage
innovations
reflect
largest
entities
america
interoperability
mentioned
har
habit
lithuan
ng
##ik
code
adver
ecological
unit
##ression
eston
identification
engine
belg
observed
extended
tackle
uncertainty
flagship
sat
##ental
##ussion
classi
great
weak
generally
resulting
##embourg
demonstrate
storage
precarious
bat
pes
##ems
##ratic
deep
canc
followed
cred
guide
representatives
categor
brow
cur
##bn
##gest
##ira
##pped
relatively
built
operator
facts
loans
undertakings
shift
please
89
japan
rise
vhic
wind
##eland
greece
##ounced
discri
##urse
connected
choice
plastics
bra
sensi
##ening
reform
collect
##titud
remov
collaborate
delegated
luxembourg
computing
interc
party
techniques
conclusion
learn
responsibility
representative
portugal
eth
tail
wave
implic
stress
decent
quarter
increasingly
combination
certific
computer
arrangements
aircraft
dans
rati
##co
upon
goal
raw
effectively
database
satell
spend
acqu
adap
advance
volunt
vhicules
cat
ria
##aim
##cs
##reed
sufficient
stay
expect
protected
swit
temper
syn
pathways
starting
south
eurofound
foss
##tification
thres
reality
exerc
specifically
equiv
##tically
##avour
biodiv
facilitating
renewables
democratic
advisory
##linary
flexibility
literature
declaration
threshold
col
dut
pen
##ton
algor
compl
until
##encomp
greencomp
skilled
##umptions
discussion
entry
delivery
crop
situations
hydrogen
paid
azores
fossil
algorith
##tm
##po
forum
##aced
ones
coher
plus
deg
objectif
corresp
explain
factor
trip
subsid
testing
agro
output
loan
offering
variables
institutional
91
sure
##ders
##ict
desp
assumptions
weighted
assessed
fulf
fa
tel
##ients
forese
##onomic
intend
generate
emb
conducted
movement
belgium
despite
ga
pac
##ups
##know
exemp
facilities
circum
received
department
bott
lump
sv
##bio
then
produce
exec
investeu
going
quantitative
break
##ground
##wh
places
express
bound
analyses
advant
scheng
improvements
stronger
mitigate
decrease
consequences
inequalities
satellite
vat
##ru
##stac
##let
measurement
planned
finally
discip
formal
steps
strongly
concerns
prepared
transparent
equivalent
lay
mc
mix
nf
rating
##eration
shown
datas
willing
outbound
educational
coron
aimed
capacities
hazard
affordable
fertil
rrf
king
##action
##osting
disaster
insp
multim
version
allows
playing
tasks
territorial
sample
implications
schengen
my
##pd
cogeneration
##que
digitis
investors
delay
methodologies
intermedi
contractual
background
extreme
court
pacific
mil
welf
##ba
##water
##wide
conver
promot
##egu
performed
presents
possibility
comparison
look
runion
ill
substantial
voluntary
welfare
cut
did
voc
##gin
##dom
systemic
seek
coverage
commitments
##tify
pathway
larger
##ussels
conference
answers
migration
advertis
done
##aur
stream
partner
safegu
mapping
brussels
manufactur
alignment
revenues
batter
hours
side
##ters
##ract
##dle
today
##ffer
interp
projections
requirement
centres
landsc
easily
determine
devices
evaluate
multimod
##oy
##economic
##imin
integra
respectively
applying
refers
receive
subsequ
##back
##osure
applicants
##iana
madeira
fairness
updated
easy
dissemination
kingdom
dr
wr
##se
##unic
##ateral
twin
connect
views
combined
return
territory
facebook
reinfor
video
categories
##ocks
##grad
##aily
establishment
worldwide
commitment
observations
introduced
htm
sem
##ulties
##irus
productivity
evolution
increases
circbio
discl
secondary
choose
display
daily
##eters
accur
decade
##ieties
labelling
##avirus
consideration
accounting
transformations
institute
complete
alternatives
sciences
difficulties
ships
coordinated
martinique
ranking
beneficiaries
policymakers
coronavirus
##na
entit
transl
##ams
guad
helping
beverage
whose
##otte
regist
attitud
outb
respective
researchers
shares
distric
fostering
calculated
middle
nfbs
05
favour
##ii
##jud
##elou
works
prep
twitter
behind
clearly
entire
tenders
textiles
suitable
mandatory
circumst
guadelou
aer
nuts
saint
##ulations
##erse
compens
recital
lock
difference
##ception
restaur
biological
norm
draft
textile
check
outbreak
bau
days
fed
mach
##ule
##aign
##ria
paris
spanish
prejud
mayotte
peer
liqu
smaller
allowing
profile
depending
continued
accompanying
incorpor
campaign
never
##care
##has
##ari
sus
except
repl
measuring
fragment
secure
ide
##hern
focusing
flights
workshops
subsidi
bli
nt
tick
##port
agents
effort
termin
functions
reaching
fishing
bulgarian
duration
histor
temperature
circumstances
##dis
##wise
##ching
repub
biom
positions
slow
copy
croatia
repealing
archit
milest
blind
nd
##uese
obstac
informal
economics
insu
body
italian
portuguese
ministry
deadline
dutch
guadeloupe
ori
##mis
room
announced
box
solution
guiana
##iverse
faced
taxes
covering
controls
definitions
bauhaus
prejudice
republic
lu
mor
##mb
##fied
##roportion
##acting
environments
operate
join
authors
disproportion
block
preparation
widely
advisors
justice
caused
drop
immed
degree
bench
eec
fem
gain
##utive
##tc
##ler
##oming
claim
constit
valu
doi
facing
defa
##cepts
presence
opening
experienced
summer
livest
highlights
parameters
ngos
integrating
##discip
sup
contra
demograph
concent
dispute
standardisation
property
dynamics
damage
confidence
animal
livestock
aux
fail
vary
##ots
##etary
concepts
##rometer
define
networking
estimate
biot
delivering
introduce
ambiti
african
maximum
vocational
multimodal
district
mad
makes
##vency
proceed
she
contex
scal
preven
strengths
drive
residential
crops
freight
stimulate
##lined
##ane
pric
managing
horizontal
located
live
focused
affecting
phase
deploy
dependent
tfeu
newslet
##ficiency
correct
prospects
predict
prepare
ced
jud
nace
##ugh
##ield
##ink
##elle
##lying
neigh
repair
accessed
strengthened
erdf
feedback
unfair
habitats
##disciplinary
neighb
ber
diverse
tables
##atically
globally
##ports
verification
binding
offs
denmark
namely
partially
liquid
ak
fire
later
roll
thinking
prop
proficiency
##ula
##igation
##ighting
option
envis
specified
contributes
round
evol
verif
personn
exception
ready
hardware
automotive
channels
cancell
credit
spending
default
ambitious
fast
gar
hear
roles
##des
##isc
##look
dispos
image
sugges
waters
feasibility
ratio
safeguard
html
kind
mot
san
##gory
##ath
##asm
##rix
invited
emphas
##ancy
##prus
organiz
organised
visual
transformative
pollut
represented
variety
recognised
attractions
children
landscape
contexts
nav
que
ssh
release
protecting
healthcare
initial
presid
potentially
representation
citizen
fields
similarly
pressure
revenue
dmos
typically
tailored
jur
##gary
##ls
##itt
##elves
##ili
prob
##the
arts
transmission
perman
outlook
possib
undertaken
putting
ireland
cyprus
interaction
austria
registered
biomass
ban
gather
mut
sil
##right
come
interface
noted
periods
amongst
explan
encouraging
empowered
matter
upskilling
calculation
tackling
reinforce
suggest
pestic
penal
fulfil
nbs
pas
vers
##vely
inputs
##ourism
interests
perce
##aires
professionals
malta
maximise
managers
constra
analytics
conclusions
copyright
obstacles
crow
thems
adr
poland
otherwise
divid
overn
crises
indicate
charge
experimental
startups
matrix
determined
relationships
grad
category
consistent
adaptive
personnel
themselves
ps
##xic
##ecurity
##ilst
exceed
why
une
socially
satis
poor
thereby
revised
involving
raise
empowering
hungary
croatian
sweden
capture
threats
robotics
advertising
ep
ets
gross
##az
##come
##fs
##etric
clar
clients
intervention
societies
##echn
systematic
insol
held
aiming
trig
players
started
interactive
discussed
executive
madrid
proceedings
04
##eases
##ai
##actions
agreed
##ords
whereas
conclud
airports
##nesses
##fficiently
closely
ptd
nutrition
swedish
novel
##csd
subsidies
expressed
disciplines
willingness
illust
architect
newsletter
cedef
rang
##national
though
##omic
enj
##geting
placed
##ades
contents
uns
polish
haul
finland
greek
doub
numbers
qualit
airport
##ernic
focuses
exclusion
copernic
flexible
##onnes
slovenian
solidarity
decarbonisation
interconn
thresholds
cedefop
##ued
##ior
##fol
acting
always
units
exposure
extensive
trl
component
lockdown
copernicus
sn
##fy
proxim
unl
finn
upcoming
seen
fix
extra
laws
attrib
bankrup
logistics
romania
eastern
separate
advantage
female
neighbour
d1
lg
nar
##mination
##dic
##osph
reserv
usually
compr
contest
plants
buy
approxim
secret
possibilities
vehicle
reasonable
domin
austral
rglement
academ
aquac
discrimination
sensitive
exercise
algorithm
contrast
motor
possibly
dk
ol
win
##asting
stages
covers
whilst
##umul
underp
actively
sound
specifications
info
##aves
learners
becoming
finding
complementary
decreased
weaknesses
objectifs
digitisation
attitudes
pricing
brought
##son
therm
##ert
##ann
##lev
reve
shap
recently
itself
infring
peak
engaged
requiring
understood
showed
largely
preferences
examine
reforms
intended
biotechn
danish
wood
yield
weather
prem
engines
accounted
qui
statement
shortages
balanced
primarily
coordinate
purchasing
slovenia
romanian
boundaries
ndc
aquaculture
grid
mind
##ery
decide
guest
known
medical
administration
readiness
mainstreaming
classification
bottom
intermediaries
##asmus
finnish
ie
rus
##ita
##ows
items
investing
##ifications
programs
boosting
indicated
##ously
carib
mostly
##airs
participatory
cooperate
format
lessons
treaty
classes
justified
malt
eccch
estonian
browsing
disproportionate
preventing
insolvency
ko
##tition
unique
unless
spring
recru
greener
considerations
reductions
communicate
contracting
serve
##garian
erasmus
dimensions
investigation
hungarian
territories
automob
simplified
latvian
insufficient
organizations
edi
fil
old
want
##ata
##olid
comes
unpr
consolid
counter
employers
transposition
limits
granted
depth
connection
lives
audi
literacy
beneficiary
family
##unicip
demographic
proximity
maltese
takes
##ead
##rated
##erland
##acing
enables
cos
##osing
chin
latin
targeting
instead
metric
serious
bringing
seasonality
writ
akis
permanent
gear
hence
mov
municip
ports
say
vf
war
##mar
##onding
##erve
inh
degrad
##adv
##ading
select
methodological
called
dependencies
six
highlight
linkedin
audit
complexity
allocation
prosper
lithuanian
interpret
juris
enjoy
qualitative
bn
bri
##eurs
##bre
##ded
##ctic
##ena
shop
relate
requests
helps
##lier
discover
urg
consultations
freedom
demonstrated
interested
cybers
installation
obtained
nearly
corresponding
##barometer
batteries
overnight
ca
mer
mail
proof
coming
diseases
projected
##box
defining
challenging
##iversi
regardless
functional
specialisation
latter
incentiv
recycled
occurr
demonstration
substit
disruptions
cas
ul
##ipping
##ds
##fu
##eli
eurobarometer
reskilling
exports
transactions
motiv
condition
practition
comparable
represents
structures
structured
holistic
proportionate
electronics
interactions
augment
recognition
optimal
hazards
existence
recorded
academic
holidays
expectations
restaurants
campaigns
bankruptc
underpin
caribbe
written
cybersecurity
cult
litter
q4
vs
yes
##ano
##ired
##ectual
applies
heav
##ifying
organise
fraud
monetary
designing
offices
observatory
automation
reached
cleaner
intellectual
audits
simple
reliable
seven
registration
architecture
caribbean
bed
csa
sen
forests
coup
##osen
##theless
client
left
measured
remun
popular
portfol
match
feedst
ccis
meetings
agroec
nevertheless
gir
ncsd
##fall
##enn
construct
##imb
##tively
contam
rely
##encing
scre
recre
diets
approved
autonomy
travelling
geo
adverse
airlines
affairs
responsibilities
exchang
purchase
databases
reliability
threat
holiday
superv
trigger
unlock
thermal
infringe
cash
mom
north
wage
##ij
##vi
##fin
##ke
too
##isure
course
nego
atm
##esty
universi
leisure
##izing
arg
transnational
pool
financed
indices
students
extension
##ogle
visits
representing
recommended
pollin
exploring
owned
guarantees
viol
eea
panel
factshe
biotechnology
chinese
jurisdic
practitioners
negoti
fisc
lev
wild
##ean
enough
##tinc
usa
##duction
##ada
##ips
intra
overcome
##resh
mainten
remed
formats
flight
lifesty
summar
documentation
slight
irresp
avoiding
remaining
correl
coherent
immediate
snap
older
fiscal
irrespective
na
river
##val
##bor
##pa
##oral
##ics
##elong
coal
alone
##ocol
skip
wellbe
thereof
thanks
equally
keyw
authorising
additionally
restore
lifelong
lowest
driving
closed
hosts
slovakia
braz
discussions
pesticides
fixed
wellbeing
08
eip
lond
leverage
mb
name
wa
##zerland
stop
ask
uni
digitalise
##licit
train
transmit
scores
scaling
transportation
elabor
toolbox
encomp
prioritis
foresters
confir
europen
attractive
seasonal
##place
accompanied
aggregate
absol
latvia
disposal
snapsh
london
encompass
eic
q3
rental
wes
##hib
##erous
stem
##chain
impose
##estrial
climatic
esf
protocol
connections
steel
earning
monthly
terrestrial
easier
##ospace
accelerating
ccri
preferred
team
lithuania
acquis
aerospace
compensation
liquidity
mutual
##elihood
faster
gro
pal
##bi
##pay
##ws
##isual
acknow
##oty
##rants
spc
notes
arctic
disease
##ovisual
scop
assum
sew
capabilities
futures
allowed
minimise
reflected
limitations
graph
switzerland
##ariat
historical
envisaged
neighbourhood
audiovisual
universities
maintenance
cumul
donnes
kb
rd
rich
vent
##tes
##lan
##enous
##ana
suffer
##aps
underlying
##ube
empir
programming
analysing
sched
engaging
budgets
themes
taxpay
aware
connecting
allocated
excludes
exploitation
fragmentation
ntg
blockchain
remuneration
absolute
kp
kore
late
lun
q1
q2
xx
##arian
##eced
##ulated
cours
##och
europeans
india
##elled
biofu
firm
varied
##angible
reviews
driver
packages
edge
voice
severe
macroeconomic
certificate
complain
cutting
rooms
versus
augmented
moment
brazil
ba
ei
fight
hit
##mo
##rd
theme
##iss
sufficiently
##owers
invent
outlined
cars
entr
refu
lob
pharm
explored
achievement
behaviours
introducing
containing
maintaining
frequently
constant
catal
foresee
dataset
fertilis
reinforcing
milestones
algorithmic
shaping
western
sbs
session
wel
warm
wages
##cl
##lit
##inants
##rop
persist
elimin
surface
refund
certainty
receip
manufacture
norms
reflects
tested
submitted
policymaking
diversification
estonia
embed
manufacturers
navigation
secretariat
unpreced
ultim
unprecedented
bro
brid
density
ment
mining
##iers
##oo
##ych
alter
##char
neb
atomic
export
permit
yearly
extrac
airbn
affects
brings
raised
attract
conflic
southern
aggregated
modernisation
curric
normal
constraints
automobiles
empirical
taxpayers
biofuels
3d
bill
cell
gr
lic
litt
mag
mass
##hing
inbound
##asion
reimb
enfor
shape
split
esa
solar
##onds
##ceptions
variation
committed
norway
preparing
substances
evaluated
foundation
sensors
appear
breakdown
subsequent
##missibility
president
girls
spcif
eg
fresh
mati
nort
pict
rent
##eur
ine
##ansion
took
##omm
forth
##opoll
admissibility
attain
appren
print
expansion
##lication
noise
##ense
preservation
visibility
behalf
showing
zeropoll
intermediate
jointly
handling
abroad
##comp
investigate
perspectives
schools
ownership
conventional
coherence
pollutants
degradation
portfolio
snapshot
cumulative
apprentices
drough
hal
ox
tce
##aw
##nit
##ilateral
##asters
generations
##ift
money
certified
identifies
completed
combine
publishing
absence
ethical
explained
inhabit
airbnb
little
droughts
eib
vital
##inder
##bur
##fts
##riev
parc
chosen
univers
apps
predom
upgra
notification
week
capita
selecting
surv
considerable
schol
transforming
phot
surveyed
depends
running
determining
proportionality
youtube
fewer
subsequently
valuable
proposition
concluded
double
matire
zeropollution
apprenticeship
predomin
##era
##ester
##iling
##lear
##ung
reservation
shocks
click
expression
margin
economically
publicly
emo
##aceu
doing
##times
distance
commonly
away
##ugg
simulation
excell
ipcc
career
apart
substantially
missing
validation
promoted
incorporated
penalties
lunion
cj
dmission
lever
##bes
##ca
##arti
reus
##utor
codes
usual
supplement
relig
perceptions
decades
##ensus
authorised
preserv
designation
patent
dealing
experiment
dependence
dependency
mitigating
##mann
requested
derived
names
engineering
precariousness
promotes
ideas
##ught
feedstock
atmosph
slightly
uniform
pharmaceu
cge
element
rule
york
##rs
##gence
##ym
##kill
##istive
##urb
##reach
react
convers
stable
antic
inten
consent
assistive
recording
save
rising
presumption
quest
##iterran
issued
leads
functionality
paragraphe
retriev
sumps
distributional
accordingly
journey
previously
intelligent
rapidly
interoperable
grounds
stimul
manager
feasible
discrimin
manufacturer
subsidiaries
claims
factsheet
earnings
korea
forthcoming
cjeu
iams
ou
tit
##td
##kins
things
touch
##ille
##ires
contains
explicit
arising
##iving
repro
happ
##ief
##ife
sett
mediterran
annexes
adopting
minor
delivered
distributed
renovations
matters
recycl
temporal
traveller
extremes
domains
teach
sense
maps
turk
quickly
feder
suggests
psych
satisf
narrow
violence
dia
dash
his
hour
lan
uber
##aving
##how
##yl
thri
##elimin
##stra
forces
##sian
##iring
##rafts
imposed
prelimin
distinc
producer
marking
annum
locations
##ouch
considers
budgetary
phone
facilitated
giving
paragraphs
uncr
subsc
fourth
everyone
contained
installations
falling
datasets
orient
benchmar
perceived
moving
mediterranean
billing
cand
ease
files
rech
sell
vac
wal
##gal
##can
##ho
##ka
##asive
asp
assi
allev
compare
disasters
sequ
innovate
greening
bioge
worlds
references
sharp
comparing
organisational
belong
exclu
residence
entrepreneur
barrier
amendment
append
alongside
adjusted
inequality
records
##head
interviews
preparedness
##thetic
banks
ranging
recruit
##advant
agroecology
keywords
##lantic
courses
receipts
picture
cad
file
ke
sover
vouch
##zen
##nic
##time
inland
stri
stra
##ector
touristic
ecol
cham
exposed
polar
disadvant
perm
modal
skilling
ensured
overl
accessing
advances
comparative
populations
trace
vulnerabilities
simulations
amended
device
properties
emergence
optimise
domain
suitability
indirectly
regularly
exploit
##ursement
sensitivity
entity
scales
buyers
candid
appendix
sovereign
era
mess
nom
##ma
##ki
##onal
##enter
##uled
begin
resol
imports
regim
regener
accred
leave
leaving
dischar
grew
employee
routes
capability
linear
detection
varies
flash
estimation
taxonomy
shortfall
front
customs
socioeconomic
harmful
enabled
geographic
papers
disruption
vaccination
oriented
crowd
interconnected
complaints
anticip
preliminary
uncrpd
ia
nul
##ui
##hn
##ker
##itarian
##ury
##sts
##odes
##uctions
##umn
supplied
interlin
disag
producing
agent
scar
seam
mode
notify
promin
numerous
labs
identity
signed
sometimes
limiting
describe
compliant
symb
restriction
veget
remained
evaluating
calculate
retailers
americas
positioning
aquatic
##gnos
accurate
terminals
metrics
urgent
curricula
bes
hinder
mas
overs
ue
##bl
##lar
##hi
##wn
##erb
##ened
##ini
##ica
prox
##sively
alia
exists
white
##rant
compati
sustainably
conserv
##ives
repay
asset
follows
creates
unionhow
timely
multip
multil
charging
clustering
carrier
continuous
computers
occupancy
incorporate
awarded
sexual
vaccine
synthetic
favourable
explanation
contestability
exchanges
spcifiques
seamless
homes
sont
##gain
ing
##rope
##ids
sho
incurr
composition
atlantic
consensus
ensures
##arters
washing
travelers
labels
##ogene
entail
##ycle
demands
bargain
swift
microenter
ambitions
cycles
settings
##useum
consequently
hydrolo
conceptual
occupational
meaningful
genu
algorithms
machine
evolving
verifier
##borne
transmitted
venture
marginal
retrieved
microenterpr
fab
fill
gal
iot
museum
powers
##uv
##iber
##rel
##long
fores
##igenous
##eva
indigenous
##anda
digitally
canada
basin
manual
newly
proposes
employer
addresses
revise
twins
corpor
corrid
profiles
characterised
variable
virus
causes
adjustment
opinions
excluding
removals
quarterly
complaint
streams
translate
constitute
concentration
heart
approximately
reveal
ultimately
northern
ecolab
cn
cet
eif
eight
gues
tips
##uments
##we
##onduc
think
##inars
##ush
##ffs
##ultane
repos
underm
invested
emas
mont
analysed
wastewater
internationally
participated
lifec
visible
google
simultane
earlier
excel
oceans
holding
pursue
acceptance
independence
aligned
purchases
expanding
courts
quantity
frequency
history
mobilise
bookings
headqu
laying
##racted
reinforced
tickets
benchmark
australia
warning
brief
shops
constructeurs
jurisdiction
lifestyles
dmissions
multilateral
incurred
washington
##onduct
ahead
breed
div
fell
ib
lag
nc
rad
selling
vess
##agram
##bia
##dens
##inated
##uls
##aco
##abil
stability
cope
resist
island
parall
neither
prs
interact
econometric
sep
contributed
differenti
collectively
solving
timing
beneficial
qualified
qualifications
lines
multiling
guides
instagram
ageing
gives
humanities
resident
disputes
broadly
updates
##aux
quantification
influenced
harmonisation
mandate
glass
channel
replace
warming
discriminatory
microenterprises
multilingual
5g
awards
cord
nit
ss
tree
##ipped
##ze
##org
##inc
##stand
proven
suiv
exac
##forest
neu
relies
seg
changed
##enses
indicating
##veness
designated
cerom
inclusi
continues
involves
specialist
restrict
menu
biggest
variations
closer
cement
adequately
ukra
answer
semester
academia
cosme
interpretation
coupled
interlink
guests
don
gpp
gene
ju
lost
##ao
##esp
##mpl
##tine
incomes
##ourcing
##ques
induc
digcomp
##iche
partly
industri
saw
indicates
equipped
helped
corner
believe
renewed
combus
startup
politics
updating
containers
consistency
excluded
analytical
geneva
greatest
telec
mckins
milestone
enforcing
scholar
religious
chamber
shopping
foresight
parallel
exacerb
mckinsey
ds
dp
eaf
gains
lasting
nive
rc
semic
wil
wet
worth
##va
##rate
##wc
##nds
##entic
##inary
##edia
##utors
##ema
##thing
ecot
worked
appli
strugg
perception
seas
seems
proposing
respecting
##ressive
mediation
authentic
seeking
feb
establishes
cooperative
linking
charter
borne
specialised
ipol
upsc
reflecting
heatw
extending
debate
uncertainties
ranked
conferences
checks
tracking
habitat
greatly
intercultural
ethnic
certificates
battery
cancellation
senior
preserving
bargaining
ecolabel
semiconduct
heter
ice
let
mental
nud
##ga
##ortive
##itable
rebound
impair
econ
##ficient
productive
systematically
sections
advancing
deter
load
true
understandable
rapp
presentation
combining
cleaning
cambodian
unclear
accelerated
irr
abstr
cycling
expenditures
pilots
indeed
carriers
##ismo
notice1
planetary
drawing
carrying
deadlines
separately
harv
conversion
accuracy
susp
fragmented
##xico
consolidated
asked
eiis
lobj
reimbursement
orientation
cadre
proxy
ecotourism
cater
dss
gam
vill
vast
##uish
##itive
##iable
##oor
##no
##ci
##ya
##yen
##inate
##isor
stated
##raw
##ticle
##tinguish
##oph
parks
plays
clarity
workplace
unep
digitalised
inters
consul
dispar
distinguish
##ova
##elles
assemb
outd
optional
direction
approval
weight
locally
labor
waterborne
larticle
peoples
libr
visited
necessarily
competencies
facilitates
iceland
attemp
evaluations
complemented
calculations
attractiveness
movements
##plas
getting
frequent
simplify
switch
tele
##knows
hazardous
federation
casc
levers
protocols
scheduled
extraction
inhabitants
turkey
blo
cit
nine
pace
pages
tangible
##table
##rec
##dr
##nde
##ara
##ectors
shock
anti
sustained
intensi
hamp
marked
innovators
email
valor
termination
sold
sought
statements
formation
recovered
learned
obligated
##ront
annually
capitalise
templ
positively
standardised
meters
incentive
enablers
preparatory
accelerator
audio
enhancement
expanded
shifts
floods
disruptive
nutrients
affordability
appears
foreseen
safeguarding
clarify
scoping
rdm
suffered
embedded
rechar
heterogene
lobjectif
cb
lays
oil
pest
pip
rf
sale
##ua
##set
##ove
##oir
##bial
##fl
##ham
##worth
##ani
##roph
toxic
##icial
##ilies
reward
##old
##active
stores
##pper
alban
isbn
##thes
interpers
interdisciplinary
strict
meets
traders
climat
generating
##ount
frag
impacted
infl
defines
extracted
multiann
reviewed
##fully
paying
bias
experiments
microplas
precip
builds
##ensions
##ruption
quantify
irish
successfully
scientists
cef
properly
burdens
trusted
ministries
drawn
headline
turismo
undue
families
mixed
disclose
judicial
prosperity
bankruptcy
##ennial
bills
subscrib
disaggreg
combustion
appliances
interpersonal
multiannual
cam
male
row
zones
##ien
##eed
##gro
##faces
##ories
proficient
reb
##che
wholes
compound
##antly
marri
consists
##ival
recon
subj
capable
costa
objects
deliber
##ogen
organisers
minister
verify
instructions
borrow
minimising
hold
closing
vii
alliances
cyber
speak
voting
occupations
original
keeping
diversify
forecasts
windows
synergy
##point
exemptions
advantages
entitled
rolling
sanitation
premium
occurrence
contaminants
infringement
leveraging
dashboard
vouchers
lifecycle
crafts
dang
fine
mort
ped
pays
pests
rception
##gie
##fying
##hs
theory
##inted
##itch
##itaires
##ura
##ley
retain
comments
##emed
shipping
imply
##ude
death
##umes
unli
transpos
foods
buffer
etuc
notified
crunch
elder
collecting
promising
fees
preserve
remove
liability
necps
stef
encourages
gateway
lacking
combat
humanitarian
automatically
undertake
governmental
receiving
highlighting
soils
allocate
conformment
maintained
utilitaires
animals
subsidiarity
varying
academy
municipal
correlation
stemming
traceability
vessels
prsent
nitro
induced
industrials
eafrd
rapport
consulting
cascading
bilateral
pet
vet
##rich
##da
##ero
##alence
##atch
##even
imposing
composed
unes
spect
manip
decid
segment
caps
efficiently
faces
entering
reduces
qualification
quant
##unction
stepping
behavior
livelihood
nextgeneration
occur
widesp
closure
negatively
extrem
flooding
miss
dropped
window
removal
decentral
adapting
correspond
interpre
emphasis
heavy
recreational
acquisition
##otypes
fertilisers
eliminate
simultaneously
ibid
inclusiveness
widespread
bir
cel
fn
je
master
pul
rol
wall
##band
##ken
##ora
##arch
##itures
##sta
##legal
prohib
ont
conv
sud
store
beach
ang
whom
implies
##berg
supportive
##ante
interrel
recast
envision
modif
employing
specify
specificities
john
mainland
endors
restoring
criterion
encoun
granular
showc
calib
exceptional
resulted
avoided
temporarily
seaf
blueprint
##plus
voitures
robustness
durable
absor
profits
partial
machines
suggested
penalty
gradually
lgers
unlocking
acknowled
##ommunic
excellence
experimentation
breeding
ukraine
telecommunic
precipitation
elderly
bos
ey
font
gis
ho
las
##iately
##rence
##life
##fort
##kers
##onia
##onsibilities
thous
##erever
##inations
tod
##ults
##ett
conj
anc
wherever
##opa
adding
defer
deemed
dates
supplies
trader
canar
##soft
##result
whereby
consuming
actually
medic
partnersresult
integrity
monitored
organisms
linkages
belie
indicatorsresp
humans
functionalities
crii
guaranteed
handbook
amendments
viable
limitation
huge
##places
consequence
complying
validated
submitting
arrangement
books
confidential
brows
##where
alignmentlong
restaurant
suspend
immediately
exceeding
dominated
bankruptcies
underpinning
recreation
elaboration
europenne
persistent
predominantly
museums
cordis
##standing
semiconductor
irrigation
encounter
thousand
indicatorsresponsibilities
ble
card
hab
mes
rain
ta
tp
ug
wt
zo
##eor
##eil
##ruct
##nity
##base
##brid
##cont
##pal
##inal
##ram
##itim
compil
unav
uneven
spill
outline
##loyed
seem
rou
adaptability
legitim
tari
processors
seeks
##assment
presenting
stands
restruct
competit
collaborations
barb
prevalence
distributors
maturity
railway
continuing
independently
unemployed
shifting
volunte
robots
harassment
disciplinary
berth
exceptionally
australian
heavily
wildlife
assumed
sewage
##ochemical
conflict
distinct
entrepreneurial
prominent
crunchbase
unesco
beliefs
fif
kr
kil
lue
length
ns
push
r2
ted
talent
tipping
wors
##uer
##uel
##uay
##rely
##govern
##pc
##lom
##hr
##estim
##ala
##ster
withd
exits
incub
imper
ecodes
composting
##lout
##ustain
##adata
pron
##ipher
smoo
transdisciplinary
grey
crpd
collap
soon
toolk
##phone
worst
former
vertical
provin
periodic
guiding
phen
provisional
complet
offline
capitals
terti
blocks
specialists
metering
serbia
demonstra
adopters
hybrid
abbre
entirely
declined
fleet
complementarity
hospitals
illegal
misle
##assification
tender
installed
forecasting
utilities
difficulty
harness
removing
tailor
inspire
semi
##naire
concentrated
predictable
hearing
russia
prosperous
foreseeable
magnit
nulle
corridors
microplastics
competitors
ecodesign
demonstrating
bol
cape
duly
een
ges
gig
night
tn
tal
##tourism
##eper
##here
##aran
##arities
##omen
sts
stays
##throp
incom
placing
comprom
##apes
accid
deeper
##estration
unable
unpa
rele
##fications
serving
sport
peripher
fines
##ancies
##enegro
safer
rough
##cessive
announ
wealth
redress
timeline
entered
trainings
feature
biodegra
signals
##adeus
statistic
shortage
introduces
calend
efsi
ipce
ipbes
fueleu
enabler
banking
duties
##iosis
founded
pressures
huws
departure
departments
nutrient
delegation
profitability
czechia
captured
catch
intermediary
convergence
incorporating
ticketing
presidency
divide
divided
incentivise
screening
pollinators
kpis
breakdowns
sequestration
compatible
repository
montenegro
division
disaggregated
quantum
todays
conjunction
pronounced
collapse
unpaid
bird
dc
dup
rduction
tt
tank
vice
##zi
##ha
thom
##omet
##eliness
##igu
comfort
##tinational
shore
##illary
parad
##ffen
defic
##ads
appo
##antes
intergovern
string
meat
traject
arise
replic
assumption
said
##ifies
framing
protective
median
label
multinational
millions
continent
micron
microsoft
volumes
meteor
metadata
##ibles
decreasing
webinars
migrants
examination
diversified
##ike
colour
ratings
ntos
deployed
berg
gradu
illustrated
comprises
russian
auditors
infringements
coalition
explicitly
psychological
hourly
belonging
beginning
vegetation
ingred
genetic
nitrogen
telecommunications
ancillary
uganda
##ustainable
smooth
tertiary
intergovernmental
dsa
fat
fash
rented
vic
waves
##eas
##eet
##fra
##ono
##esc
##ares
retention
enlar
##ript
oral
##ocation
##ional
compile
depar
sports
mexico
smet
smith
##ella
outreach
avec
applicant
importers
identities
twice
integral
focuss
treated
century
distor
becomes
institutes
contrary
describes
##tifying
likelihood
attend
emerge
readily
conducting
demonstrates
##plete
quanti
electrical
externalities
coordinator
optimisation
corrective
membership
supplier
disseminate
rgc
typical
mca
disclosure
reveals
acknowledge
inventory
cells
freshwater
##artile
pharmaceutical
regimes
crowdwork
overseas
hydrological
segments
template
subscribe
wholesale
livelihoods
habits
restructuring
magnitude
incomplete
peripheral
roughly
ingredients
fashion
departing
bot
cm
ci
cf
dual
gc
gover
hier
pose
sand
wit
word
##uing
##ein
##rum
##gs
thor
##room
##ato
##ecess
prove
conom
accep
acron
alert
exhib
isol
##opol
##ions
suppression
relatives
relying
interesting
arab
##grav
climati
peri
decis
upgrad
moe
moun
moder
particul
nationally
##boards
autonom
valuation
indications
##intro
surround
grown
considerably
##assl
feel
additionality
standing
affili
entries
regulate
technically
continuation
compete
simul
oct
##atories
complementing
consultancy
upskill
occasion
##ridge
determination
complementarities
younger
##beit
##ensively
imbal
questionnaire
nutritional
damages
vaccines
classified
acquired
gained
probability
attributed
##viations
pollinator
remedies
bridge
universal
upgrade
stimulating
lanes
aspect
alleviate
recruitment
disadvantaged
abstract
assembly
pipeline
albania
fifth
abbreviations
biodegrad
quantities
bre
esi
hoc
ix
iedom
ligh
mill
puts
ral
rational
sant
try
vr
wish
words
##ians
##zy
##net
##ben
##well
##tious
##ona
##oria
town
##rees
##lex
##lements
##acin
##abol
stations
excessive
##ione
che
compuls
prassl
leak
lending
aggrav
assume
invasive
police
manure
module
pooling
demo
solely
peers
equitable
geffen
insee
authorisation
##depend
delays
detect
organiser
corruption
appropriations
refuse
regulated
regulators
responding
complements
summit
matching
##europe
characteristic
journals
arrival
##ficiencies
attracting
friends
diverg
images
farms
sensing
utility
adjustments
validate
watch
historic
failure
correctly
offset
evolve
kinds
fulfilment
lgisl
reservoir
municipalities
substitution
substitute
cultured
prioritise
mentoring
upgrading
settlement
thrive
##hofer
candidate
symbiosis
released
hierarch
affiliated
compulsory
ces
gi
jun
km
kj
mem
mus
ran
rica
som
sourcing
upper
wi
##men
##sch
##za
##bas
##gi
##gan
##gus
##fe
##fers
##yal
##kas
##ered
inj
inher
tom
##isons
##isite
##urban
promp
cong
enrich
asyl
coach
##tina
alien
ord
##tica
shelf
##uction
tourisms
##ageo
deficiencies
interfer
interreg
conseil
diageo
innovating
anne
cru
financier
solve
timet
applicability
healthier
initially
advoc
designate
sizes
visa
leader
entre
phy
fron
exclude
publishers
freely
dram
declines
continuously
floor
dialogues
preference
boarding
declarations
reliance
##after
mobilising
penet
faq
exemption
inspection
replaced
cancelled
gathering
explanatory
passive
winter
costing
cultures
negotiations
confirmed
refuelling
survival
managerial
diagnos
benchmarking
exclusively
genuine
revealed
resistance
spectrum
decentralised
browser
withdraw
misleading
calendar
micronutri
botzen
governing
accepted
mountain
asylum
apec
cited
doll
ero
fear
ion
kar
lists
ot
pra
sent
snow
tats
tutor
um
zone
##uk
##mg
##ement
##app
##ois
##cyc
##hers
##yms
##erts
tob
##isations
reop
suited
##igor
stere
##rie
##idence
shut
adults
comme
##oted
usd
nepal
ecology
unified
apprec
expenses
allergy
disb
transfers
replies
##ailand
manif
diw
sectorial
respected
nouv
##abled
nathers
monaco
solv
reverse
initiated
##titution
surplus
feat
multidisciplinary
ending
phases
countrys
accommodations
experiencing
achievements
simulate
lifetime
deliverables
precise
earn
combinations
##repres
retro
controlled
black
balk
normes
viii
officials
indexes
foundations
emerged
membres
prevented
causing
durability
dmo
examined
consortia
hosted
decarbonise
switching
gaz
constitutes
scaled
cancellations
navig
proofing
kpmg
fertiliser
apprenticeships
atmospheric
quested
title
satisfaction
discharges
ncess
niveau
heatwaves
suspension
catering
inflation
birth
penetration
tutorial
dest
game
jp
ly
ml
mich
q5
ru
rs
sanc
tac
ven
wra
x2
##mer
##gue
##cis
##wa
##oni
ths
theore
##iswh
##elt
reintro
onwards
conting
super
cogn
##ticals
exhaus
##oses
bear
resour
shr
anthrop
nex
neuf
interfaces
interdepend
smarter
trained
notable
artis
sca
recip
##ditions
counting
##ished
measur
##prints
##ssa
crd
indication
##ileo
operated
entertain
surpr
timefra
remot
ceramic
whoiswh
lime
ordering
##fta
loop
opened
prioritiz
charges
individually
microbial
cooking
deliverable
thirds
##tish
consulted
cambridge
sinks
variability
powered
measurements
eds
##nement
derog
sensory
answering
pillars
intends
embod
attitude
replacing
garben
barometer
grass
emotional
reusable
reproduction
benchmarks
besides
entails
galileo
struggle
upscaling
valorisation
interpreted
rollout
sudden
legitimate
kilomet
stringent
climatique
autonomous
theoretical
whoiswho
bay
breach
dt
dna
fich
gases
hots
ls
lon
lis
m2
nic
por
pione
q6
rp
sti
tor
##usion
##making
##eks
##vel
##vre
##vals
##ole
##cel
##ping
##len
##lining
##wan
thailand
##itary
##ometric
##ilib
##astic
##iry
stabil
ener
##emble
coe
euros
exit
##osite
iso
ant
champ
regression
appar
relates
interim
commissioner
##encia
##inement
disabled
transvers
reput
invites
modules
##ago
buying
improves
esc
consumed
companys
idpd
financially
##ccc
visiting
estimating
entrants
refurb
reviewing
shortcom
printing
strongest
personalised
math
mechan
progressive
broadband
easing
irreg
hands
launching
recognising
stories
purchased
reasoned
consistently
insight
vaccinated
booked
japanese
temperatures
exercises
subsidised
foresees
compensate
idea
insufficiently
probably
satisfy
yields
screen
oxford
pharmaceuticals
intention
teaching
walking
sharply
accreditation
wetlands
library
fragile
interrelated
seafood
birds
meteorological
thorough
acronyms
esif
music
nexus
neufs
entertainment
kilometres
shortcomings
irregular
cab
dter
dici
dune
dfin
eit
eii
gner
hur
hil
hiring
lch
mural
merc
outs
pit
wik
ytd
##eal
##ris
##dam
##ck
##ption
##inn
inception
##ros
##isp
rempl
conges
##iration
##rium
##gement
##illed
parlement
chi
chart
indones
prone
span
intangible
ago
perf
permission
recl
underestim
effic
##entials
envoy
marketplace
informing
amadeus
notion
weeks
autumn
natura
##atista
collections
esms
##working
carbur
revers
equilib
georg
securing
medi
processed
##iann
performances
fires
posting
varieties
cooperatives
comparisons
legally
allowances
distress
competing
goes
refining
became
patents
accountability
describing
explor
renewal
jobsee
observing
completion
automatic
played
clearer
##google
metals
assisted
determinants
powerpoint
evident
influencing
subsectors
closures
declining
devra
geography
calculating
continuity
logos
situated
eventually
utilisation
checking
modernise
groundwater
mobilisation
unfccc
videos
cancer
curves
certifications
ratios
acquire
duty
versions
digitised
safeguards
terminal
deploying
verifiers
pesticide
unsustainable
lockdowns
koens
freedoms
motivation
underpinned
arguments
encompasses
rentals
photos
apartment
atmosphere
conversation
thriving
vacancies
biogeochemical
exclusive
headquarters
disparities
outdoor
heterogeneous
##ogenic
stefano
manipulation
decided
absorb
hierarchy
fronti
manifest
measurable
crdits
ceramics
gnero
equilibrium
ax
ded
egy
hom
mr
ned
ngo
niche
pi
sorting
tm
tap
von
##uit
##ius
##eys
##oul
##oting
##bd
##bod
##hor
##with
##tible
##esian
##atri
##atric
tot
##urt
##rea
##asg
##ola
suff
enact
##through
tours
##quisite
compass
indisp
contacts
prere
traits
replication
repatri
##astroph
scru
underrepres
modelled
buff
thereafter
specification
globalisation
surge
advised
imported
furnit
posed
quarters
airline
formula
issn
fluct
##bank
shorter
fairer
institut
instances
concerne
attach
choosing
listening
restrictive
paths
draf
handic
err
emergencies
speech
inventive
investigations
miscl
fares
predicted
examining
falls
interviewees
parameter
##titude
ethics
catastroph
colle
##points
degrees
tripadv
fao
embrac
breakthrough
landscapes
disclaim
ticket
moroc
demography
predictability
perceive
gradual
reservations
grids
springer
edihs
triggered
lifestyle
alteration
emotions
overlaps
massive
neuhofer
harvesting
recharging
##thesis
borrowing
endorsed
wttc
decisive
lighth
timetable
balkans
transversal
congestion
indispens
prerequisite
scrutin
furniture
tripadvisor
bran
came
eed
egnos
fon
kaz
lc
ling
lies
lors
listing
mol
mise
nation
omb
pati
rot
rub
turs
tonnes
##aire
##necess
##bm
##bro
##cious
##kes
##onym
##inform
inade
##eding
##arching
fora
##asc
reap
reall
compend
acid
##riting
euroge
alike
##uds
pled
chapt
chelle
unnecess
developers
##iating
agg
recession
##olog
segreg
##aterally
roa
weighting
embr
overarching
else
analyst
finances
##ordinary
revital
revolution
differently
##ouet
poss
##toe
quite
tweet
worldbank
organising
centred
##tilisation
disturb
proved
facilitation
stead
##avier
lesser
scaleups
triple
severely
crime
restricted
respondent
democrac
pursuing
avoidance
carefully
backed
containment
tends
tended
lta
cci
american
##acco
accompany
dmc
##ourse
ministers
panels
easyj
drinking
accurately
outbreaks
blindly
sheet
garanti
extraordinary
scopus
attainment
##burg
survive
intentions
minority
assig
accredited
corporations
headquarter
replacement
wildf
fnssa
volunteers
toolkit
accidents
paradig
graduates
upgraded
leakage
tobacco
cognitive
lchelle
indonesia
egypt
morocco
indispensable
ombuds
inadequ
compendium
chapters
1er
bis
dx
gri
hall
jul
lign
mtoe
odr
ppp
rid
slud
tests
wb
writing
zeal
##tory
##ae
##osi
##jus
##pi
##orrow
##ention
##edited
##atre
toler
##elect
##ils
onset
conven
enzy
reskill
##chron
adult
europeana
unequ
unilateral
prv
meal
desired
leed
lemp
transaction
assisting
assurance
upload
send
modifications
businesseurope
##iement
##istan
##ssen
planners
noting
organized
woman
crm
elections
monuments
##oks
waterways
presc
whenever
liber
signal
discre
discoun
firstly
accommodate
owner
explains
bib
steam
modeling
precision
excess
introductory
severity
reading
assistant
slower
acceleration
influences
irre
hypo
abund
recognized
simply
guaranteeing
reinv
investigated
trustworth
prediction
teams
captures
seville
transferred
turb
credible
synchron
column
fulfilling
exempl
returns
##ilipp
counterpar
jurisdictions
remedy
summarised
waiting
entrust
refuge
sessions
licens
excellent
discharge
scarc
scarce
swiftly
fabric
ministerial
mortality
extremely
acknowledged
ipcei
thomas
physi
stereotypes
##titutional
contingency
shrinking
timeframe
mathema
mechanical
##body
segregation
democracies
zealand
asian
bang
caf
fal
gst
hund
hack
ices
jet
kn
luc
lens
lena
lids
nord
py
pear
rose
rtd
sick
tensions
vans
ward
zh
##vs
##bc
##bis
##dad
##tile
##eno
##ino
##inely
##alys
##att
tol
##ecks
##ilaterally
##eta
##aba
##igure
##rian
cot
##orted
albeit
##used
##ches
anonym
park
usable
chair
##alling
unedited
relief
intr
notam
##ovs
##overs
##ishing
modification
marketplaces
specifying
procure
pointed
weigh
solvency
communicating
designs
designers
opposed
ende
trees
formally
flu
center
philipp
necessity
granting
polluting
secondly
sitem
steer
microbi
finds
trials
personalized
alternatively
capitalisation
crimin
manufactured
holders
confinement
civic
##auti
quantified
quantifying
##ronics
##brella
storm
prosp
boosted
traditionally
disrupted
declared
modernising
diversifying
exploiting
mobilised
advertise
agroforest
bottles
bottlen
write
translation
suscep
preventive
judgment
suggestions
emphasised
gathered
illustrate
comprise
conflicts
supplementary
conversely
assign
message
messages
regime
regenerative
symbol
genuinely
cette
undermine
##forestation
interlinkages
nudging
intersection
rfrence
rebut
premiums
suspended
zoono
tariffs
duplication
deficit
lgislation
tomorrow
micronutrient
erosion
umbrella
tutorials
destr
exhaustive
loneliness
reputation
dtermin
fluctu
misclassification
eurogeo
embrace
scopusgoogle
assigned
headquartered
inadequate
sludge
##electronics
bibli
gstc
hundred
notamment
agroforestry
zoonotic
ay
bop
bonds
dun
efta
fighting
kong
len
pant
race
senti
tro
uvre
vitt
wed
wto
##uj
##uari
##urope
##tr
##ez
##vis
##rera
##zan
##bres
##du
##dd
inside
toward
##rey
conve
suc
stocks
##rification
##una
exact
anch
para
impos
chile
compte
##aper
deals
##adas
##umed
unknow
strat
stric
spir
basins
aven
dietary
##istrib
locals
redistrib
##hips
esg
mone
sole
revising
geoss
globalised
insulation
conclude
labelled
object
qualify
ended
liable
detri
somewh
focussing
comparability
descript
miner
minutes
verified
taxi
refine
maternity
patenting
exploration
customised
lands
deliveroo
icao
renovate
percentages
##struction
readers
bigger
occurs
reflection
journeys
proportional
abuse
##institutional
recognise
decreases
roadmaps
optimising
justify
logical
conferred
fundament
migrant
voy
validity
spreading
glasg
robotic
appeal
cold
##pots
corresponds
advertisers
valuing
emphasise
epid
ranged
geared
british
caution
catalyst
catalog
welcome
permitting
happen
satisfact
vacation
kept
permett
candidates
differentiated
suivant
exacerbated
impaired
hamper
markedly
deaths
nextgenerationeu
medicines
barbara
##lomer
imperative
announce
trajectory
surrounding
interference
surprising
bayesian
hotspots
exploratory
jobseekers
instituto
lighthouse
scrutiny
unnecessary
counterparts
lenaerts
sitemap
bottlenecks
bibliometric
sentiment
vittuari
unknown
somewhat
glasgow
aj
cul
din
dio
fals
fee
fern
giz
ions
istac
koks
lf
mi
mw
mel
mir
nurt
pump
pwc
rar
rac
ride
sf
solo
tai
tui
wp
wbl
##uw
##rect
##ah
##oit
##gers
##jan
##fiting
##ky
##kely
##xide
##onau
##eres
##energy
##inting
##inery
##urers
##oma
##reet
##rique
##rating
##ratives
orbis
incidence
parking
imped
##udic
complic
##apital
##ested
##ipedia
##roup
conscious
desi
argen
dismis
underlined
optical
buses
weaken
differential
therein
estads
locality
benefiting
inspec
transitional
circle
delivers
delta
educators
currencies
focal
singap
comparatively
verde
transformed
downstream
continental
portability
biases
steering
scaleup
##shore
viewed
combating
citizenship
roads
restricting
mechanistic
ambient
holds
conducive
responded
powerful
pursued
viet
extends
tackled
concerted
ltd
footprints
clothing
imag
promotional
substantiated
predicting
derive
utilise
denied
incorrect
rrps
typology
decarbonised
pesole
removed
stressed
backgrounds
looks
machinery
moreno
disproportionately
failures
##athons
polluter
concluding
contamination
supervision
##otype
entrench
teachers
federal
federated
multiplier
letters
marriott
unlike
unlikely
mesures
tpwc
unavoid
harnessing
imbalances
cruise
anthropogenic
remotely
fiches
wikipedia
remplac
##information
acidification
exemplary
hackathons
dioxide
inspections
alex
bever
bond
cw
cso
cause
craft
dwell
fiche
gale
lor
lot
lia
mos
mens
ni
os
rm
ress
rod
s3
ses
squ
uri
uhi
vend
wir
##uve
##tf
##vity
##rates
##off
##ng
##nia
##bit
##gre
##lades
##figure
##erg
##orus
##aled
##itors
##eck
##ston
##lets
proactive
onto
##ige
comment
##utory
##rael
alois
beauti
##itiative
##opard
##opoul
adhere
parag
plau
ecb
##quartile
complies
composite
##loiement
accum
accumul
dex
##duced
digitalization
expensive
interquartile
sustaining
spur
notwith
leyen
secteur
transit
repar
recurr
effet
seed
seasons
##ishment
##exe
##ama
amaz
generic
procd
royal
weights
subcont
suburban
overcoming
espa
fibres
infection
estate
cargo
knows
importer
##iants
purely
extensively
linitiative
quaran
adopts
##ogenous
signs
referring
discard
calling
lifted
regulating
phosph
truly
openness
experiential
microelectronics
prevalent
renfor
tried
minimize
gdpr
realistic
progression
broaden
##rupted
professions
handle
treatments
dimin
attraction
ltc
posted
hardest
stored
login
computational
imf
misti
predictions
aggregation
partie
partir
immatric
sampling
glance
brand
stressors
staying
exempt
streaming
terminate
architects
envisages
suggesting
sanitary
interconnections
attributes
neighbouring
contestable
approximation
winners
automobile
consolidation
motivations
coupling
supervis
negotiation
pales
assumes
brazilian
refunds
licence
inefficient
inhabitant
overlap
resolutions
villages
attempts
blog
strictly
deliberative
prsente
petro
jeopard
thousands
phenomen
completely
distortions
##rooms
particulires
inherent
dollar
featured
sanctions
artistic
axis
enzymes
unequal
intrins
spirit
false
rarely
dismiss
singapore
entrenched
unavoidable
beverages
aloisi
notwithstanding
phosphorus
phenomenon
a3
ampl
ben
band
cite
dl
dmm
dron
earm
fits
g7
hon
ig
kh
ny
ram
txt
vector
west
wmo
xavier
##mup
##ei
##vious
##zeg
##gt
##ja
##develop
##pon
##pol
##pass
##lf
##laus
##far
##hu
##yp
##wear
##orm
##rost
##itz
##itas
##enth
##stein
##rem
##irable
sun
story
enqu
##mporal
coven
##idity
began
israel
##chi
##change
parity
##otal
imparti
##sions
chips
compt
deaf
unilaterally
relied
spot
trains
leaves
##inea
ages
underlines
basf
bases
##iotic
upl
directed
directions
modified
obvious
diet
employs
hebro
amster
differs
diffusion
rout
enshr
subtit
boks
mayors
##ressively
guy
##reeam
##iversa
joined
none
thank
secur
##nergie
internationalisation
bioenergy
circulation
button
potentials
##liqu
biodiversa
wording
##otemporal
doct
urug
affix
phased
fruit
believ
amounted
bars
barcel
profiling
##tisation
icb
distributions
##ambia
essentially
siem
controlling
documented
terror
serre
progressively
irp
subsector
abiotic
viability
##comed
graham
investigating
dapp
revisions
spatiotemporal
dma
ilost
rgion
repeated
famili
genomic
brown
stresses
fertilising
delayed
streamline
displayed
lutilisation
claimed
reserved
dominant
occurring
agroecological
##ijn
confirm
encompassing
paludic
welcomed
broch
halt
strive
resolve
anticipate
conservative
repayable
corporation
differentiate
interlinked
rcp
upscale
impairments
disparity
laboratory
telephone
teleworking
recharge
dangerous
modifi
statisticians
catchment
fatalities
ralisation
cheaper
divergent
congress
solvit
retrofit
wrap
underrepresented
catastrophe
turstic
reallocation
easyjet
##entioned
tolerance
scarcity
banglades
philippines
lfsa
taiwan
ressources
beautiful
covenant
hebrok
amsterdam
uruguay
barcelona
familiar
paludiculture
aes
bure
bad
breeam
dream
eat
gs
gard
hud
ky
kat
lighting
lann
mff
pun
rh
rand
syst
ts
tan
tic
tast
xv
x3
##uro
##uire
##uffs
##mi
##ioration
##turn
##ais
##nes
##gering
##page
##pace
##hand
thy
##ertification
##orys
##anes
##rot
##roc
tous
##arag
##urer
##icro
##entes
##ello
forced
reth
##aby
##abilit
##iger
sto
##ode
alco
exiting
extinc
resh
importing
plur
plate
ecorys
chance
chief
##quet
regret
indoor
depr
##ador
##umb
expiry
interinstitutional
serves
spok
meg
traditions
consume
##olland
##ivia
peru
scan
canad
counts
seize
##ager
##istry
##strate
diffr
route
etui
respects
subnational
emir
overwh
evasion
door
operable
guinea
peat
##oup
##tite
travelife
surpass
multic
currency
integrates
parliaments
formulation
formulated
offerings
strengthens
provisioning
responsive
charged
deliveries
procedural
observes
principal
preca
preceding
averages
instrumental
triennial
symp
##anisme
freel
sincl
receives
fishery
determines
demonstrations
audience
edited
ceased
declare
interacting
harmonise
optimised
aligning
storms
situational
ghana
sensor
examines
discusses
traffick
obtaining
capturing
transferability
spreads
separation
heading
appealing
undp
engineers
classifications
deepen
learnt
explaining
faibles
boundary
inspired
converted
multimodality
drink
aeronau
##mbh
priced
pollutant
mutually
explanations
psap
edif
filter
unpredic
beds
bedrooms
constructeur
supervisor
keyword
wait
elaborate
sewa
firmly
momentum
eiopa
constantly
catalys
eliminating
predominately
recyclable
strain
neuves
niveaux
authenticity
heatwave
deterioration
gamification
heterogeneity
burdensome
reconstruction
subjective
danger
transpose
walls
johnson
granularity
canarias
compiled
gestion
victim
focussed
isolation
aggravated
interdependencies
nicarag
coefficient
georgia
frontiers
deduc
repatriation
embracing
elsewhere
lempert
entrusted
pearson
symbols
impossible
mirr
racial
argentina
estadstica
paraguay
amazon
procdure
palestine
earmark
enshrined
subtitles
siemens
bangladesh
lannexe
overwhel
sinclair
2c
cd
cart
cuts
cups
cpc
dil
eesc
eige
felt
gn
hope
jtf
ken
los
mur
mme
mere
mcc
mism
ncc
ramp
sam
sides
went
wake
zon
##uur
##iated
##itical
##east
##aa
##aut
##zes
##pen
##power
##yer
##tique
##ndc
##inter
##ales
##anufact
##rov
##edonia
##atom
##arrol
##eca
##eco
##ecomp
##eclar
##ectious
##stock
fore
foref
##acit
sty
##mpact
##ray
cod
##odge
##lys
euroc
eurocont
##osc
shel
##ims
##imi
##imination
byc
incons
commod
tourmis
neet
##ourced
##andon
accor
atyp
unint
unjus
relax
prcis
develops
consomm
desertification
desarrol
##echt
disper
produces
underway
##ailable
invite
outlines
opt
upcyc
moins
##exp
hortic
roof
investor
nouve
organize
overc
elle
elimination
##atif
##ordable
setti
costly
infectious
joining
pean
geopol
bioeast
##overnment
industrys
benefitting
benefitted
accession
presumed
projectors
queries
multif
liu
gendered
detecting
afin
visually
tablets
significance
pollination
collaborating
belief
connects
contraction
printed
presentations
summits
offshore
specialized
lowering
##ography
metal
seront
statutory
ambigu
realise
realised
baltic
config
contracted
edps
careers
careful
ceo
substan
elev
recognises
copies
coordinating
aids
divergence
tenants
predictive
occupation
profitable
csr
exploited
displace
gloria
undeclar
forums
factories
fulfilled
mcanisme
seminars
displaying
translated
registrations
slowdown
femin
concentrations
auxili
silva
overnights
narratives
reserves
##level
mindset
urgency
academics
matchmaking
threatened
factsheets
correlated
sewer
graphs
schedules
entrecomp
ultimate
egovernment
titre
diagram
disadvantage
permits
regeneration
marginalised
dploiement
##flow
transposing
convient
johnston
showcase
calibration
compilation
worse
province
appointed
moderate
towns
injur
dramatically
navigate
champions
dfini
##iannuel
attached
error
kazlaus
analysts
paradigm
irrever
trustworthy
synchronised
weighing
endeavour
hundreds
succeed
stricter
fundamentally
pumps
galement
##mupc
routledge
alcohol
pluriannuel
aeronautics
mismatch
forefront
eurocontrol
inconsist
atypical
dispersion
geopolitical
undeclared
kazlauskas
2nd
3rd
8th
ain
aordable
bh
bund
dip
fis
fimi
hong
iter
ign
jones
kal
ksa
lfs
mp
nest
nsw
pps
pensions
rul
rated
rigor
sed
sab
tun
ties
tell
tabl
vel
vib
xii
zro
zlev
##uti
##ument
##uistic
##mac
##tw
##tas
##tra
##tos
##tot
##eh
##vr
##rist
##oys
##bted
##haps
##wt
##nded
##nders
##entical
inso
##isme
##urate
##sten
##leg
##lete
forbes
reass
##olition
##etti
##eted
stw
##utable
##emistry
##tines
##unter
antim
whe
adher
incumb
implying
indian
##tivation
workplaces
suppri
unid
pred
polym
sphere
mef
meant
consisting
leff
leurope
arm
##ivable
perhaps
##elli
undergo
invitation
ops
##ieu
contribuer
generates
prizes
ensemble
autor
autres
crabol
ell
elastic
monitors
operates
legacy
pef
geoph
identical
selectivity
benefited
engages
communicated
poses
educate
remanufact
discount
comparator
flat
flux
centric
vert
##ursed
transformational
guided
downside
downturn
phil
fairly
##ossary
officer
biore
contextual
profound
summaries
distributor
renovating
readable
reception
assistants
scoreboards
balancing
variant
preparations
##augh
contractors
abilities
abandon
indebted
everyday
pressing
coping
tendency
acceptable
centralised
footwear
fostered
fitness
maximising
diverging
neutralit
virtually
hydropower
dissu
spatially
drops
##afrost
stockt
simplification
childcare
glossary
paramount
cancel
faith
fertility
inspiration
streamlined
integrative
aerts
incorporation
slowly
obstacle
gaining
rolled
roundtable
versa
constrain
crowding
poorly
clarifying
triggering
illustrates
comprising
shaped
recruited
filters
discovereu
occurred
argued
groves
assuming
graphic
rduire
refuel
bridging
permitted
enforced
halting
reused
dashboards
distinction
permafrost
nombre
compatibility
corridor
answered
##gae
libraries
attempt
##rophic
compounds
mortg
cele
pulse
encountered
focusses
biodegradable
memor
nouvelle
pioneer
torres
apparent
perfect
carburants
reversing
disclaimer
linguistic
disturbance
ombudsman
riders
physiological
pyram
sickness
criminal
destruction
fluctuations
convey
descriptor
satisfactory
cwr
dwellings
liaison
plausible
accumulation
quarantine
discarded
dismissal
dmmos
impartial
dreams
punie
canadian
emirates
unjustified
desarrollo
configur
substantive
insofar
antimicro
crabolu
afor
arom
ajust
bon
bers
bbi
cork
cbe
dan
epr
eisme
fav
ger
gave
gva
hq
hiv
hof
jord
kw
kit
kov
kitch
lad
lng
mate
nuc
perv
ric
son
ton
##uate
##rr
##racts
##oa
##zone
##nam
##ncsd
##gas
##kiss
##orn
##inen
##inity
##inant
##itan
##ilers
##ilding
##astically
##asena
reh
reti
##ettes
##sim
conces
##igo
station
##rivals
asean
##ementioned
##rain
covi
##ppers
orders
##terstock
##chang
ante
##iesel
chamb
compost
complied
compiling
##anders
##andum
##alled
depri
contenti
contemp
unp
unta
unexp
releases
exporting
expedia
politi
traine
conserve
leasing
item
clima
pertin
basix
envoys
seyn
modest
##rica
##ermark
noti
annals
bought
crash
elena
travels
demunter
prototype
revok
risak
insular
knowing
travelodge
surrey
biotic
##itories
##avers
multitude
euratom
helpdes
quo
quot
query
endang
##angular
sociology
issuing
lift
importantly
estimations
pandemics
obliged
materialise
fraction
porto
prevail
grouped
foo
fof
volati
housekee
behavioral
residues
crossing
successes
##ographic
metabol
##sah
mobilit
widening
oceania
stark
piloting
fleets
virgin
feeding
agendas
hardly
ccs
likewise
allocations
##istered
investigative
hunt
visions
timesc
immig
originally
interviewed
draws
watkiss
mobilize
eurofisc
turning
unders
quicker
deeply
branding
acquiring
subsidy
embark
execution
streamlining
partnering
drug
drastically
constituting
supermark
judgement
rounds
verifiable
visualisation
silc
psos
clarifies
##fold
secretary
edible
filings
sixth
merely
screens
prioritised
confirms
groc
extractive
##rsent
subscrip
voucher
eradic
prominence
repositories
rcms
ethnicity
nudges
deterior
village
outdated
toxicity
subjects
celex
canario
tpb
routi
tariff
incubators
completeness
bolivia
tankering
gcms
advocacy
shutterstock
loops
derogations
embodied
hilton
efficacy
mediators
suffering
buffers
drafted
patients
possess
discretion
pantour
##opoulos
aesthe
hudson
nicaragua
eurocities
bycatch
overcrow
displacement
auxiliary
dissuasive
memorandum
dreamstime
antimicrobial
aforementioned
eismea
nuclear
chambers
contentious
helpdesk
5c
bian
ewn
fric
filling
fonds
gb
gmbh
io
jaco
ks
ker
kel
lul
lod
lect
lam
mj
mk
nurs
nai
om
od
pod
pure
pave
pda
rv
rare
rivers
rosen
stic
sad
tbm
vc
vict
##uilding
##mil
##mid
##sen
##tech
##vene
##rary
##ronomy
##recht
##aid
##ositions
##zburg
##ney
##cia
##comes
##la
##lim
##fos
##fund
##facts
##hd
##hes
##ket
##word
##ontin
ther
##erical
##inar
##itain
##urpos
##enty
##ele
##eln
##stan
##iln
##lei
reaction
##acion
ons
suite
stanc
statista
##erson
acute
##emi
cool
cots
##ecto
alto
algae
bees
reserve
##uses
##cher
##ucf
##itives
commons
imposition
imputed
plain
chant
christ
atte
##adal
##umin
unman
reluct
expense
marra
marzi
sms
leurs
##izes
arte
array
disinformation
agile
reprsent
recettes
outstanding
couns
upstream
moist
moyen
technique
modalities
dimpact
employability
##utionary
amid
rober
additives
boards
bogus
valencia
##ething
financire
##iley
##aties
monopol
legume
revis
revol
peace
pending
insects
wasted
surfaces
tyres
privile
lina
educated
remit
quartile
multilevel
variants
signalling
compares
treaties
formed
formulate
affil
loi
phasing
trillion
electro
electrification
officially
dealt
explores
hero
herpen
swopa
##tifies
##tifiable
bru
brack
findable
precis
##indre
combines
##ambition
contacted
mature
realities
realisation
readings
recycle
##racting
sala
salaries
salzburg
arriving
civitas
widen
audited
hygi
deviation
founders
geographically
railways
aided
optimization
harder
piloted
storing
malay
computed
accomplish
dynam
##itisation
macedonia
disrupt
installing
ferries
fergus
slovenina
validating
##heast
eeas
simplifying
childhood
##olesc
belgian
fertiliz
translating
checkl
subsidiary
failed
sheets
envisage
permanently
perceivable
epbd
doubling
attribution
lgb
narrative
gridded
audiences
merger
incentivising
conditioning
portfolios
summarises
welcomes
mentors
recher
sovereignty
nominal
frontex
anticipating
lagging
resistant
struggling
dsss
bloom
cbam
##flows
rowe
marriage
stefan
deciding
ontology
convin
beaches
bosnia
unavailable
provincial
appoint
exhibitions
something
ordinary
##appro
reopen
portion
energies
refurbishment
hurric
reclassification
devrait
tm0
lorsque
agglomer
wildfires
refugee
microbiome
susceptible
anchored
stratgie
voyages
catalogues
impede
rodr
accumulated
subcontracting
drones
stopped
extinction
deprec
spoken
##strate5
precautionary
trafficking
unpredictable
overwhelming
upcycling
horticulture
ainsi
diplom
autorits
kitchen
rehabilit
##changed
untapped
unexpected
trainees
undersc
aesthetics
lulucf
stancu
altogether
unmanned
artefacts
moisture
hygiene
ferguson
agglomerations
bid
bun
bak
batista
cv
cin
cba
cds
dark
diesel
ech
fond
fourn
flying
gf
gw
gast
hat
hus
iata
kle
kir
kri
ll
lac
lca
mall
mno
nge
nodes
pu
pus
passi
rav
rib
viln
wins
xi
xls
##usi
##met
##eo
##eure
##eins
##eighted
##viron
##apping
##aque
##zz
##group
##jk
##dem
##data
##fact
##field
##hous
##houet
##wood
##xon
##orec
##ali
infer
##itably
##ela
prolong
##ulum
##ulating
##oli
##siak
enorm
##uth
##unasena
bears
##occ
##forese
##using
anx
##ops
parize
##otel
impacting
##udi
plates
##ouris
club
regressive
deuts
deforestation
supplementing
unchanged
unforese
digit
digitalising
interchange
strs
spas
desirable
arbit
##ivup
perc
pertain
##ovation
##ovina
haer
scorec
fins
opens
decree
decoup
empowers
envel
##iotis
sebas
moi
moa
##ags
##agn
chang
##istence
nationality
contributor
pointing
roe
routing
adds
internally
##ensen
overtourism
valeur
differing
adaptable
adaptations
demolition
timber
proteins
glob
globe
equations
##ouvel
insecurity
##phones
councils
advise
##venno
firstrate5
student
delim
remark
fuelled
discourse
safely
corps
corsia
flour
flanders
minus
allowance
refined
populated
downsc
phones
regarded
##forcement
bios
biology
herzeg
renouvel
renforcement
observational
behaviors
averaged
distribute
mitigated
excise
minimal
constructed
sizeable
unweighted
sink
recept
##ibly
balances
confron
runs
beforehand
staffing
drain
frances
starter
aprs
cea
ceap
critically
ert
everywhere
everybody
dedicate
posts
synerg
texte
ccam
seasonally
illicit
allocating
physically
paquet
pafos
utilised
occupied
descriptive
descriptions
##books
discussing
immense
simpler
repealed
pastoral
appetite
problematic
nearby
earths
weaker
peseta
deepening
brands
riahi
colom
exempted
inspiring
mysiak
vocal
normative
liquide
valued
newsletters
heard
disposable
jurid
silhouet
silvenno
reinforcement
concludes
attributable
bankrupt
minds
koivup
recruiting
moved
inholland
motivate
motivated
littering
feedstuffs
exchanged
negotiate
prioritising
prioritisation
curriculum
magn
spcifique
recyclability
lanalys
vegetables
repayment
##weigh
holdings
briefing
radio
ssp
citations
cbd
camero
pedo
prohibit
deferral
routines
ttps
##escu
distortion
acknowledgements
cmip
witness
arabia
interregional
dramatic
karunasena
otas
reopening
rsult
tactile
venues
reintroduced
breaches
rpks
stip
devraient
listings
rubrique
garantir
##aeve
reinvigor
licensing
nordic
zhang
mineral
lorries
recurrent
intrinsic
rgionale
peatlands
victims
kenya
feminist
mpwt
rigorous
biorefin
abandoned
indebtedness
stocktaking
aromind
jordan
seynaeve
notifications
grocery
bianchi
precisely
malaysia
ngeu
pushing
vilnius
xlsx
enormous
parizeau
herzegovina
receptac
silvennoinen
koivupuro
lanalyse
cameroon
2can
2knows
3can
3knows
4can
4knows
a2
aal
bess
cry
cush
dub
dry
dani
eosc
fd
fes
fst
gem
hl
hosting
hpc
houet
ipr
kun
kick
lts
lose
mn
mow
milit
pv
pc
pf
pere
pick
roc
renting
russ
sg
s4
slic
srea
tier
venti
##util
##mon
##mal
##ski
##rest
##zing
##note
##bg
##gments
##gins
##ji
##dp
##cer
##cul
##cript
##pro
##fd
##ht
##yecto
##ko
##kel
##xx
##tibility
##esign
##ori
##orary
##inating
##alde
inaction
##isia
##aria
##arks
##eces
##omin
##state
##rende
##leum
prod
proac
proli
propo
proyecto
##ulsion
congo
stating
##rier
##odnet
##unt
ally
orange
resc
##tery
##aines
ana
antal
anvr
##opes
incomp
parents
commens
##otted
usability
ecu
eca
ecfin
chen
chequ
chronic
tourisme
##apest
##loi
digitalises
digitaleu
intermod
spa
spons
mart
marsh
##lick
##ardo
commissioned
intense
leone
recourse
invo
invasion
outre
outlets
outweigh
##entile
deciles
decadal
emprende
uphold
marks
##ancers
seal
moore
sky
height
saudi
specifies
ameco
greenways
rooted
prime
counted
activate
##acks
annu
emodnet
##atial
mond
sof
timeliness
protections
prototypes
protein
equation
geosp
localised
initiate
initiating
secre
wastes
transitioning
biogas
authoritarian
pottery
regionally
finalised
naturally
queln
identifiable
methane
signatories
smallest
treating
docs
minute
recovering
visant
vissch
mah
maur
patch
depic
##luent
enhances
customise
customized
prevents
raises
completing
iclei
attracts
renovated
lived
excur
comprehensively
sier
cleaners
metro
pdfview
sera
ambass
mentions
reader
turned
uncover
##rupt
runoff
fosters
influential
auditing
hyper
subset
pursuit
meanwh
substance
everything
neglig
illiqu
travelled
shifted
invention
reasoning
reasonably
dmss
aggregating
aggregators
hrv
ivan
displaced
practically
archive
confident
nearest
categorised
advancements
voluntarily
exercised
corona
converting
disclosed
entitlement
registers
districts
entirety
normally
scalable
propag
evolved
verifying
fastest
probabilities
crowded
dividend
satisfied
epc
clarification
unsu
motorised
biotechnologies
correlations
##borg
acquisitions
inventories
lobb
masse
clicking
apartments
leveraged
preserved
stimulus
minorities
alleviation
resolved
nulles
hydrology
manuals
ssbd
provenant
cornerst
exacerbate
dpenses
harvest
games
intensifying
rewarding
pedest
interpreting
envisioning
deferred
taj
wtt
standstill
toolkits
ipceis
duplic
deficits
imbalance
rationale
divergences
mller
recipient
derogation
embodying
refurbished
manifesto
enacted
pledges
revitalisation
steady
##atrends
##ssenk
prescrib
abundance
turbine
mathematics
mathematical
anonymised
##trn
##zania
avenues
detriment
epidemi
fernand
vietnam
imagine
rmf
supervisory
petroleum
doctors
terrorism
random
thyssenk
megatrends
multicultural
freelancers
earmarked
commodities
roofs
inconsistent
iterative
rulings
sedi
incumbents
geophysical
torresan
contemporary
pertinent
overcrowding
##aciones
atteindre
counselling
revolving
diplomacy
rehabilitation
##vironnement
unforeseen
percentile
scorecard
envelope
silhouette
aalborg
cushion
fstp
military
russell
slice
ventil
prolifer
propositions
incompati
commensurate
geospatial
quelnta
visschers
meanwhile
6th
ah
ath
auction
bm
bic
bac
bim
bell
bif
bans
cass
citation
df
dav
dinc
dnergie
gt
gov
gfu
gmac
h1
hes
hide
ku
lid
laction
lbc
mm
mold
muj
mims
nab
native
niger
oli
omen
pain
pitch
rl
ry
ros
rents
rams
sb
sir
sams
tied
tight
tang
vif
wag
wick
zambia
##uar
##uyen
##tad
##vation
##vent
##rer
##rat
##rals
##ael
##auc
##ob
##ox
##offs
##bed
##based
##gne
##dn
##ction
##pto
##lment
##lature
##fr
##fri
##front
##hc
##homa
##wi
##11
##titive
thaw
theories
##orms
##eni
inappro
##ito
##uras
##urite
##icacit
##street
##letin
##leash
propri
forging
forcing
##ulates
##asi
reis
really
##iries
##iga
steep
##ersely
##riques
asc
##owners
##ticism
exante
resort
resumption
shad
anecd
incoming
ecvs
chat
##aki
##ander
##adors
contacting
supplment
unt
unreg
uninter
unleash
relles
diges
prud
##ipes
intervals
willia
##enclature
trail
arable
reply
haub
scot
##entist
upfront
seab
environmentfri
ski
modify
marketed
##agen
chane
##enez
##rying
planting
fundra
##boom
rok
root
nothing
activism
lapp
pregn
boom
bouw
boilers
assesses
redesign
eli
termes
collectivity
guard
efficiencies
##intourism
rises
geol
##outs
insured
defend
selective
adversely
schmid
butler
studied
posadas
delt
deloit
##took
finalists
##endly
remai
anyone
liabilities
twg
signatures
budapest
##bone
cooperating
forming
ordered
farmer
issu
lifting
centro
distances
obligatory
demanding
behave
mapped
shortly
recommending
electoral
smartphones
openstreet
commits
committing
officers
deput
instability
bike
landmark
simulated
observe
icapital
aversion
triv
concernant
equalityintourism
minimizing
residual
cropping
intermediating
##embles
lowered
ipo
unwomen
meta
publishes
janssen
characterise
bulletin
stars
avoids
backbone
api
##brate
erp
nettes
devast
devise
devised
statistically
advisor
advisable
scientifically
nlbm
downloaded
postpon
justification
grand
ccb
allocators
imaging
preferably
pacte
conformit
##assified
causal
artists
voie
cohrence
##arse
denote
denomin
aggregates
usefulness
modernised
##health
stockp
frequentist
azurite
watching
unfol
undo
nguyen
##ussions
classify
##ursements
satellites
advancement
exercising
faire
breaks
##rupp
fertilisation
advertiser
entitlements
favouring
economicsvis
morator
probabil
crowds
ranges
thought
extrapol
##osphere
comprised
motorcyc
premier
edih
counterfe
seriously
degraded
urgently
merit
cultour
matched
supervised
negotiating
levy
summarise
##issant
welcoming
##ropol
eliminated
receipt
broken
altered
egf
universit
universally
weekly
scholars
reusing
religion
touchpoints
reproduc
happening
settle
polarisation
nomenclature
regenerate
disagree
hindered
repayments
filled
undermining
undermines
simultaneous
radical
wilh
gaming
hampering
templates
deliberation
combatting
angels
calibrated
eye
deferrals
handbooks
rainfall
nsos
incubation
tendering
talk
talents
compromising
ttw
replicate
gcos
isolated
biodegradation
santos
prompt
diagnostics
withdrawal
prague
appreciated
disbursement
births
superior
recipients
underestimate
carburant
drafting
fonction
wildfire
lignes
##osium
liberal
hypothesis
abundant
toll
fluency
prospective
intersectional
lenvironnement
mixt
complicated
reparrivals
jeopardise
uplif
guyane
affixed
believes
brochures
gsma
tanzania
rethinking
symposium
style
shelter
prciser
injuries
irreversible
unido
remanufacturing
pyramid
configurations
kovats
pervasive
compostable
footer
housekeeping
routier
moyenne
affiliate
fertilizers
recherche
depreciation
arbitrary
delimitation
colombia
juridique
proactively
secrets
sierra
ambassadors
illiquid
lobbying
thyssenkrupp
proliferation
dincitation
gfuel
rlfs
inappropri
uninterrupted
williams
hauben
environmentfriendly
pregnant
deloitte
remainder
openstreetmap
economicsvisits
probabilistic
motorcycles
1st
2d
4th
aside
bil
bart
burn
cards
cges
colog
dw
damp
dair
dcl
drem
ees
eag
eovs
fp
gg
gmo
gijn
hire
hond
jump
kill
lut
mote
muk
nau
odi
pis
pjan
qi
rut
sort
sous
soph
sourced
ssah
tj
tc
tant
tape
tonn
wg
wc
wss
wiley
wipes
yar
yang
##uits
##uaries
##makers
##sp
##iety
##tons
##vo
##vms
##vhaus
##run
##rust
##rue
##ament
##oying
##zamb
##bourg
##gip
##cut
##cast
##pet
##pine
##las
##lab
##lity
##fo
##hare
##hotel
##yce
##ygen
##kan
##20
##tia
##ondition
##onik
##ergies
theatre
##enantes
##ald
inev
##anz
##isa
##inger
##ican
##stake
##iled
##rement
##render
##lean
##leged
##uli
rever
##olia
##eto
conce
##iras
stood
styl
street
enrol
##ateurs
##utres
asf
cole
##idel
alpine
alleged
##osa
beij
##terity
isa
##thmann
##usal
##uscript
##ched
##ucks
##imenting
##itius
additions
parry
ecli
ch4
chaque
claus
##akh
##aping
accrue
unst
##onomie
relay
prt
prpar
prenantes
expects
interpl
interurban
intertw
spr
spher
sporting
marin
margins
meals
lend
##iaux
##izations
aging
agility
reperc
perpet
scra
##ualdad
outper
##entieth
manuscript
upward
sez
publi
avms
modular
##acher
##aching
##amm
##ami
##aming
innovfin
sav
##sson
amt
skillset
articleview
procl
roo
activated
lav
annivers
subd
subord
subgroup
interne
emit
ember
valeurs
assessor
elite
eltis
##holes
collate
experimenting
travail
setu
fibre
specificity
protest
protects
numerical
##pson
insurers
strategys
##egler
##phere
annexed
biobased
governed
advent
objection
linn
linc
helpful
##ended
multistake
twenty
twentieth
budgeting
budgt
airways
discour
coral
affir
flora
lifts
distancing
refusal
loading
php
phys
continents
legislators
patri
##ugal
contrle
facto
factual
herrera
charts
customisation
landf
microorg
obsolesc
groupings
surveying
observatories
triangular
attacks
##itigation
born
passed
passports
consultant
consultants
searches
##ambod
internalisation
crogip
dispers
entreprises
crida
etci
##ographical
meter
metropol
menus
unctad
easa
similarities
slides
determinant
width
accelerators
abms
closest
intelligible
ceos
##sibly
adequacy
harmonising
##person
negl
calculators
calculator
coordinators
tendencies
optimistic
optimize
textual
clothes
allocator
##linik
maximize
departures
technologically
dautres
maintains
installers
utilising
existed
delegations
absent
mandates
grounded
awarding
eccp
ilostat
stimulated
disseminating
damaged
rrp
subparagraphs
archives
undes
undist
msmes
flagships
browse
curve
braille
ratified
synthesis
fait
execute
promoters
seman
translates
ideal
scalability
judgments
garment
disposed
##asmec
emphasises
visualisations
##thetical
constrained
dividing
poorest
illustrations
architectural
enjoying
interconnection
cedefops
compris
premises
iea
russi
##owski
editions
wanted
consolidate
moves
municipality
enjoyed
couple
leftovers
exchanging
wildland
summarising
summarized
coalitions
graphical
neighbourhoods
baum
inventors
##ropical
embedding
brokers
bridges
alterations
exported
##computing
conversations
assimil
alleviating
strives
anticipated
masks
exacerbating
abstracts
notice18
vastly
distinguishing
laboratories
inflow
segmentation
extremist
envisioned
bosello
blending
nsdp
accident
trajectories
enlarging
enlargement
##atoire
simulates
simulating
ranks
prompted
advocate
diagnostic
dollars
featuring
gazelles
rupp
supercomputing
lisbon
outset
pitching
distressed
piece
pieces
##horizon
handicraft
colleag
disclaimers
prvoit
hypothetical
licensed
cafs
procurements
wedge
detrimental
epidemic
announcement
ajout
cultivation
weakened
square
wirthmann
dexterity
espaol
diminish
immatriculs
bands
enquiries
confirmation
tursticas
bureauc
##abytes
scanning
diffrents
zoning
relaxed
consommation
neste
tunisia
tablissant
vibrant
adherence
lefficacit
elasticity
fluxes
mortgage
retirement
politiques
volatility
immigrants
jacob
sadc
checklists
lgbt
husband
kriegler
passivhaus
pertaining
decoupling
remarkable
renouvelables
confronted
ertms
synergistic
fdrs
festiv
pereira
antalya
ecuador
digitalisesme
intermodal
mondial
patchwork
cornerstone
pedestrian
ahmed
bicycle
mujeres
sirigu
wicked
proprietary
anecdotal
deltares
issuance
deputy
inappropriate
eagf
nautical
tonnage
beijing
interplay
intertwined
repercussions
outperform
anniversary
multistakeholder
budgtaires
microorganis
obsolescence
2a
3e
3c
aar
aroc
bach
cay
cau
census
dh
dar
dce
dow
deng
dining
dau
dense
eating
fs
fou
fung
gab
gill
gwh
h2
han
itin
iron
jon
ki
kon
kas
kamp
lit
lem
litigation
lhorizon
mak
mie
mile
mxico
nich
ore
pms
ray
rome
santi
sna
tat
tand
tag
tune
tci
tadeus
trophic
ut
vectors
vuur
wear
wine
ware
wang
zimb
##uvi
##matic
##math
##monia
##su
##sev
##ska
##iations
##tre
##tps
##ea
##zo
##nis
##nels
##naires
##bus
##bles
##gation
##gique
##dent
##dim
##donal
##cf
##cambod
##lor
##light
##hus
##ye
##yr
##kech
##15
##tiss
thing
##erba
##ndre
##orily
##enir
##ensible
##alers
andr
anderson
##rous
##roots
##ederation
##iser
##isible
##isse
##arro
##arus
##ariate
##arctic
##itud
##itto
##urning
##omon
##omena
##ilings
proving
propor
fort
forde
##asno
##asbourg
render
reef
##olta
eut
##acional
constr
conventions
##abwe
stck
sterg
##utan
##ida
##ider
##idad
##evision
eurozone
alt
exogenous
##osures
##osci
beg
##ocial
##ocell
##forward
ism
##ainen
##imarro
##oppe
##opia
##ionnet
incid
impression
##uda
##udes
neff
neets
plos
plug
ecs
ecl
chef
cli
cl4
compart
deux
workflows
##eston
suppress
unac
unite
appra
digitalized
interacts
intermit
intergener
served
strasbourg
marie
marino
mexic
leavers
repaid
perennial
##oven
##ovolta
haasno
scocc
recall
recapital
underline
canali
effluent
outlining
##entice
empty
##soever
moy
mozamb
foodora
##agre
dihs
particulate
##ames
sapp
nationals
ammonia
buhoma
transports
approves
popp
roots
etool
prize
ensembles
nobody
activation
activating
annon
boon
bots
boys
overestim
redund
persu
elles
elsev
##holding
##atifs
doors
conditional
setup
soit
fiase
infections
joyce
peut
companion
riso
insec
##ightforward
processor
seeing
posing
qualifying
remember
opposition
quarti
quoted
multidim
endogenous
##ogens
linde
risky
longitud
organism
parliamentary
centrality
minors
distort
distorting
gobi
refin
refresh
carbone
materiality
urbanisation
lawful
lawfully
trucks
fairs
fairhotel
recommends
portals
openly
committe
drives
##unctional
facilitators
bien
biop
facteur
##anka
microtas
associate
cookie
rening
footing
humidity
humaines
whatsoever
offences
searching
alternatifs
automate
synd
calor
retre
returning
gdyn
disposi
reaches
efsa
##icke
##icka
definitive
uncons
aftermath
ballo
pathogens
variance
fisherm
slide
salt
salv
##fficients
civile
slots
evidenced
frank
francis
freephone
auditory
edu
editor
abrupt
ceiling
ceilings
##inson
feeds
recognize
shipb
shipments
notice8
allocates
tenir
hunger
consisted
robinson
david
##liest
nutritious
afforded
deriving
voices
engagements
cohorts
origins
flagged
ghgs
eccs
csp
rgional
transferable
forecasted
displays
typologies
glac
glaz
aircrafts
camps
camping
credibility
implicit
colon
institutionalised
television
formalisation
layer
##quez
digitise
vocab
##oyens
returned
registry
##iii
compensating
ideally
boxes
##mbre
blocking
fails
biota
feedbacks
garcia
##athy
organizing
visualise
probable
possibilit
silos
silver
fulfils
passion
poorer
doubled
filed
demographics
warran
incentivized
##ennes
argument
trainers
elaborated
confirming
snapshots
teamwork
##ochemistry
inventor
license
masson
appearance
attained
halleg
oxygen
photo
photovolta
supplemented
stimulates
reproduce
happens
strikes
straightforward
overlapping
anticipation
hindering
mascul
meaningfully
marginalized
cnect
vessel
ssps
inclusivity
donc
semiconductors
loads
attempting
citoyens
##ndez
intensified
cbas
camionnet
wholesalers
##ogenboom
correspondence
showcased
seafar
acknowledges
rainwater
spillover
legitimacy
incubator
imperatives
periodicity
phenomena
capex
compromise
compromised
divisions
tanked
thompson
replicated
multinationals
enlarge
conomique
conomiques
particulier
occasional
breaking
miller
millennial
trying
wishing
offsetting
memory
soma
coaching
faqs
otto
shutdown
nouvel
retroactive
lyon
mlmupc
michael
reintroduction
bearing
loopholes
grassroots
##veloppe
coefficients
apparently
escal
escos
handicrafts
errors
college
patient
##asconi
possession
steadily
grimm
discounted
turbines
falasconi
advertisement
advertisements
susceptibility
assignments
rebuttable
monetisation
minerals
landsl
permettant
obviously
securitisation
modifiant
retrofitting
systme
foreword
nouveau
ambiguous
reassess
wheat
##aught
refueleu
ajustement
hofmann
quotas
endangered
timescales
drugs
subscription
kellys
marrakech
brackets
echo
gastronomy
anxiety
clubs
deutsch
drainage
reinvigorate
receptacles
cheque
mauritius
ivanova
epidemiological
ventilation
lidar
moldova
samsung
fundraising
bouwer
defending
schmidt
devastating
denominator
stockpiling
crowdsourcing
dairy
moteur
tjtps
inevitably
unstable
spheres
avmsd
subordination
linnovation
metropolitan
undistorted
rupprecht
colleagues
microorganisms
aarhus
dcembre
founder
itiner
santiago
tadeusz
vuuren
zimbabwe
##cambodia
proportions
stergren
intermitt
intergenerational
haasnoot
scoccimarro
mozambique
elsevier
quartiles
multidimension
longitudinal
committees
gdynia
dispositif
camionnettes
5can
5knows
7a
a9
amp
aus
bub
bern
bret
cu
ct
cp
cen
cec
cort
cum
cest
cave
dn
das
dol
dess
dort
ej
ere
eia
erem
fever
gon
gur
gall
gps
gren
gold
hi
hem
ities
iyer
jen
jim
jong
jha
jama
kg
kic
kra
klo
keen
kwh
kount
lie
lou
lyn
lugg
lnergie
lambition
lanka
mit
mun
mong
nh
nin
ober
pic
pig
pater
pension
peter
peters
ring
riz
rss
rice
rock
ruled
sr
sri
sap
sist
ti
tent
tsi
tir
trial
ump
vit
wo
wars
xr
xiv
zw
zar
##uated
##under
##utives
##uous
##sd
##serman
##self
##sky
##iu
##iors
##iffer
##iopia
##tables
##tarian
##vest
##rit
##rine
##ronomic
##aro
##aust
##away
##oire
##zano
##nen
##nal
##je
##jula
##dles
##dict
##cos
##post
##lmupc
##fect
##hl
##han
##kens
##kking
##kken
##wat
##wash
##12
##tik
##onv
thurs
##ertia
##ndust
##orhood
##enh
##enary
##enna
##inear
##inks
##alup
inertia
##eds
##atte
tout
toute
##istically
##arit
##arning
##itely
##uration
##urgence
##ico
##ecological
##lem
##mentation
forge
##ulu
##ull
##asp
##aser
rej
rewards
reactions
##irations
##abal
sugar
##igital
##igence
##igue
##igences
##igalup
ster
ensi
##uters
asy
coding
coating
##odg
ali
##tico
exited
##osic
resurgence
##forum
shi
##illa
##iller
##ucc
##ucker
##ime
##imited
##imeni
##option
incin
parven
parental
##uder
##ffective
nee
plural
eck
cl5
##ako
##aport
induce
##alli
##uster
##ados
##adays
unsa
unmet
digitiz
dignity
prentice
##anto
polis
polski
intercom
interior
interruption
spo
spell
spacing
marcom
mend
intent
##encias
trails
notre
desire
lehd
##izures
armen
##echten
disney
secteurs
##ivent
##aste
ham
scur
scand
scoring
underutil
undertook
##uba
inval
invisible
opration
basket
manire
decides
empl
empres
empathy
upm
##solete
seizures
moem
techno
avant
obsolete
dijk
##ificant
##ieg
##ista
##press
articulation
sah
planets
amor
contributors
generator
economica
greenwash
etcc
primes
researched
hasht
lao
pret
##ensors
boats
overly
critto
analog
##holm
##tedly
collects
collateral
esd
esma
monday
solomon
souti
impacto
impactful
taray
carers
revista
promise
wasserman
facets
internationale
surina
annexe
concise
laboral
##ansen
identitarian
##avours
multiv
performers
authorization
schne
schanes
communicative
designations
deline
opposite
quad
endow
certify
twh
detected
signature
signpost
budg
budge
referenced
afid
fusion
restart
challenged
discontin
tremend
trekking
lifesp
directory
goos
taxis
entran
loyal
supplying
##mmene
phr
behav
maff
maap
maize
shorten
necessit
pollen
accountable
deple
deplete
belize
instal
payback
amounting
biochemical
factory
herr
twofold
representations
barth
swiss
cooks
brun
brjula
octobre
precondition
structuring
personalisation
learnings
humanity
annualised
majeure
capitalising
internalising
residing
crossroad
cali
yourself
choi
neutre
constructing
ipu
unwtos
standardized
definitely
realize
publisher
progrs
broadening
bali
statuses
enforceable
characterisation
easi
eased
confusion
confederation
arrived
reflective
reflections
oceanic
##ieri
progressing
franais
politically
bulk
handled
starts
abate
cycl
apis
europol
dedication
submissions
harmony
elearning
##nez
debates
classical
footnote
computation
expands
iiiii
correction
tenu
taskforce
imi
nowadays
##onnect
dame
houses
paul
herein
existantes
insign
adjustable
fallen
droits
##bersome
immer
originating
ilosta
stockholm
csms
panama
registering
separated
mobilized
undrr
genome
credentials
collecte
catgor
##aimed
circumvention
dataspace
inspector
illiter
illness
disclosures
translations
slowed
liveable
judge
neighborhood
berlin
propensity
propulsion
rounded
roundtables
garments
##athers
banned
pasimeni
exceeds
epcs
novelty
illustrating
unlimited
attribute
approximate
dominate
dominican
underpins
infringed
premia
kohes
film
films
countering
counteract
bnfic
discovery
mergers
substitutes
remuner
giralde
threaten
threatens
##ijan
argue
argues
pollinating
ventures
schedule
persistence
licenses
magic
reimbursed
pictures
ineffective
emotion
intentional
titled
settlements
psychology
narrower
seller
sellers
aspirations
sequential
biogeographical
biogeochemistry
stranded
disadvantages
nomads
interconnectedness
proxies
multiplied
hydrologic
conceptualisation
corporates
thinkers
lifecomp
##organ
suivi
ukrain
donation
notice13
intersecting
distinguished
valorise
##worthiness
fragility
deliberations
retaining
jeune
prohibition
interrelation
modifier
showcases
calibrate
absorption
eyes
hoogenboom
medicine
confidentiality
browsers
blended
routine
bolster
tnage
tntot
announces
comfortable
conomie
exhibition
simulators
occasionally
raniga
inherently
conglomer
enrichment
coaches
diagnosis
micronutrients
appreciation
appreciate
disbursed
disbursements
ncessit
ncessite
ncessaire
remoteness
prioritizing
grassland
stabilisation
intentionally
thoroughly
cabrera
nederland
embraced
branc
fonts
kazakh
rotation
rotations
##ologists
paradigms
convenience
uploaded
discrep
discounts
refugees
fallout
lucas
lensemble
cotton
intersectionality
wednes
redistribution
voyage
surprisingly
nurture
nurturing
alexander
vendors
wireless
supervisors
petroch
uplift
repeatedly
brochure
kymmene
katty
tastes
reshaping
mirrored
gnral
unintended
nouveaux
elevated
bhutan
teller
predecess
concessions
crashes
metabolites
supermarkets
kerala
lodging
sticks
##urpose
reluctant
roberts
bruijn
hurricanes
traineeships
klein
sebastin
flourishing
witnessed
rsultats
pcp
negligible
hrvats
propagation
unsuitable
prescribed
sediments
incompatible
auctioning
bacigalup
cassini
ramses
ascertain
shaded
unregistered
digestion
trailer
geolocation
trivector
moratorium
wilhite
honduras
kills
mukono
rutas
##cutting
clauses
proclaimed
adventure
lincidence
physics
semantic
##erbaijan
eclac
recapitalisation
calorific
retreat
fishermen
shipbuilding
hallegatte
seafarers
grimmond
multidimensional
cumbersome
gonz
jongman
kountouris
luggage
sisters
thursday
##inearity
digitization
marcomini
armenia
##echtenstein
greenwashing
etccdi
suriname
lifespan
crossroads
insignificant
inspectorates
kohesio
giraldez
wednesday
bacigalupo
2is
a1
asi
apar
ahas
aille
aaa
bv
bit
buc
bail
boun
baby
cra
cant
css
craw
dal
dge
dys
dred
daction
dotted
eo
eb
eac
eind
epo
ebi
eaw
etina
ft
fc
fati
fasmec
gter
gone
gib
gambia
him
homing
ile
kos
lp
lloy
lights
lacc
mg
mast
mio
mines
mice
mits
nis
nets
nze
nergies
nacional
pm
pj
pin
pec
pup
qr
ri
rect
rlf
sop
sake
song
sids
t6
ting
tab
tate
tid
tum
teen
tamp
tiers
tucker
vu
vin
vue
vise
veter
vrification
wol
wos
wards
wans
wout
wants
x4
zagre
##uy
##uis
##uff
##mative
##mala
##ihu
##tar
##tle
##tration
##vy
##vin
##via
##rens
##aat
##atics
##oee
##zed
##zzy
##ns
##bel
##gitive
##jera
##dc
##caps
##pid
##pecting
##lt
##lav
##lock
##fish
##hoven
##yan
##kl
##kh
##wind
##17
##10
##14
##22
##tilo
##tific
##ondi
##onfer
thon
##erlands
##esia
##enza
##enburg
##alan
ini
inability
##anmar
##anthrop
##analys
##atar
tow
##isphere
##ared
##itations
##urge
##urface
##omi
##eliotis
##elicka
##statis
##ilh
##rew
##repid
##ulative
##ulse
##asa
rey
rend
reed
reanalys
##older
##etuvi
##aceted
condens
##irection
##irta
##abet
sums
suomi
comit
stre
stance
staged
static
stems
enat
ents
acted
##pex
asks
##eman
##getic
coc
coerc
coinc
cofund
cooee
##pps
##tini
alph
algal
withstand
exha
exxon
exigences
##ocity
##tered
##thenburg
shame
ans
##ima
##imale
whist
##optim
addi
adjus
command
implements
impulse
##version
##vergne
##ffre
##ffman
plot
plenary
ecoc
chip
chemistry
##bert
##qui
clin
##akis
##akaki
##gyar
regain
##appe
##lood
##andie
##aylor
workflow
##ado
##adapt
##uma
dattilo
contre
unh
unus
uniqu
unrest
apple
pratt
preston
expost
polyst
interrupted
intervene
marag
servicest
meille
economa
sociaux
smr
intrepid
trait
trades
tradem
consqu
desks
leur
##iam
##iao
arn
arises
dism
disinc
disapp
disappe
sectur
transbound
##ively
replied
##ovi
##ovo
haw
hail
hailst
scams
assure
asseng
underdevelop
##ailing
##ailability
shoulder
upwards
sees
seych
mooc
avr
modality
##ermans
informes
##ague
##agne
##agasc
##amo
##amation
heir
projection
programmed
##ssd
strategical
amuse
amrica
hori
horeca
##areilh
procurers
roth
roaming
nostra
researcher
actionable
technologique
weihu
suboptim
internship
##enska
emff
##acey
bou
boot
oversi
valen
crise
persists
ela
crew
creators
framed
natal
##atie
collinearity
monte
solved
guil
guian
fiji
infographic
practic
estuary
estuaries
caring
applicables
joan
peuv
risen
risque
numrique
wasting
traveling
bioactive
conclu
approaching
advising
performs
buttons
potable
##lik
##urring
posco
deleted
finalisation
##owned
##graphy
quar
quasi
certifying
limp
liver
liechtenstein
lietuvi
culturally
airborne
fuzzy
fugitive
##atisation
risking
singh
corp
formules
formalities
urb
farmland
centr
centers
mini
estimable
gothenburg
taxable
enters
entrant
##parison
lows
periodically
competitively
downward
tracing
mai
maif
magyar
madeiras
frust
fruits
linkage
granger
legislations
collaboratively
##ugareilh
belarus
##tebrate
instant
administered
owing
owning
indias
biol
stepped
representativ
barp
eurostats
lifetimes
promotions
renowned
agreeing
thirdly
##iento
britain
observatoire
precious
ics
##ronically
##she
citys
earliest
viewer
viewpoints
personalise
comprehensible
capitalised
crossings
crosscutting
dispens
blanc
##pecific
constructive
commerc
nexttourism
ipm
listen
achievable
metall
serial
stata
unco
janv
characterized
holistically
easme
similarity
runners
prima
responds
salary
africas
accelerates
duet
eden
staritz
proportionally
subsistence
subsurface
abeliotis
vienna
carriage
devolder
geographies
tackles
copenh
portugus
acceptability
postal
jusqu
texture
complexities
blueprints
notice7
aligns
ccris
logic
speaking
malti
investiss
##ensitive
tasked
lastly
midcaps
consequent
prosum
preferential
##riptive
southeast
misc
consiste
webpage
webinar
daw
daugareilh
rankings
questionnaires
romn
##isticated
auvergne
##taire
utilises
spatio
existential
arranged
romani
azerbaijan
childrens
transferring
latvieu
speeding
mainstreamed
genoa
decarbonising
##ikes
##ikistan
ecologically
batch
##eningen
reforming
ethiopia
tailoring
dansk
adaption
expectancy
complment
exemple
svenska
executed
executives
expressing
formalise
layout
mixes
fertilization
myers
myanmar
digitising
converging
looked
interpol
drastic
wrong
twinning
reinforces
favoured
normandie
incorporates
ntf
historically
slowing
italiano
valuations
defaults
contradict
concentrate
biotech
repairs
neighbours
personnes
ambitiously
divides
exceeded
epic
##azulu
unlaw
attributing
motorb
##itaire
caribe
beneficiarys
latina
warrant
inhib
enjoyment
incentivize
seniors
##falls
threatening
supervise
##finance
pools
pooled
extensions
usaid
remedial
waived
elaborating
richer
##issance
conflicting
reimburse
northeast
ineffici
oxides
##ungs
reusability
##ymetric
questo
reproduced
happiness
teacher
turkish
diagn
orientations
sequence
belongs
keys
striving
messaging
null
multipurpose
undermined
briefs
lags
radi
cordex
dpart
wilde
nudge
notice16
distinguishes
antibio
intensively
intensify
oils
pipelines
microplastic
subscribers
compounding
subjected
transposed
nitrous
cela
fnv
fnr
endorse
blend
bleaching
volunteering
worsening
formerly
gigabit
catches
dcimale
tttot
cfp
sandra
moderately
surroundings
rationality
reservoirs
prompting
mountains
prag
tacit
prioritized
dtape
pioneering
antarctic
escape
mercury
outsourced
pitfalls
##rospecting
reclassified
underestimated
reversed
georgakaki
mrv
nederlands
totals
repatriated
underrepresent
buffet
parameterization
branches
lconomie
disturbances
lignocell
ppps
uploads
prescriptive
discounting
trustworthiness
trog
trois
catalysts
catalogue
permettront
announcements
fernndez
weakening
##green
renforcer
immatricules
intrinsically
amplifying
honour
comptences
bureau
gardens
rethink
reshape
diffrentes
diligence
consommateurs
multifunctional
multifaceted
ambiguity
mismatches
velocity
xiii
polymers
philos
philanthrop
profoundly
##rophication
celeb
favours
kwazulu
concession
deprived
revoke
revoked
supermarket
eradication
frictions
podcast
rvision
victor
victoria
thereto
revisit
electrolys
dynamism
blooms
convincing
cinema
spasova
biorefineries
crypto
daniel
hlpd
kunsten
mnos
heightened
dividends
fernandez
quelntaro
athens
bellard
nabers
olive
thawing
supplmentaires
lapplication
centroam
unfolding
extrapolation
reproductive
uplifted
dwelling
eesti
fp7
pjanind
sophisticated
affirmative
landfill
assimilation
festivals
dengue
tandis
utmost
##donald
##yrene
fortune
eutrophication
##osciences
insecure
gobiern
bioprospecting
microtasking
balloons
campsites
photovoltaic
millennials
caveats
dasymetric
hemisphere
rizzi
##onvirta
asymm
incineration
parvenir
unsafe
intercomparison
lehdonvirta
underutilised
oprationnels
multivariate
schneider
budgtaire
depletion
immersive
neighborhoods
ukrainian
brancati
kazakhstan
hrvatski
ailleurs
bounce
eindhoven
gterc
kosovo
wansink
zagreb
##onferencing
##statistical
exhaust
additive
adjusting
polystyrene
maragall
disincen
disappo
transboundary
underdeveloped
seychelles
strategically
amusement
weihuhn
suboptimal
peuvent
representativeness
copenhagen
lignocellul
1a
1bn
3is
4is
5b
9th
aa
a5
aores
astra
auctions
arian
bb
bacter
bourg
ck
c1
c2
cast
ceu
cisc
cpa
cmo
dac
dum
dens
dump
dambition
drew
ew
eze
fj
fec
fly
fake
fey
fax
flick
fwi
gil
gul
god
gos
gay
gmm
gau
gams
gathers
hate
hards
hose
hern
hansen
iz
ira
iran
ims
jti
jour
jtm
kur
kre
kim
kap
kron
kict
kata
kics
lent
lments
lint
lange
losing
luder
m3
mop
mish
mss
mpt
masters
mitch
n2
nev
nap
nomic
nano
npi
nerg
nrr
oh
omit
oman
ozone
pg
pak
pad
piv
paus
pix
paves
qatar
rat
rig
rio
raster
s1
smp
sow
sia
siv
scep
sights
sans
says
stig
szeg
tu
tv
tg
trou
tures
trough
tries
tsh
tenth
tropical
taylor
va
vand
vest
vous
vog
venez
wu
wk
wer
wats
x5
xuan
yu
zur
zaf
##uge
##uild
##md
##mans
##mits
##master
##sula
##iel
##iff
##tage
##ements
##vm
##vist
##vencies
##rm
##rable
##rud
##rism
##aes
##ault
##aert
##oe
##oors
##obility
##zak
##zok
##zger
##zworth
##zzan
##nik
##nelle
##bic
##bul
##burn
##gg
##gren
##jo
##jac
##jim
##juur
##do
##dou
##cy
##pot
##pub
##part
##lers
##lack
##fi
##fies
##fran
##fip
##fast
##flies
##fano
##qi
##yd
##wer
##wick
##wana
##wanda
##waste
##onen
##onential
##onics
thir
thess
##oro
##oris
##orini
##entional
##enaires
##inance
##invest
##alonik
inver
intit
##anitary
##roy
##robor
##robi
##rofano
##edes
##attered
toage
##isch
##istical
##arth
##ario
##arias
##aruw
##urities
##icante
##entrism
##omal
##strom
##ila
##iliation
##rears
prok
forb
##ulary
##aso
##asure
##asim
##asia
reim
refit
reaff
reins
##olly
##etus
##acle
onboard
##sio
##siveness
sut
##igualdad
std
strow
stret
stagn
stacey
##atemala
##pez
##pef
asa
##emon
##emen
##emas
##rait
##raining
codi
coex
cogener
coval
coarse
##idis
##evan
alarm
alpes
alba
alicante
ort
##owere
exert
beating
beings
##oci
##ocop
##ocations
##ocrine
resin
sharm
antit
antil
##uctive
wholly
incur
commence
commuting
commuters
impetus
##udence
##uduj
usern
usda
plc
plun
plating
cher
chai
##ranet
##ranational
##berra
##berger
comps
compos
##aphor
##lou
##lough
accent
depos
atten
##ader
##umar
##umann
contag
unve
unamb
apport
relance
relatif
prc
##romobility
exponential
poly
interf
servers
spin
spite
spains
spano
maria
marek
margre
serviced
meeh
mezzan
economical
intel
##encer
consec
desigualdad
lee
leh
lew
lean
leap
leather
leaf
lenders
##iative
##iza
##izo
##izer
ar5
ares
arrow
armed
arrears
##ulty
tranship
productively
agora
agrees
##olls
##ivi
reposition
repurpos
repowere
##ovan
hailing
scott
scattered
asser
assists
assurer
recalled
underused
canberra
##ubius
##ubtedly
fintech
outlier
decon
decile
decomp
decep
##ght
##ghan
partenaires
##soy
sein
sends
environnement
mokan
platt
##rices
##ermo
informe
##agers
dias
dive
##iements
##prudence
plane
amen
amli
generational
generators
poeta
diffuse
communal
communiques
pride
investbg
notices
lair
boat
boating
##ardson
changement
frames
natures
evap
evans
doit
espon
##onse
##ordinated
guatemala
sosten
##okings
##iedad
timelines
taranto
estud
carp
carts
equator
geological
geother
ecosoc
secondi
insect
acta
actuar
traveler
surchar
surrender
considr
objections
##iang
feader
authorisations
furlough
futureeo
schr
england
##osta
privately
linter
worry
##enders
opposes
endocrine
lindust
twining
##iteria
varna
##ortunately
signing
afforestation
restored
##angu
##angroup
accompl
cooperates
sociological
discern
corning
corrobor
urges
ursula
flor
verifications
##banon
directors
refused
##minut
regulator
regulska
pops
oblige
demande
lozano
competitions
aws
awa
phi
trin
maz
ifvms
instituted
portable
micromobility
indiqu
indians
bibl
bikes
renewals
administr
steph
studying
responsibly
##ralia
swaps
packets
sims
simon
microf
associates
##tises
observers
voltage
rapex
lacks
essc
essen
tradeoffs
responsable
earners
earned
##indust
passport
##iquids
exciting
excdent
minimisation
minimization
detailing
internalise
paragraphes
certains
certainly
contactless
calle
terme
roadworthiness
dispon
dispositions
documentary
crimes
critique
criticism
ipa
listminut
metavers
mettre
metaphor
server
mennis
##ibia
socioecological
vein
veiller
manufactures
homeowners
afterwards
pathogenic
characterising
holzworth
##ruple
conducts
confusing
slot
salis
salinity
arrive
demonstrators
quantifiable
dutilisation
audible
edm
hype
abro
launches
launchers
entits
erm
cypef
##loads
devront
deviations
evaluates
##ogne
harmonious
harmonized
recognizes
container
organics
coordinates
ltas
grain
synergetic
notice2
operationalisation
ccm
logo
logged
logbooks
logistical
membre
texts
flexib
malaw
malaria
##plan
papua
corrig
americans
prosec
substantiate
hunting
misinformation
consistant
webmaster
paiements
causality
conferencing
derives
hoteliers
declares
utilized
occupy
occupying
getty
ferrier
ferrous
fermentation
deny
##afford
lex4
namibia
lvolution
pleased
societys
panap
rgcs
tracker
repeal
repeat
sampled
glad
unfortunately
heads
precariedad
luxury
fami
pessim
deepened
credits
categorization
certificats
ratification
expectation
synthes
equival
faon
fauna
garofano
inspectors
cutler
seekers
drinks
seminar
evolutionary
middleware
aerial
susan
replaces
ideation
##portugal
terminated
slowest
ndcs
luz
morph
blocked
constitu
constituted
supranational
failing
madagasc
proceeding
contexto
liveability
unfairly
bert
evolutions
garca
visualization
outlooks
pasos
epgs
clarified
insolvencies
snc
proximus
advantageous
lgf
approximating
dominance
rglementation
winner
revealing
shapes
peaks
woody
premire
premature
filtration
degradable
jurisprudence
incentivizing
occurrences
substituting
ultra
culturing
ncsdndc
contaminations
moments
##ijff
argu
violent
levies
##paa
palermo
##wska
richardson
korean
complainant
lobell
cataly
brookings
grasp
magaz
egd
rentable
oxo
parcours
weekend
photocop
rulebook
recordings
retrieval
happy
happened
federadas
narrowly
sells
wales
##hoffer
aspx
biogeosciences
striking
strand
strands
frontrun
vegetable
beso
oversee
##blat
multiplication
##ogeneous
montants
warnings
briefly
diva
fellow
lagged
econometrically
suivants
suivantes
segr
donors
rcps
rebounded
notice19
harvested
##cipe
telework
hampered
rfr
rfn
compounded
reconversion
speaks
##erobic
decentralized
prohibited
prohibiting
angles
modifie
endorsement
showcasing
bosch
bosetti
canaria
zoom
unevenly
barbados
volunteer
kilhoffer
provinces
harnessed
tnac
tnhd
announcing
dcarbon
##iguous
paradox
meteorology
graduate
smoothly
fatality
attended
ciencias
sandbox
conomies
exhibit
decisively
moeys
feeling
biodegradability
lighter
santato
cheung
aggravate
aggravating
km2
##schild
ordinance
interfering
navigating
ncessaires
lyft
michel
ruhr
sanction
venice
wrappers
##guez
interdependent
dtlf
ficha
hotspot
portions
rpk
stabilise
energ
hurdles
spanning
efficacit
photosensitive
deductions
homest
suffis
fonder
turstica
reaping
pledge
easyjets
garantie
lemploi
sendai
knock
knijff
nordhaus
##vsk
destructive
exactly
avenue
satisfactorily
cultiv
melting
remplacs
vending
seeds
espaola
diminishing
amplified
amplify
honest
nyaruw
##jajuur
enquiry
comptentes
securities
terrorist
rhne
systmes
taste
catalyse
deducted
deductible
cdc
mereu
unintentional
injurious
wheel
adhering
polymer
army
ellison
elasticities
mortgages
danubius
mateescu
endanger
prevailing
timescale
subscriptions
eradicate
antimicrobials
nurses
nursery
naiades
nairobi
rosenblat
##itaine
cooled
reprsentent
monopoly
monopolies
privileged
dynamically
hurricane
rodrguez
kiruna
ribasim
inference
changem
downscaled
biosensors
mindsets
cmip5
stipulates
biorefinery
dublin
mowa
pfizer
rescuing
anaerobic
invoic
excursion
excursions
tajikistan
nigeria
tangibles
untested
prudential
scottish
postponing
undoubtedly
mixture
stylized
marinas
scraping
sezs
dispersed
neglected
undesirable
bureaucratic
husbands
cautious
fungi
hanna
nicholls
andrze
stckli
compartment
suppressed
unaccept
apprais
moyennes
botswana
fiaseet
refineries
salvador
glacier
vocabulary
landslides
ample
breton
gursoy
jamaica
kloster
mongolia
ninat
paternity
peterson
zwiers
##abalala
coatings
spells
saharan
hashtags
soutien
tarayana
quadruple
loyalty
califor
abatement
discrepancies
aaaa
crawling
dredge
laccord
pjangroup
tidal
vincent
veterinary
thonicke
servicestourism
trademark
disappear
hailstorms
rothschild
boulet
conclusive
quarrying
bioliquids
barpak
icsms
commercially
nexttourismgeneration
uncoordinated
dawson
antibiotics
philosoph
disincentives
lignocellulosic
bourgogne
ciscar
ewert
ezeuduj
feyen
gauge
katajajuur
luderer
mishra
mitchell
nergtique
pakistan
pivotal
szeged
turespaa
tshabalala
vestager
vousdou
werf
watson
zafigo
##fiph
thessalonik
intitule
reaffir
strowel
covalence
antitrust
antilles
username
unambiguous
margrethe
mezzanine
transhipment
repositioning
repurposing
repowereu
mokany
geothermal
actuarial
surcharges
lindustrie
accomplis
biblio
metaverses
malawi
cutlery
madagascar
nyaruwata
ezeuduji
katajajuuri
vousdoukas
thessaloniki
2bn
5m
7bn
9bn
ation
aram
bd
bp
bin
bric
bred
bacc
bdn
bwind
cg
csi
cors
cpr
ceter
cfs
cibles
dj
dic
dose
dord
dto
densi
donn
dta
dict
dvi
dorn
dveloppe
dodg
ece
elic
eric
eps
ebr
eba
ehealth
fy
fro
fol
fdi
fso
frid
fta
fdr
fold
finger
fidel
gent
gol
gust
gase
gets
gark
giann
giants
gssd
hc
hed
hect
hip
hov
hump
hij
holland
hims
hleg
iw
ias
ipos
jeu
jensen
james
kor
kall
kios
kelle
killed
lff
lour
lund
lass
luf
lakes
lateral
lieu
lpez
mu
mood
mist
myc
mets
mwh
mds
mamm
nu
nan
nsi
ness
nut
nect
nos
nels
nto
nick
nik
oi
ok
oles
pn
piz
pav
pale
pau
rpar
ross
rwanda
sill
sak
sons
sirc
sba
sria
sfs
sara
tb
til
till
tion
tors
tong
teu
ugh
uho
vv
vri
viv
vanc
vote
veld
vanda
vigue
vague
ws
wen
wan
wing
wisc
wives
xvi
yo
yen
yach
za
##uz
##uat
##uim
##usive
##mas
##mers
##mest
##mish
##mets
##matric
##mlmupc
##iro
##iar
##ifer
##iency
##iya
##tur
##tom
##telling
##turb
##ew
##ender
##vas
##vacc
##vtm
##rar
##rgy
##rell
##riteria
##aic
##aud
##aft
##aways
##oute
##oires
##zation
##zstan
##ni
##bu
##bing
##bil
##bos
##bain
##bay
##bell
##bach
##gu
##gem
##gium
##gane
##jp
##dt
##drop
##dives
##cat
##pin
##pic
##ppe
##pain
##pack
##pices
##liness
##lie
##lower
##fab
##fest
##food
##flick
##flood
##qus
##hann
##hua
##yt
##yers
##kk
##key
##kering
##kmann
##kema
##klinik
##wp
##win
##war
##weg
##tie
##titiv
thes
##erre
##erver
##orge
##enmar
##enberg
##inin
##inistic
##alone
inaf
andre
##anol
##roe
##rome
##roati
##atur
##atlantic
##isers
##isable
##itti
##uram
##icz
##ecka
##ente
##omo
##elj
##elman
##stour
##stov
##stuffs
##storms
##ilient
##real
##lez
##lebl
pro4
produ
##uling
##ulous
##ulco
##asers
rear
reject
eumets
##vet
##etting
##etries
##ette
##acch
##activity
##activation
##sid
conception
##abs
##abay
supri
coms
comt
stu
stone
staat
stenmar
enth
##pea
##essing
##utnik
ash
asking
asoci
##eme
##rav
##rand
##raul
##rawn
##gender
coacch
##odows
##ectral
##idation
##evii
##united
##universi
alber
alps
alger
alumn
albas
alerts
alumin
##tick
##osz
##osis
##osocial
bee
beet
bender
##ocal
##ocate
##oclim
rese
reside
resume
##terdam
##forces
isc
isic
islas
##ths
##thon
##thal
##thel
##thans
##thse
##chise
##chiving
shan
aned
antig
anton
anomal
##uck
##imler
##imester
##opl
ads
admission
adjac
inca
parent
paras
parfit
##otes
imposes
##ffith
plusi
plotted
ecop
chur
chose
chairs
##qual
##quakes
##akumar
compter
compute
compiles
compositions
regio
##apy
##aya
##ayment
acclim
##estry
una
unins
unrel
unga
relocation
prong
##ficially
interven
aller
spare
spots
sparse
sputnik
marcel
##licity
##orse
economists
smtes
smtd
intg
intake
intranet
##encsd
trad
traw
lege
lebanon
leimester
arup
arca
arbeit
arkema
itc
disin
distil
disreg
transatlantic
agronomy
agronomic
##ivors
repr
##ovic
haiti
##eller
scene
assays
assert
##ribe
undergoing
underwater
undergrad
invests
##undi
effets
finlands
finished
polices
opting
basso
manc
mangro
upholding
newer
##ancial
seat
seats
sealing
seizing
motion
foodstuffs
socialising
requal
requisite
skil
##exes
##exual
informations
informative
proposers
##agon
dih
needing
##ignant
##amdd
heidel
policyholders
programao
nationales
nationalist
##elsen
plano
amy
horizo
buchar
transporting
incremental
approve
genera
generous
throughput
etd
respir
##ifund
##ifier
countouris
##acking
lah
laee
anna
weiss
weforum
subpoints
subsah
prefab
shallow
auto
emf
locking
boote
overst
overri
overuse
overflows
transported
redp
differed
##isey
wellness
##ethane
collab
collectives
##ouses
dots
doivent
improv
esr
estime
capgem
therefor
addressees
opera
operative
legumes
legumin
guess
guards
souls
infograph
este
estfund
consumes
carn
carries
##intes
revamp
revival
yearbook
nonlin
risc
risques
promises
equifund
##ouver
initiation
##eyaert
##eee
##eek
secured
inser
insur
idsa
##ledged
medit
figur
##phy
conciliation
waterway
##iano
furth
purification
sche
butter
##liers
##lioration
privil
standalone
designating
extract
participative
participatif
##tog
helpers
##graphic
remind
remarks
quin
quint
enduring
anymore
liby
someone
airs
fujim
longest
##outh
##liavacc
organismes
industrialisation
industrialised
farmed
sizable
visas
distortive
distorted
gobain
##landklinik
taxed
taxing
smeap
personally
##parable
refinement
##minent
learner
transforms
demanded
loos
necstour
materialises
phd
lawrence
lawyers
maisey
fairwork
continually
ifc
encry
legislator
electri
porter
smartphone
connexes
adminis
agefiph
bioph
factoring
responsiveness
##raltar
##irds
swe
packaged
microbes
cookstov
brit
bras
brune
icons
communitys
essence
sdt
trimest
distributing
earfd
earchiving
minimised
minimises
minimally
capitalism
player
temps
##xton
croissance
mats
matth
mechler
##embre
builders
constructs
##atica
efg
efc
standardization
metzger
realizing
##ibich
harming
characterization
germanys
primaut
slen
salin
norweg
slope
powering
quantifies
contractor
upturn
franche
franchise
irts
edin
democra
proportionately
clustered
abuses
abusive
evenly
juste
cease
backdrop
plasticity
coastline
flowers
indexing
erga
temporally
flemish
viral
devoted
septembre
burundi
advisers
fried
friday
simplicity
debts
emergent
classic
concert
optimally
optimism
optimizing
floors
gradi
gravity
grazing
notice9
operationalize
cct
speakers
##linarity
purchasers
maldives
fitting
poursu
journalists
martins
corrections
hydraul
tenant
facilitylf
imminent
prostitution
preferable
conforme
misper
robin
daimler
macao
macinn
croatias
structurally
questioning
paola
roma
tek
deriv
hereafter
auw
miguel
migliavacc
occupant
occupants
youths
ledge
austrian
reliant
reliably
moderna
drogation
mandated
lex5
lex3
immerse
plead
pleasure
paperwork
paperless
hostess
hostelt
csas
panic
damaging
repetitive
samples
glms
bookshop
aquitaine
campos
earthquakes
harms
harsh
harris
##ika
##ikk
satur
classifying
weakest
categorisation
curt
curie
curators
vhicule
windstorms
brande
intercontin
implication
stressor
computerised
catching
synthse
colours
cropwat
fossils
institutionalized
gaia
gaug
circumv
circumvent
svi
breakfast
layers
multimedia
intermediated
intermediates
cutter
wrt
disclosing
nuts2
normlex
checked
replen
terminology
histories
biomethane
moral
morone
##disciplinarity
sheer
cedro
judges
##inkel
repairable
dispose
watersh
kindly
organizational
visualizations
##ilians
probl
mutations
constraint
epis
clarifications
illustrative
doubt
interconnectivity
sounds
thermi
peaked
consolidating
counterfact
chinas
seriousness
akiss
gears
discovering
caro
capped
caada
merge
merch
merged
mailing
incentivised
casual
augmentation
littered
fraudul
sentin
popularity
matches
feedstocks
ncsdmo
contaminated
holidaymakers
violation
levied
remediation
summarizing
correlate
naumann
brazilians
waeyaert
esfi
teamworking
cumulated
richness
kpi
##mobil
warmer
##class
persistently
refundable
brida
neblab
grace
appeared
nortea
oxide
##indered
universes
survivors
scholz
marginally
atmospheres
stimuler
settling
federations
psychol
psychosocial
satisfies
wald
walk
##canner
kei
keating
##nicar
traceable
domaine
shortfalls
interlinks
multiplying
ingle
fabulous
breeders
fellows
ncdd
radiation
radically
nitrate
##incor
suivante
neuro
seguim
donner
juin
industrielle
combustible
exacerbates
dsft
struggled
letter
deterred
notice17
suspected
suspensions
dssc
dssat
assembled
switcher
federationcambodia
blogs
cefof
disaggregation
camia
rebuilding
rebuild
retained
manipulative
birkmann
pull
wallonia
angle
anglo
modifies
absorp
acknowledging
telecommunication
##ettre
medicinal
tapping
lengthy
pushed
worsen
worsens
##uela
withdrawn
mislead
talks
dcfta
replicable
enlarged
attendance
attendants
cmt
upgrades
moderated
feelings
simulator
ralisations
raliser
lgislative
wielicka
##gan2
enriched
enriching
cruises
withdrawals
mountainous
karl
snowmaking
nouvelles
tactics
venue
reintroduce
contingent
surprise
timeframes
prioritize
prioritization
lisflood
stabilising
champion
cabo
dfinitions
outsourcing
remplace
permissions
underestimating
efficace
mediator
jobseeker
photosyn
frontier
axes
homeless
mrna
tapestry
totalling
suffers
attachment
catastrophic
branch
lcu
molina
nationwide
rotterdam
##brovsk
##kesh
aggression
aggressive
weightings
revitalization
griffith
prescott
reinvested
physiology
##abaana
##abarov
endeavours
fluid
microbiomes
assignment
tomorrows
dterminer
ayanz
anchor
stricts
redistribute
monetise
descriptors
permettra
ajoute
sesar
##opoulou
reparability
renforces
renforcs
blog7
drone
khar
khabarov
##eiro
##huis
storytelling
guyana
doctoral
tursticos
dooren
surpassing
freelance
waiters
mirror
dilutive
murphy
samoa
styles
commodity
sewerage
succeeded
bundled
fischer
sabato
supprim
vertu
celebr
pyramids
configuration
danube
ricardo
tonne
retired
politique
insularity
volatile
deteriorate
deteriorated
possessing
kelly
lectures
lamlioration
mkb
mkcf
christensen
reluctance
marrakesh
privileges
bruin
underscores
underscored
bunker
baker
fournir
puzz
flourish
downscaling
magnified
cryosphere
sponsoring
martnez
marshall
annuelles
softer
duplicate
cushioned
quelntaros
bmz
gtpi
mimsplus
paints
wageningen
postponed
undoing
counterfeit
universitatis
scholarships
disagreement
mixtures
bartenders
cologique
gggi
pisiotis
conceived
isa2
prparation
perpetuate
publique
savvy
subdued
emitting
discourage
##linika
lgbtqi
outperformed
bachel
kampala
tagging
warehous
construed
begun
boonabaana
redundant
persuasion
frankf
glazed
warranted
escalar
echoed
intermittence
auspices
cecere
dnsh
dolnicar
pigs
tentative
##australia
##jewska
rejection
scurit
invalidity
empresas
signposts
tremendous
phrase
instalment
predecessor
gonzlez
canteen
fatima
gibraltar
lloyd
mitsopoulos
rectangular
##belgium
reynders
reanalysis
##irectional
coincide
alphabet
whistlebl
clinical
unhindered
unusual
dismant
oversight
janvier
jusquen
ntfps
unlawful
inefficiencies
pragmatic
tacitly
underrepresentation
philanthropy
victorian
centroameric
asymmetries
arianna
dumping
fjords
gulf
hardship
iraq
kurz
nrrps
pgff
padova
paused
tgif
vogt
##zoklinika
prokop
reimag
coexistence
cogenerated
sharma
unveiled
decomposition
deceptive
diaspor
amenities
amlior
estudios
corroborate
excdentaires
disponibles
abroge
ccmts
pessimistic
synthesise
luzecka
arguably
magazine
frontrunners
rfrences
sandboxes
ruhrlandklinik
fonderflick
invoicing
andrzejewska
unacceptable
appraisal
california
philosophical
breda
bwindi
csiro
cetera
dordrecht
densities
dveloppement
dodgson
fyzoklinika
fsoi
gaseous
garkov
hijman
himself
kiosks
kelley
lourds
lufthans
mammals
nutr
nelson
oleson
pauv
sirca
uhoa
vvf
vandaele
vigueur
##matriculation
##rgyzstan
eumetsat
stenmarck
enthusi
asociacin
##odowska
alumni
albasud
aluminium
anomalies
adjacent
parfitt
plusieurs
disregard
undergraduate
heidelberg
bucharest
subsaharan
capgemini
leguminous
infographics
nonlinear
libya
fujimori
cookstoves
brunei
trimestre
norwegian
facilitylfamdd
macinnis
migliavacca
hosteltur
intercontinental
counterfactual
seguimiento
lufthansa
1develop
2b
2g
4ir
4bn
5a
5th
6a
6g
6bn
7th
a4
aro
b7
bion
berm
bps
burr
boss
blu
bread
bold
bona
bilaterally
bcher
cess
cerv
cere
cati
cup
cinc
cante
cpi
caught
cuba
ciam
dure
dot
dad
drou
dell
dong
divers
duce
drac
dval
dasg
dchange
dji
e1
e2
e3
eti
epl
eager
fh
fom
fate
fun
fial
fms
fwc
fridge
gm
gx
gor
gle
gut
gest
gual
gome
gamb
giao
germans
hac
hut
hid
hos
hill
hop
hart
hang
hind
hopes
ips
iges
ibn
ipea
ieee
ja
jc
jal
jag
jata
jero
kz
kl
kin
kain
kam
kee
kang
kemp
kids
kram
kinn
ld
lec
lest
lip
lub
lord
lian
lying
loses
loption
m1
ming
mre
mies
mine
mene
msc
mrd
nr
nz
nim
nop
nour
nso
natives
npage
oz
osh
omission
oef
ols
oasc
pon
pel
ply
pause
pdr
puer
pfe
pdu
rt
rle
rab
ropa
sz
s2
sac
sage
sip
sene
sight
sli
siles
sars
sedia
saba
sull
sailing
td
tin
tak
tical
tons
trol
tson
tapes
uc
upps
vp
v4
vod
vim
vries
vises
viter
vern
voss
vices
void
vaz
vlean
won
wig
wate
wif
xu
xix
yell
yake
yam
yves
yoy
yemen
zd
zte
##uity
##uak
##uating
##mc
##mor
##mill
##mip
##mates
##mie
##mones
##mico
##specific
##iat
##iom
##iates
##tel
##test
##teen
##tles
##tops
##eets
##eau
##vic
##voc
##vnen
##rn
##rp
##ras
##ratory
##rison
##aed
##aver
##aide
##aug
##apped
##otic
##osia
##ooling
##obe
##zb
##zg
##zel
##zemb
##zym
##zica
##zwe
##nell
##nish
##nga
##nesian
##blo
##biod
##bian
##gate
##gations
##gio
##giques
##js
##jes
##jat
##japan
##doc
##dade
##dds
##digital
##cn
##con
##cor
##cion
##card
##connect
##croati
##pur
##ptic
##pad
##pone
##lc
##lis
##lated
##lag
##losed
##fir
##feed
##hle
##hut
##hort
##hran
##hell
##hpc
##hares
##hrain
##hfest
##ype
##yra
##kos
##kain
##kong
##kina
##kistan
##wov
##women
##week
##16
##tiq
##tien
##onial
##onian
##onvention
thu
thin
thro
throw
thier
thermost
##erot
##erated
##erks
##erog
##eront
##eses
##esity
theft
##orra
##orld
##orca
##orques
##enu
##enment
##enet
##enne
##inis
##inese
##inav
##intern
##alia
##alog
##alination
##aluation
ined
inqu
inad
ingen
inaug
##anal
##anth
##anie
##rote
##edor
##eded
##atz
##atts
##atne
tok
toil
togo
##isi
##isen
##isoires
##aris
##aric
##aration
##aram
##arhead
##arrivals
##argane
##itail
##itous
##itano
##urpr
##ingly
##iced
##icos
##icio
##icago
##ecu
##econom
##econse
##omfort
##omares
##eled
##eling
##ste
##ilm
##ilage
##iliter
##rease
##report
##leurs
##mented
ford
forget
##ulas
reun
reich
rebo
retal
reactive
reforestation
##oler
##olas
##oldi
##olished
##etc
##etch
##etry
##etrender
##acz
##acp
##acity
ong
##irability
##iratne
##abe
##abr
suble
suffici
##igues
##igible
stee
stalled
sturge
##ersman
enlight
enzym
##tser
##tsch
##rij
##riel
##rift
##riatic
##utely
##uther
aseet
##emind
##emann
##raux
##gevity
cov
coff
cobo
cock
##ppon
##odal
##oding
##ided
##idas
##idate
##ithme
##evic
##evara
##eviratne
##unes
##unhofer
eurohpc
alc
alf
alk
algar
alca
withhold
withholding
exage
##oso
##osene
beat
beuc
beps
beeh
##oconferencing
##ocentrism
resorts
resourcing
##tero
##terior
##forshe
ishare
##thora
##thoff
##chere
##chke
##chini
shin
sherb
##illo
##illes
##imm
##imming
whit
##open
##opers
adb
adam
adhes
adolesc
adobe
adriatic
##ablement
incon
parenth
commenced
##ota
##oto
impl
impover
implied
imprec
impeding
##iest
##vert
ecall
chp
chem
chad
chich
churn
chung
chris
chicago
##ranco
##berman
clm
cl3
clia
clause
clerical
clerks
compact
compelling
composing
indm
inda
indent
indus
##tivas
##andez
accors
accrot
acciom
##usted
degra
deficient
deinstitutional
workpack
##admin
##adevan
##esta
##ighi
unic
unity
univ
unice
unaff
unsc
unece
universe
unatt
unafford
relle
digits
prerog
##earance
##roma
##antz
##anted
digitalis
exposing
expired
expulsion
polyn
##ipel
allen
servitisation
sustains
willis
spam
spans
spars
spik
spraw
spike
spencer
mars
mariana
marques
servicing
##lical
##ardin
meyer
meersman
commissioning
economys
socit
smugg
intu
intru
intui
tram
trave
traded
trailers
consump
desalination
desirability
leon
##iav
##izable
argo
arming
aruba
arithme
disint
disemb
disorders
transgender
transdisciplinarity
productions
##ivan
##ivar
perish
perturb
haeg
hames
hague
hamil
hajat
scrol
assuring
reconn
rectify
underlining
underinvest
##ublish
invitations
##icht
outer
outran
##entia
opted
##arya
manning
manages
deck
decor
decim
decont
emploi
uph
upwork
##ologn
markers
partenar
##loys
newest
seul
seated
technol
##ularity
avalan
busine
skel
skys
##rick
obesity
informality
informatie
##agr
##aga
##agog
die
dire
dieu
diaries
##aterial
##ongo
inner
##isions
##isionnement
##amon
##amination
innovator
heal
heint
heforshe
publicity
projet
projecting
articular
articulate
articulated
saas
saved
saxon
highs
strategi
##strm
fundi
amr
amic
amif
amuak
contribu
hormones
##bots
##bouti
approving
generals
##ouncil
pound
rog
rope
rozen
communiqu
prix
nox
notic
##abling
activits
lau
laur
laval
annes
wef
subt
subreg
subpoint
subclass
prez
emble
emco
emds
organole
boiling
overbur
overhead
overha
redd
crer
crude
persisting
elated
election
elling
elbe
elvis
##ethee
##irez
crept
fraunhofer
termism
financs
natur
evi
evac
evonik
collated
dosio
esde
eswa
##onsu
travind
gui
guti
guevara
soa
soum
sokas
##works
##worker
timed
infected
infrie
consumables
carl
cares
##bale
reval
revpar
jouer
johann
nont
nonwov
petit
peuge
accessories
promethee
equals
equipping
equitably
genders
localized
localizing
##oukens
generalist
globalization
numer
insr
insurer
wastage
##ksw
facie
faciliter
topdad
actes
actuel
destins
destinos
defi
defense
##egrift
surges
surged
abovem
bioav
concurr
concret
consid
consign
governs
growers
advises
tyler
helix
keynote
keynesian
objectivity
##assemb
##iani
feps
feket
##itement
##aird
schmit
schoukens
potenti
##ostot
furthering
##lix
biodiverse
##deira
resiliency
delisting
delft
qualifies
extrat
participates
participacin
knowledgeable
educating
worrying
remorques
quelle
ends
endemic
anywhere
ceres
ceremon
identifiers
methanol
##egration
airbus
fusions
infrastructural
##atisfact
longstanding
discards
discours
discrete
singularity
corine
lima
formulas
goodman
flatic
flavour
centennial
vertically
verdes
##tening
directe
directement
distant
pandmie
##upta
##partite
##ftung
##ycl
provisoires
refra
casehand
popescu
obliging
necp
urbanization
lawrie
trs
traced
truth
maart
accommodating
understandings
ifrs
encycl
legislate
pollute
electronically
patented
portra
competency
depuis
involunt
##teenth
##unct
insto
administer
contrles
owen
priori
bind
biennial
administra
administratives
stein
stewards
stehfest
hera
chargers
customization
individualised
barone
barros
barranco
swan
swine
swapping
swimming
landing
landowners
contexte
microfinance
principe
likemind
encourag
encourager
brund
brist
voltes
raisons
presently
completes
principals
principally
principaux
principato
langford
dependant
icieg
essai
sdms
##sheet
trijp
tripartite
concernes
concernent
viewing
passage
password
consultative
searched
emerges
sectional
sij
syria
caldeira
lesbian
retraining
clearing
controller
chooses
gdps
gdlc
gdacp
maturation
maturities
matzemb
successor
dispatch
blum
blank
blau
blurring
financement
critic
tfue
hottest
unwanted
achieves
cambio
realising
realism
##ibati
mobilities
broadc
uncont
unconvention
homepage
distributionfigure
quests
fishers
primacy
slugg
slopes
salmon
##inah
powertra
domestically
widest
italians
##usschere
desktops
notebooks
editors
proportionnal
externally
hypers
meanings
abord
cyclical
scientist
fourteen
rightly
cements
ceps
cepal
vij
##sibil
apo
##useppe
reportedly
harmonization
harmonize
presscor
burg
burning
dimmatriculation
ppmi
tacking
##new
##erico
debora
debusschere
continuent
portugals
classroom
agencys
friendliness
optimized
poste
poster
posters
postpone
reinik
justifies
justifiable
grande
gratitude
notice6
notice4
notice3
noticeable
maxwell
cc0
logging
logistic
logics
##bekken
##bekistan
retailing
spearhead
bgk
mali
malmo
computable
##plans
martinez
diversion
dgs
dga
dgvms
situacin
lasts
midw
midst
boosts
perspectiv
soutenir
misunder
dawn
macdonald
farrell
commercialised
pais
paiement
romo
virtualisation
##efined
conferring
migrations
migratory
hoteles
pricewater
dissoc
utilization
utilize
voiced
durables
durrant
ledger
existant
timeshares
ferrie
arranging
mtg
couriers
denying
surveiller
editiontourism
quantitatively
obtains
##mingham
naming
##gery
lvaluation
originate
originates
indirecte
plethora
frequencies
captain
hosteler
macroal
csos
disseminated
panor
vaccinate
azas
vanuat
spreadsheet
separating
mobilizing
glantz
unfavour
speeds
channelling
channelled
robotisation
archived
archae
archipel
videoconferencing
turner
turtles
unduly
msfd
genes
genomes
genotype
reflectance
hartik
harrison
engineer
weakness
cancers
curation
brain
collectes
##titudes
removes
intercro
stayed
color
complt
complte
agrobiod
faroe
telem
intending
gaeil
gaiani
executing
bounded
##lette
formalised
layoffs
mixing
nfps
inspires
converters
runions
illumin
##narow
registries
favourably
prepayment
circumstance
nutshell
compensated
biologically
ideals
subsidiarit
terminating
biometric
luers
luisa
morb
morita
morgan
joinup
dropout
claiming
valuables
contravene
contraignant
biotype
##aneous
deployments
judici
berr
berger
akkain
propre
garfield
visualises
jury
silk
silent
silvia
chargeback
epa
epso
epgan2
insolvent
triggers
nutritionally
unsd
unskill
unsurpr
unsatisfact
doubts
qualitatively
finney
approximations
secretara
dominating
dominica
oliv
thermally
premised
quieter
mindful
koz
editing
writers
interpretative
discovered
carol
caicos
merits
conditionalities
practitioner
bednarow
seneviratne
sensibil
clientconnect
ncsdm
ncsds
ncsdc
##ennium
contaminant
cashier
##ijer
universidad
maintenir
waas
waag
trainer
steelmaking
groen
palm
palomares
richard
taxpayer
xxxx
barom
baham
pharma
foreseeably
##clim
brothel
mentality
extractions
normalised
cellular
grab
egan
egaed
attaining
halve
halted
halving
oxidation
##awatts
vitality
##bury
##burgh
photograph
photography
expressions
uniformly
reacted
anticor
ouargane
titles
recyclers
psychologists
laney
lanne
##ylis
orientated
vacations
walker
##ka2
alleviated
sequences
belonged
keel
strike
modalits
nomnga
resolving
regenerating
frontline
frontload
anticipatory
beside
conserving
conservators
multiply
conceptualise
marginalisation
ecolabels
cnbc
##weight
benchmarked
multilateralism
breeds
lagence
ncostot
radiative
resistances
econometrics
differentiating
multilingualism
ssrn
##increase
provenance
cosmetics
donations
juven
telecom
wilson
letting
econadapt
econmico
rapports
irrig
abstraction
notice10
suspect
intersentia
outdoors
intensification
valorising
cbm
##worthy
toxicological
albany
albanias
climatology
fragmenting
camere
camera
##chez
married
marriages
reconcil
reconstruc
dangers
pedago
pedagog
prsentant
rapporteur
spectral
extremoph
missed
birmingham
rollo
roland
##archal
ontologies
sudan
interrelations
calibrating
hob
hoek
hoffman
laser
blends
mesh
mesure
raining
seemingly
restructure
barbosa
barbuda
kras
nsis
tnmd
compromettre
releasing
wealthier
calendrier
ttpur
stringency
replicability
replicating
micronesia
bergmann
graduated
vicious
viceconse
##frastruct
attending
cmems
acronym
interestingly
climatiques
breast
esip
mills
millennium
leakages
hierarchical
giuseppe
kjell
##menistan
injections
injury
ordination
cruising
phytos
praia
tobago
stereoty
nepalese
solvay
solvents
rsol
##wait
cognition
interdependence
artisans
artisanal
prioritizes
grassano
bayer
longevity
lisa
nicolas
rpond
stiftung
antagon
cabin
dterm
hilfr
mercado
wiki
##innovation
chiffre
reclamation
underestimation
reversal
mediated
##ianni
manifestly
##horn
totality
handicapes
colleem
breakthroughs
lighthouses
molec
nationaux
rubber
rubriques
reallocations
pledged
##ologist
revolutionising
garantiss
ombudsperson
bissa
bisexual
ligne
tolerant
convening
enzyme
liberia
irreparable
reinvesting
columns
scarcely
luca
python
pearce
zhou
anonymized
chairperson
criminals
prospect
lenzen
lenveloppe
trout
successive
redistributed
ajzen
diners
dinaric
##ahl
complications
imagination
cwrs
dwellers
mensah
nippon
osor
squares
squared
##eckmann
plausibility
dexper
recurrence
subcontract
espaa
dismissed
benin
igles
igualdad
ramirez
##steiner
spotlight
affixing
believed
believing
dapplication
genomics
turstico
kyrgyzstan
katal
rhom
tanks
tasty
xviii
chiefly
multicriteria
symposia
unpredict
catalysing
catalysers
overwhelmed
gnraux
mccall
##rovisionnement
##ecoopers
relaxation
bundes
kalra
lfsq
ruling
sabic
vibration
zlevspecific
##trade
incumbent
supprime
supprimer
leffort
geophys
remanufacture
celebrate
perfectly
conveyed
ajustes
kitts
ladoption
rico
deprivation
unpublish
housekeepers
metabolic
deteriorating
routire
friction
ioann
kerosene
lodged
lectriques
podesta
rosenzwe
reactionary
onsite
christmas
revisiting
peaceful
disruptors
checklist
lgbtiq
mentorship
convinced
rodrigues
traineeship
bunkering
fondament
fournisse
gwp
kiribati
ravel
ravitail
##housecoopers
interchangeably
globetrender
sinkevii
ssp5
ssp1
rsultat
receptacle
##monio
invoices
outweighs
annuels
softening
docsroom
mahadevan
depicts
depicted
uncovered
unsupp
tajani
duplications
davis
hesit
kuwait
nabi
oliver
pitches
wagner
supplmentaire
counterfeiting
disagreements
radicalisation
promptly
fonctionnement
bilan
burned
cologne
dampen
dclaration
ggmbh
wcag
yarns
##amento
##labelling
##foque
##kanen
publiques
patriarchal
patrimonio
russias
cayman
cayenne
gabriel
kibale
kontog
kampylis
litres
lemke
lemonsu
wearable
incidences
mexican
mexicana
persuade
refreshable
syndrome
unconscious
francisco
editorial
glazing
colonial
nouvellement
itineraries
ctp
dessai
dorta
grenada
jimenez
kraatz
louis
lynx
obersteiner
rocky
sapic
tirana
vitro
vitam
eckert
spoilage
hamdi
scandinav
avantages
amoroso
pretoria
analogue
discontinue
entrances
herrero
catgories
catgorie
illiterate
illiterates
emotionally
conglomerate
conglomerates
nederlanden
petrochina
petrochemical
bvd
fct
mgdd
mastrand
nzebs
pupils
rieckmann
sopron
teenagers
wouter
towels
condensed
streets
exxonmobil
uniquely
meilleur
consquent
avril
valentina
guilt
guianas
limpian
centrally
dispensed
investissements
prosumers
misconduct
interpolation
contradictory
motorbikes
inhibit
celebrating
concessional
gobierno
disappointing
astrazen
bacteria
castro
flickr
hernandez
izon
imsoc
kreibich
kaplan
kronor
mptf
nevis
pixabay
sivakumar
scepticism
trouble
vandegrift
##france
##wickl
invertebrate
forbearance
sutton
asahi
alarming
commencement
plunged
composants
accentuated
deposit
apporter
exponentially
interfacing
meehan
consecutive
lewis
assertive
plattform
evaporation
sostenible
equatorial
considrablement
schrter
discernible
awaiting
trinidad
administrator
edmonds
flexibilities
corriges
webmaster20
morphological
bertram
catalytic
weekends
homestays
cultivated
changemakers
excursionists
bibliography
aramyan
corsetti
cfs3
elicitation
ebrd
fdrss
fidelity
humpender
jeuken
kallbekken
nectar
pizam
tonga
andrews
suprieure
##universities
algeria
church
acclimatisation
uninsured
unrelated
pronged
legendre
reprise
mangroves
respiratory
weissenberg
prefabric
overriding
esteem
furthest
butterflies
privilgie
quintile
quintana
airspace
biophysical
matthaes
edinburgh
gradients
hydraulic
saturated
gauging
fraudulent
photosynthesis
puzzle
warehousing
whistleblowers
dismantling
diaspora
pauvret
biontech
bermuda
burrell
cessation
cincera
canteens
ciamba
drouet
dasgupta
djibouti
gualdi
gomez
gambling
hacia
hidden
jeroen
kainuma
keeps
kinnaird
ldcs
leste
lianos
puerto
pfeiffer
senegal
silesia
sullivan
trolley
tsoni
uppsala
vimosz
wifi
yellow
zdhc
##millan
thierry
inedible
ingenuity
reboot
sublethal
sufficiency
steeper
enlightenment
enzymatic
coffee
algarve
alcaiz
sherbinin
adolescents
parentheses
accrotre
deinstitutionalisation
workpackage
unicef
unaffected
prerogative
sparsely
smuggling
intuitive
consumptive
arithmetic
disintegration
haegeman
hamilton
underinvestment
decontamination
avalanches
skyscanner
dieuaide
heintze
amuakwa
rozenberg
lavalle
organoleptic
overburden
overhaul
ellingrud
eswatini
travindy
infrieure
nonwovens
peugeot
abovementioned
bioavailability
concretely
fekete
extratropical
ceremony
flaticon
casehandling
involuntary
likeminded
matzembacher
blauhut
unconventional
sluggish
proportionnalit
presscorner
deborah
reinikainen
pricewaterhousecoopers
unfavourable
hartikainen
agrobiodiversity
gaeilge
unskilled
unsurprising
unsatisfactory
bahamas
pedagogies
viceconsejera
phytosanitary
unpublished
rosenzweig
fondamentaux
fournisseurs
ravitaillement
sinkeviius
kontogianni
mastrandrea
1b
1k
1pp
2z
4figure
5is
5bn
5trn
7trn
8a
a6
ait
ale
ace
ater
auc
aot
aard
aau
aria
b2
b3
bnd
bow
boc
bour
bia
bdi
beng
bare
bord
bones
bags
cnd
cic
cst
cub
cues
cee
cav
casting
cgs
cwa
cauti
cucc
d2
dent
dsi
dos
devel
dance
dors
dich
dover
dare
dint
daugh
dinnovation
e4
eap
epos
eace
eora
fm
fic
fion
fare
fog
fang
fave
fpi
frost
ftas
fvr
fako
faso
fledged
fatica
gy
ging
gts
gun
gour
gme
gco
gfs
griev
goni
giang
ginkel
hs
ht
hen
hing
hod
hase
hints
habil
hinn
hodg
hikes
iam
ipes
ief
ierland
jts
jess
jak
jap
jose
jades
jenn
javier
kan
kay
kund
kend
kings
killing
kaf
kenn
ktd
kno
krey
kla
karo
kull
kdt
lb
lq
lh
lus
lanc
leng
lapt
leth
lcc
lamb
lunch
lille
md
moc
mth
mip
mover
mam
mif
mbs
mcil
mav
mild
massi
morse
nb
nance
nast
nass
nether
npl
naps
nbes
nieu
nka2
og
oy
ost
ole
ove
och
ovid
ogor
ought
ovation
pb
pd
pent
pid
pie
pile
pair
pants
pias
paint
pelle
poch
pwa
pelt
pinn
pmi
pinter
piras
qin
qub
rur
rri
rduc
rum
riv
roun
rick
rmit
rash
rhe
rimin
roch
rinal
rvis
riley
s5
s6
sor
sar
sul
sig
spp
sine
sov
ssa
sorted
sieg
sintes
sided
tl
t2
tes
tec
tess
tem
tall
trib
tue
tign
tener
tels
teg
tbe
tik
tics
trop
tches
uz
ub
uro
uis
uop
utr
vl
vw
ves
vas
vid
vall
vard
vors
vie
vee
veu
vhi
vinc
vyra
wals
wise
wining
wof
witt
wires
wfd
yel
yun
yust
yaco
zu
zs
zr
zen
zab
zus
zamp
zett
##uh
##upp
##uver
##utics
##uven
##uism
##uelle
##uka
##uelles
##uilla
##mn
##mel
##mth
##moun
##mond
##mitig
##mont
##mcs
##mbio
##mermans
##sevel
##sup
##sphere
##stico
##i2
##iet
##imp
##iant
##tn
##tor
##tun
##tour
##tran
##tax
##temp
##tuaries
##ept
##eik
##eza
##eisen
##vial
##vie
##viation
##vacy
##rt
##rri
##reli
##aj
##aos
##aient
##aws
##ajk
##oes
##oen
##oth
##oot
##oud
##oad
##obs
##oza
##zm
##zie
##zier
##zane
##zsch
##ny
##nan
##nar
##nom
##nant
##night
##nton
##bet
##bri
##best
##bard
##bons
##bner
##bourn
##bacher
##gl
##gon
##gri
##gill
##giz
##gular
##german
##gaw
##gva
##gley
##jn
##jas
##jans
##jdad
##jello
##dal
##dac
##dema
##cu
##cet
##cate
##cution
##cience
##cock
##calf
##code
##pit
##pts
##pries
##pret
##pectral
##lv
##lr
##low
##lay
##list
##lse
##luster
##liano
##fam
##fty
##feld
##fier
##fections
##fler
##finder
##fois
##fgoogle
##fishing
##fasmec
##flix
##ql
##qci
##hy
##hon
##hal
##hat
##het
##hir
##hun
##hner
##haw
##yo
##yon
##yol
##yder
##yards
##kin
##kol
##kus
##kia
##kise
##kii
##kova
##wal
##wit
##wtm
##watch
##world
##19
##23
##tian
##tiques
##tization
##onic
##onne
##onoses
thack
thames
##eras
##erce
##erun
##erting
##eria
##erita
##ergie
##esive
thetis
##ndt
##ndo
##ndigo
##orf
##orer
##orel
##oros
##order
##orient
##orik
##enos
##enues
##enya
##enella
##enko
##inh
##inates
##alu
##alg
##alle
inel
inch
inex
inject
inacc
ingal
andrea
andorra
##anied
##anties
##antis
##ananth
##ropo
##rock
##rovs
##educ
##edland
##atw
##atal
##aturing
##atvial
toutes
##isu
##isk
##arra
##arial
##arget
##arie
##arits
##arking
##arques
##itance
##itative
##itrea
##uru
##uri
##urg
##urul
##ingford
##icin
##icks
##iciled
##econ
##ecan
##econt
##ecluster
##ationary
##ompe
##elen
##elan
##elia
##elier
##elka
##elmi
##stati
##stering
##stek
##sthe
##iland
##ilian
##iluk
##reu
##reint
##repar
##reira
##reiber
##reuther
##retero
##refgoogle
##leberg
proud
propr
forem
fortal
##ulth
##ulence
##asch
rea
rew
reij
reori
reorgan
reactivation
##olved
##olvtm
##olitano
eud
eux
euco
eustati
##etz
##etro
##eterm
##etnam
##acies
##activ
##acio
##actional
##sie
##sient
##sider
##sided
##simo
contig
condem
##irley
##irsky
##abes
##abant
##abono
##abouts
sund
suits
##igi
comoros
##ceu
stan
stev
stad
stell
stablish
stern
strot
stunt
stroma
stahl
##ersen
enoll
aci
##tsema
##mpic
##mport
##rik
##riqu
##pem
##essand
##essors
##essful
asbest
##emo
##emat
##raise
##ratisation
coch
cops
coves
cofinance
couver
##ppi
##oda
##odo
##odyn
##ido
##unya
##unami
eurocl
eurodac
euroqci
alb
allo
alive
alib
alatt
alessand
oration
orts
orch
##owner
##owice
##ticians
exces
exogeneous
##osur
##osystem
bendigo
##oco
##ocin
##ocusing
##occhini
reson
rescc
resisting
resceu
##forsch
isl
##usiness
##chair
##chester
##check
sha
sher
shield
shading
shoo
sheds
shirley
anual
ananda
anuar
anthoff
##ucci
##ucidate
##images
byram
##opy
##opas
##opter
##opulation
##ophe
adina
admit
adulth
incite
parash
pareil
commis
commenting
##otti
##otechn
##otox
impenet
tourman
##iespri
##udel
usha
uspto
##ffrey
neo
neural
pla
plains
plenty
ecr
ecbas
ecdc
##ourtos
cheng
chores
chik
chronically
##mef
##mender
##quel
##quito
cles
clav
clash
claud
clicks
##akan
##akhi
##akopoulos
##akkel
comped
comptes
compao
comptitive
comptitiv
##apalli
##aponics
##apuram
##loo
##loop
##loven
indel
indeterm
##andi
##ando
##andya
accl
accult
accru
dei
deh
deve
deems
deficiency
ate
atlas
##ducing
workload
##adb
##aden
##adim
##erves
##ums
##umis
dated
datac
contro
contests
contenues
unin
unre
unad
unbal
unpar
unifying
unused
unaut
unincor
appl
appdata
transient
relational
releg
relocate
digest
prn
pris
prises
pritch
##rometry
##antep
expri
expire
expose
expecting
expires
expliqu
polit
poliv
polsky
poljans
interval
interrupt
intervist
intertemp
allergies
servants
spi
spit
spelled
spani
sperot
marge
marqu
mario
margh
marina
mariya
##lica
##lications
##licaciones
##ardt
mej
meps
mega
mekong
commissioners
##orship
socces
##thermel
smit
smell
intact
##encecluster
consular
consens
nota
desa
deserve
deserves
leang
leaching
leuven
##izzo
arbe
arena
arrest
ita
##grave
##grande
##echa
disappro
disassemb
disorder
##acted
##actors
##actual
transmits
ager
ague
agui
agmip
##olluted
##iva
##ivre
##ivision
climb
perles
perkins
peroco
hav
haar
##ellsch
##ellosis
scans
asses
assured
assault
recue
recome
recirc
recup
rectific
canarian
##uble
##ubsc
inviting
inverse
##ualdade
##undry
effis
##divid
finer
finish
outflow
##entiated
opa
opaque
basel
basque
manually
manoma
manchester
decom
decou
whichever
uptick
##ghir
##ghai
##ologic
marker
markandya
parton
##loyer
##anco
##ancia
directs
sepp
sending
seoul
seaport
seagr
seghir
moh
moel
moates
mothers
moham
sociales
levelling
publier
publie
##ularies
avis
avoir
aviations
buss
skew
skodowska
skourtos
##ricas
##exm
##exsoft
##express
obstruc
obras
marketable
industr
informs
##agonia
##aguer
##acho
difi
dimport
##ieactual
sectori
inno
innovantes
##gramme
heated
heger
heij
heikk
hefty
##prs
policys
policyres
programmatic
programmers
savre
##utional
##strument
fundacin
ams
amricas
contributory
transpiration
##bool
horizoneu
approche
appropries
##engage
procured
poised
##ressed
##ressers
roi
roig
roeg
rogue
rojas
rothermel
commune
communes
communist
communaut
etu
etv
etudes
ensuing
notions
noord
nobre
nokia
##acknow
hash
laos
laure
lautor
launder
laundry
ween
weed
weber
weap
submits
subcate
subdivid
prendre
ems
emt
ema
emg
emsa
emulate
emmer
locate
boe
boar
bokel
overlook
overstate
overtook
overfishing
redirect
cres
eld
elation
elaps
elzen
elhous
elucidate
changements
crease
frazier
financires
implementations
indicatively
evade
##atio
collins
doe
dokken
doelman
improper
##resid
esco
eskise
monito
montser
travers
demer
demic
demark
solow
setback
##bsrat
whereabouts
##rowork
lega
guia
guam
guerre
costal
sox
soient
sokh
##oked
##okiespri
fior
fiat
fiorini
timor
timmer
timmermans
timelier
protests
protger
protracted
infants
##nership
practises
estn
carr
carer
carro
cared
carra
carlo
carav
carvo
carretero
carabes
##timoe
applicators
##balenya
revier
employmentopen
joost
johan
peti
peaking
accessorily
glovo
promocin
geomet
geometric
geosphere
george
localities
generalised
generalized
secures
secaps
secrec
expectedly
insc
instig
insert
ids
ida
idem
wasiluk
sustainabilityx
wasters
facial
facemas
topology
topography
##arman
medias
##ega
selon
agricult
internationals
surgical
surgery
biogen
circles
circulated
oneil
approached
financials
partnersco
grows
tyre
importants
##avong
mullis
##asse
##ianna
feels
##venting
##venience
performant
authoritative
##iteit
schell
schooling
schiav
fired
networked
engl
##lien
##urralde
presupp
##dez
standpoint
posit
designer
delist
qualities
linfrastruct
participant
finalise
##owns
totally
##ende
remarques
qua
quips
quitable
quelles
quils
multisided
endpoint
##ogliano
certifies
tween
varnish
worldview
worldfish
metho
protectionist
airpl
referencing
sharon
restent
restra
restrain
##angle
betrie
cooperacin
takeaways
##employment
##porated
disconn
disconnect
safest
comparably
corell
limiter
formule
docum
parliamentari
url
affective
affaires
affluent
issuer
flower
flavours
centered
vertebrate
verlag
##alez
appropriation
visibly
distorts
competiveness
taxa
personality
tableware
entwickl
##urses
##yck
proves
refrain
refocusing
incluent
popul
rightsstate
demander
lobal
loarie
guideline
downsi
materially
materialised
phnom
becker
trations
trls
trki
countryside
maas
maza
shortened
madeir
frmcs
fractional
recommender
##ectivities
ifvm
encore
encode
legislated
pollitt
patstat
patrol
patagonia
porte
##austi
openings
sitca
collaborates
collaborators
##uga
connor
##tement
dealers
facilitator
owed
microwork
payout
payloads
##antson
bii
biased
bienn
biosphere
bioclim
steffen
factored
facteurs
herae
charities
charger
charco
barr
barn
bark
barber
barker
swot
land3
##ankton
microdata
preview
showers
profesion
promoter
##tifs
renault
renaturing
##eldorf
grouping
introdu
brs
bron
bright
brux
brunt
brabant
instruction
procedia
##tised
##tislav
volksw
##ludes
giview
raun
raiff
presentable
langid
precarity
precludes
icj
icts
##dflower
essf
essnet
sdc
sdss
##keeping
##rolled
##shoot
##india
viewpoint
offshoot
##center
combusted
##edicine
livability
##iquitous
threefold
##ativa
residue
tempr
sykes
symbio
calga
caledonia
calvin
lesoth
terken
retrie
accorde
accorded
matrices
##enarbeit
specialis
specialization
##utsch
##essional
efeler
cleanest
hotrec
latent
billions
bordering
borderless
standardise
metcalf
serio
serenella
definite
reads
freire
freedland
newsp
vep
turnovers
uncomm
uncdd
uncapped
homepress
balear
baltica
balinese
balaguer
pathfinder
bigano
holt
upsurge
pursues
accessibletourism
easin
conductivity
confound
##arantes
runner
slv
salman
respectful
deterministic
professionnelle
widows
widened
oceanography
novembre
transparence
centrepi
influx
progressed
franc
noteworthy
arrives
irena
bulbs
bullet
edss
edwards
edges
externe
hyvnen
subsets
subsections
avoidable
wwf
abc
abolition
cebr
viabono
##comm
##comput
heath
pilgri
##insurance
##inski
apsim
aplicaciones
##uxembourg
indexed
eritrea
netflix
##gorm
fleury
devising
deviate
jrv
##manage
##management
harmonises
geographer
recognizing
pressed
burkina
ppi
negating
advisories
##nemental
##news
continuum
continuera
nlf
aiding
huaw
concerts
downloads
optimum
optimises
centralized
ltp
reinventing
hardwood
justifying
justific
equips
523
grams
grained
graves
grades
footage
footnot
dimensional
dimensioning
operationally
cze
##beat
illin
maladapt
fitted
##plf
pourrait
visitation
martiniques
maximizing
maximilian
testbed
divert
dgn
accompagn
accompagne
taskforces
##apeutics
midnight
midgley
hydroc
hydrosphere
##accini
booster
floodpl
##sworth
conformities
soutenu
preventable
preventative
##onnell
hunters
huntable
misuse
##rett
domiciled
macmillan
##epal
trustful
accompanies
commercialization
paving
paudel
##oundation
visionary
boardroom
senses
auprs
artificially
dissolved
utilizing
durations
##itterother
existante
dmdu
cohesive
timeshare
ferrer
ferreira
courage
denial
denotes
moderne
droit
drove
dropping
##afe
##ectifs
ghgieactual
##hegy
forwarded
eeb
lvpl
ministre
immun
originated
sumi
sumwhere
stocker
schoolnet
ivm
ivitas
seventh
csrs
plante
drawback
panzica
solidary
solidarit
rgles
rglements
azore
vanapalli
transferrable
lightweight
displaces
consortiums
unfold
unfilled
booklet
speedy
header
robotization
arching
aquifer
aquaponics
turks
undiffer
analytic
analyze
analyzing
msrri
campen
campus
campbell
genotypes
harb
harci
harley
ngatif
##iki
engineered
pesca
curated
curious
curfe
curbing
##gested
connectedness
braun
bravi
bratislav
spenders
voluntourism
caters
exercices
equivalence
penh
complts
oneself
coherently
subsidising
institutionalizing
surez
gazi
paci
exempts
exempting
bottled
breakout
advantaged
schengens
layouts
mcken
mclean
mcdonald
mcarth
mcgill
nfc
nfrd
rrfs
inspect
milk
milani
convert
converge
converter
streamflow
partnered
wright
facebooktw
attitudinal
guadeloupes
aero
compensations
federico
feddema
prejudge
##arius
susana
ndici
##missible
morales
disproportional
disproportionally
eecc
constitutive
ambitie
proceeds
cropsyst
cedaw
##inke
repairing
bergh
akan
evolves
creditors
garner
garanties
##design
disposing
suggestion
safeguarded
motors
sanitaire
sani2
##athan
emphasising
emphasized
emphasize
visualized
naval
release9
##lsfo
##theid
banning
gatherings
silberman
pasqui
crowdflower
indicateurs
matrixes
grossly
##azid
##azores
##azione
##azquez
nutritionists
architectures
ranger
##omics
unsold
unsorted
unsched
unsucc
interconnect
snat
snchez
snyder
aquacrop
motorways
olaf
wino
thermo
infringes
wooden
woodward
woodburn
woodcock
premise
russo
koh
kobi
springboard
counterpart
cosp
warned
brie
carous
merging
mails
caso
ult
motivational
motivating
motivators
conditionality
fraude
bedrij
bedrock
sensible
clientele
agroecosystem
##ennan
supervising
cashless
##ijen
##finland
arguing
violations
jurisdictional
negotiated
levin
remedying
remediate
##valu
##valued
stops
elaborar
prioritises
absolutely
palau
palgrave
graphically
richter
xxv
xxx
biofuel
complained
momentous
bahn
bahrain
fighters
##moe
##issent
embeds
broker
bridget
mentor
exporter
extracting
airbnbs
attracted
normalization
normalize
celles
grce
gritti
licencing
reimbursements
egdn
renteria
rentocchini
##compag
##companied
halp
oxfam
##nitz
universiteit
week1
survived
photonics
predominance
predominant
##eraient
##ungunya
clickworker
religions
discriminate
discriminated
discriminating
touches
##illez
settled
turkmenistan
federates
satisfying
diaz
walter
aspire
aspiration
biogeography
biogeographic
fileadmin
kea
keetch
stratification
straws
exploitative
candidats
prominently
labsence
mask
masotti
multipliers
shoppers
entailed
microenterprise
fabo
fabriqu
##uvial
##uvananth
foresti
##wealth
montreal
divor
divis
laguna
ncds
ncdds
prsenter
differentiation
nitrates
ssm
##incia
##incdd
##standings
segmenting
donovan
genetically
juil
induces
##ichea
containerships
teleconferencing
scholarly
rcm
rcg
wetted
appliance
authentication
seniority
rebounding
irrgular
harvard
conversions
villes
##ophy
intersect
assembling
assemblies
directional
cascade
blood
intensities
hampers
valorised
rfcs
rewarded
albanian
climatological
##ountry
fragments
inflows
disaggregate
rebates
rebond
##cheisch
reconfir
reconsider
##ogenously
borrower
borrowed
borrowers
viiivi
##urait
foodserv
petra
petrol
##richt
spectacle
spectrometry
manipulated
manipulating
##unctionality
extremism
ibidem
jeffrey
masterplans
pulp
pulling
pulina
pulls
wallingford
convection
angola
anguilla
envisions
ancient
encountering
cardiff
rainoldi
zoonoses
compilers
unavailability
spillovers
conflictual
krish
tedqual
imperfections
phenology
hybrides
abbreviation
magnitudes
gestin
gesellsch
gigabytes
talking
paradise
appointing
vicinity
acknowledgement
crowdworkers
cmcc
cfm
gcm
gcf
isolate
upgradability
moderators
particulire
upskilled
occasions
breath
santorini
wishes
##lexia
##dependence
refuse20
lgislatif
juntun
somalia
wih
prompts
timetabling
advocating
phyt
erode
snowb
##appelen
reopened
shuttle
solvent
surpluses
blackwell
destroy
jpg
mlt
ruiter
sanctuaries
exhausting
recipes
grasslands
suddenly
dtre
pioneers
torino
stabilization
stabilisers
antle
regressions
apparel
reputational
screenings
irregularities
cabi
hurdle
hilf
mercosur
mercogliano
perfume
absorbed
frontires
manifestations
homogeneous
mrkus
##horised
totot
buffets
fluctuation
handicap
misclassified
colleges
lcart
lingering
rubio
pledging
unnecessarily
revitalise
revitalising
revolutionise
grizane
rider
wbgt
convened
convenient
unequiv
prvu
prvue
prvoir
liberty
cafeter
lucia
##abajo
anonymisation
anonymous
chairman
##ovskii
criminality
stormwater
prospre
prospecting
symbolic
dtermins
fluctuating
troitement
##zanigo
anchoring
stratgiques
avenir
redistributive
monetised
fundamentals
bibliometrics
melbourn
nurtured
wp1
impeded
consciousness
estadstico
imagining
remplacer
loren
lorain
lotze
liaise
mosaic
mosquito
niue
osram
roder
vendor
##ergens
accumulate
recurring
quarantines
discarding
diminished
immatriculations
jeopardising
benjello
dlgus
dlgation
dlgations
dmmo
honey
igad
igualdade
khan
ramos
##huber
impartiality
comptabil
spotl
dietrich
guyan
securely
rechargeables
aesthetic
gsflow
garde
garden
gardening
katowice
randerson
tsis
tsas
tsunami
ticks
thyberg
extinct
megawatts
scanners
peatland
surpassed
symptom
sensorial
catalysed
deductive
mirrors
cdrs
cartel
hopefully
murcia
ramps
shelton
prcisant
upcycled
bioeastsup
multifunctionality
elevator
irreversibility
irreversibly
succeeding
inconsistencies
bhave
iterations
ignite
ignition
ignoring
ignacio
kalleberg
rigorously
tuning
tablis
velazquez
supprims
predefined
polymeric
undergoes
ellmer
pefc
downturns
stocktake
bonus
bonuses
bonzanigo
favre
kwakkel
lady
ladakhi
pervas
ricas
tony
tonjes
##orns
##itania
unpolluted
quota
metabolism
immigrant
possesses
discretionary
overcrowded
fricko
gbca
jacobs
ksos
omni
therapy
therapeutics
christophe
robert
revisited
affiliation
brackish
accomplishment
fertilizer
convince
appointment
rodrigue
overwhelmingly
underscore
bidirectional
cinq
cinemas
darker
darkness
gfas
gastronomic
llvation
mallorca
mallinis
puissent
passively
ribes
ribeiro
xiix
##fields
prolongation
deutsche
openshaw
decoupled
##agnoli
biosecurity
confronting
francesco
francesca
magnification
cmip6
witnessing
stipulate
stipulated
reinvigorated
kunreuther
mowrm
pfm
##proof
rescue
cheques
sponsored
sponsorship
marshes
sofia
mauritania
hyperloop
negligently
ivanov
duplicates
prescribe
epidemiology
fernando
imagineering
sediment
cushioning
incompatibility
gtap
kuo
painting
ryan
rymes
rosk
rosina
tightening
##french
shadow
chatbots
unregulated
unleashed
prudent
scotland
seabed
seabirds
skippers
unfolds
moratoria
wilhelmi
liberalisation
uplifting
dclarantes
lutz
lutter
lutte
yarra
yangon
##uliarities
revert
reversibility
conceals
stylised
##osaar
prparer
##ammenarbeit
lavorel
subdivision
travailleurs
discouraged
landfilling
dispersal
neglect
undesa
russians
disclaimers15
husbandry
festival
mondiale
cauffman
darwin
downing
fsfs
gabon
jonathan
maker
makro
niches
andritz
rendered
rendering
stckle
altexsoft
incidental
chefs
compartments
unaccompanied
recalls
moyens
sappliqu
annonc
annonce
redundancies
fiaseets
organismos
syndic
unconsumed
glaciers
colony
vocabularies
passionate
masculin
masculinity
shutdowns
landslide
reassessed
itinerary
bubble
bubeck
bernal
cortes
dnom
dortyol
ejecu
eiait
gallina
galleries
jenv
jenkins
jimnez
louise
lynch
nh3
oberbay
tirol
##fecture
toutefois
rejected
sterling
aliexpress
shih
shippers
pluralities
pluralism
mendoza
scandizzo
empresarial
amortisation
pretzsch
analogous
delineation
tremendously
necessitated
necessitates
instalments
bruns
brunet
cyclists
europols
judgements
bnfices
bnficier
remunerations
remunerated
predecessors
gonzalez
aparicio
apartheid
bucaram
craf
daly
dyslexia
eboli
lpj
mastering
nzeb
peculiarities
pupil
sopac
teeny
tampon
tampons
vuorik
wolf
wolves
comitology
strefler
entso
coercion
coercive
ecocide
uniqueness
meilleure
hawelka
internships
bootstra
monteiro
guilty
maifs
frustration
dispensers
prosumer
motorbike
diagnosed
diagnstico
radiator
antarctica
celebration
electrolyser
gobiernod
dumbrovsk
densely
flyer
napolitano
ohlan
omitting
ratti
sowing
soware
stigma
tuvalu
venezia
venezuela
##bulgar
##partnership
thiruvananth
reinsurance
stretching
stagnated
cherry
attentive
contagions
lehmann
leaflets
##ivibool
deconstruction
lintervention
##anguage
florence
stephens
microfilm
##industry
gettyimages
equivalents
equivalised
susanne
photocopy
photocopying
besoin
besoins
rfnbo
rfnbos
dcarbonation
suffisante
servicestourismtourism
reaffirmed
bacciu
bdns
fridays
golf
giannakopoulos
hedges
hectare
lassalle
mistrust
mycotox
nuances
paved
paleo
rpartition
sillmann
tilted
vivant
vancouver
wsr
wenlock
youre
yacht
thesis
##absor
alberto
beetle
##ocalisation
shanghai
antigua
##oplankton
admissions
parasites
intervening
allergan
disinfect
mancps
requalification
lahlou
emfaf
redploiement
insurability
figurant
scheffer
encryption
electrified
brasil
salinisation
democratically
misperceptions
derivation
pleaded
curtail
circumvented
replenishment
watersheds
problme
carole
merchant
sentinels
ncsdmoincdd
absorptions
karlberg
kharin
celebrated
bachelor
frankfurt
centroamericana
reimagine
abrogeant
enthusiasm
arose
bonaire
cereals
dadopter
dellink
diversit
etias
eplca
foment
fialov
gxexm
gorbalenya
gestures
hostile
hinders
ipsos
jagau
lublin
osha
pellet
szab
tdgva
vernaccini
##feeding
##hortfall
thermostats
##international
##alogue
inadvert
inaugural
toilets
reunion
retaliation
alkem
beaten
beucs
adhesives
inconvenience
imprecise
chemnitz
degrade
unicorns
unaffordability
polynesia
leonardo
disembark
perishable
scrolling
outranking
partenariat
skelhorn
contribuent
rogelj
noticecont
subtracted
subregions
subclasses
emblem
overheads
evacuation
discourses
maarten
portraying
administering
bristol
sijtsema
broadcasting
uncontrolled
salmonellosis
powertrains
hyperspectral
apoiar
posterior
postponement
misunderstandings
vanuatu
archipelago
intercropping
morbidity
olivier
bednarowicz
photographs
anticorruption
juveniles
irrigated
reconciliation
pedagogical
extremophiles
hoekstra
krasovskii
breastfeeding
kjellstrom
antagonistic
garantissant
bissau
subcontractors
iglesias
rhomolo
unpredictability
hesitate
vitamins
scandinavian
astrazeneca
churchman
prefabricated
2zero
aucune
aardappelen
bndnis
cautiously
cuccurul
dorset
eacea
fiona
faveur
gmez
gco2
hinges
hasegaw
habilite
hinnosaar
iefp
japans
kayaking
kendrovs
kingsbor
kafred
kenney
ktdc
karolien
lbsi
lqtur
laptops
lethal
mifid
mcilgorm
massively
nastos
nassopoulos
nieuws
ogorman
piasna
pinterest
qubits
rductions
rounsevel
rimini
rinaldi
sovichea
tecn
tignor
tenerife
uzbekistan
ubiquitous
utrecht
vorsch
veeken
veuillez
vinci
vyrastek
wofost
yacoumis
zscheisch
zabeo
zusammenarbeit
zampieri
zettabytes
##germany
##pretation
##hungary
thacker
inchausti
ingalits
##ropoul
##education
##atvialithuan
##ompetitive
##repared
propres
foremost
fortaleza
reorienting
eustatius
contiguous
condemned
stellantis
strotmann
asbestos
cofinancement
couverts
alloue
alibaba
alattar
excessively
resccue
anuales
anuario
adulthood
parashar
impenetrable
chikungunya
claudia
comptitivit
indeterminate
acculturation
unauthorised
unincorporated
pritchard
polivisu
poljansek
intervistas
intertemporal
spaniards
sperotto
margherita
intactness
consensual
disassembly
aguejdad
aguiar
recueill
recomend
rectificative
manomaivibool
decouple
seagrass
hegerl
policyresources
roeger
lautorit
laundering
subcategory
emmerling
bokelmann
overlooked
overstatement
elapsed
elhoushy
montserrat
demarketing
sokhai
##okiesprivacy
joosten
geometry
secrecy
biogenic
partnerscookiesprivacy
schiavina
presupposes
linfrastructure
multisidedness
varnishes
worldviews
worldfishcenter
betriebsrat
disconnected
parliamentarians
entwicklung
rightsstatements
trkiye
mazahua
heraeus
charcoal
bruxelles
volkswagen
raiffeisen
symbiotic
calgaro
lesotho
terkenli
retrieve
metcalfe
uncommon
salmani
huawei
hardwoods
justificativa
illinois
maladaptation
testbeds
drawbacks
undifferentiated
curfews
bratislava
gaziantep
mckenzie
facebooktwitterother
unscheduled
unsuccessful
kobiety
carousel
bedrijfs
agroecosystems
egdn2
irrgularits
viiiviia
gesellschaft
juntunen
destroyed
mrkushegy
melbourne
benjelloun
rodriguez
oberbayern
vuorikari
thiruvananthapuram
inadvertently
noticecontact
cuccurullo
hasegawa
kendrovski
rounsevell
vyrastekova
zscheischler
0a
0d
0di
0co
0develop
1c
1reg
1co
1mb
1yr
2e
2has
2mb
2develop
2trn
2incor
2increase
3t
3over
3other
3acc
3bn
3green
4s
4b
4d
4c
4res
4develop
4trn
4rine
4raise
4dependence
5oc
5be
5co
5figure
5increase
6work
6can
6knows
6green
6lack
6portugal
6labelling
7s
7b
7f
7figure
7develop
7lack
7waste
7engage
8o
8c
8bn
8figure
8su
8digital
8industry
9a
9digital
ae
a7
aan
aec
ast
ari
ara
aee
acep
abon
auf
arid
ayl
aitch
aster
aiga
alem
ainah
bc
bent
bom
ball
bors
bates
bag
bise
bination
burs
bonn
bai
benn
bpi
bbc
bkk
bologn
banco
cis
cus
cure
cran
cents
cms
ccc
cte
cables
cible
cather
citing
cems
cpd
celle
caires
cai
cbi
cram
cesc
cgt
censors
cila
cologn
dv
dd
dy
d3
dst
dul
dab
dus
dch
dall
dech
dso
dag
dpr
dries
dres
dps
dote
dmit
dgrad
ditt
dactions
dduction
diving
dives
dnde
dfl
dintro
dye
doris
darman
ea
eh
ein
eom
eet
epp
eigh
ender
eures
eens
eee
edf
easter
eef
ebre
elicit
ebit
erica
ebert
eidas
ff
fti
fos
fop
fission
fay
fad
ferm
fag
fans
fade
fili
fana
fift
fca
fda
gj
g1
gers
gpe
gow
got
gio
ggh
giron
gile
gart
gass
gcc
gern
gym
gini
govs
gerg
gowns
hm
hv
hk
hw
hec
hers
hess
hch
hay
herv
hors
holo
hover
hex
houn
hare
hoss
hug
hides
hips
hoch
hoo
hires
homet
hike
huth
haines
horse
hinkel
hpit
ij
ih
iec
isi
iri
iem
icc
iank
iuf
iger
ieep
iforest
ionia
iphone
iza
istock
istan
iori
js
jj
jw
jer
jat
jas
jol
jac
jure
jech
jack
jans
juan
jpd
jean
jung
jah
jfr
jsp
jovan
jorge
junct
ka
kf
kro
kent
kmp
kut
kem
kort
kare
kues
kok
kond
kans
klu
kau
kont
kink
kiss
kapp
kaba
kode
kiesel
klim
lm
lj
lil
lle
lith
lion
lqu
lant
lov
lake
lability
lys
lans
lmm
lacy
llin
lira
lcs
lodge
lht
lako
licht
mh
m0
mers
mour
mum
moll
mell
mub
mbo
meng
ments
mord
mined
mmes
mne
milling
miles
mung
mwc
miao
mikk
n1
nen
nel
nil
nle
nas
nir
nig
nra
nak
nay
nag
nach
neth
nile
nown
nice
nier
niss
nhs
nadal
nisia
nancial
nunes
nergie
nijen
oes
oly
oss
oces
olig
ota
osc
oems
odom
ods
oke
p2
pab
ppe
pow
pfor
pme
pso
pag
pond
pamp
pacts
pax
pock
pone
pind
ppt
pier
pont
pcs
paced
pink
ponds
pva
pante
pads
puk
png
punct
qe
qa
q7
q9
qrea
rk
r5
ration
rts
rch
rud
rial
rant
rast
rue
rys
rues
rown
rains
rdf
rcent
rasmus
rani
ruth
rwi
rsid
rianna
rinke
s7
s8
s9
sis
sic
sre
sle
sas
sess
stive
sain
sest
sie
sres
stics
sved
sbe
sante
srie
sige
sardin
slette
sql
t1
tud
tip
tard
tric
tens
tav
tale
tensive
tension
takers
tins
tame
tams
tube
tense
telles
tions
tabled
tiger
taught
ux
uit
uran
uast
uks
utd
uica
ubc
uaic
v1
v0
v3
ving
vig
vort
vot
vad
vant
vist
veen
vire
vied
vests
vtm
vita
vno
vaut
vailable
vaugh
vangu
votes
vzb
vighi
vlsfo
wre
wod
wels
wire
wav
wite
wound
wams
wenn
wille
woa
wanders
wlt
wrote
wazid
xing
xion
xue
xiang
ya
yards
yok
yug
yei
ze
zl
zal
zio
zup
zina
zcan
zwan
zoli
zika
##uo
##uable
##uities
##uum
##uant
##uys
##uart
##uays
##uki
##uero
##mt
##mr
##my
##mec
##mir
##mig
##mith
##mow
##mud
##mage
##mme
##may
##mati
##mair
##maff
##matically
##mki
##micro
##ser
##sit
##search
##slin
##sport
##sler
##selves
##srs
##sector
##sani
##sustainable
##sonse
##iq
##iment
##iab
##iak
##iades
##iha
##iros
##irov
##iima
##iqus
##tz
##tb
##tors
##tember
##tres
##tok
##tree
##town
##tland
##taken
##eit
##eel
##eos
##eering
##ejo
##vc
##vra
##vign
##vesting
##vaux
##vailing
##rl
##rh
##rent
##rre
##rir
##rab
##rus
##rels
##rential
##rale
##races
##rists
##rung
##rhr
##racking
##ait
##around
##amental
##aao
##aghan
##aigi
##oi
##oz
##oce
##oons
##oint
##oother
##oba
##oham
##oeys
##oils
##oei
##zk
##zon
##zet
##zio
##zens
##zhe
##zona
##zquez
##nm
##nel
##nas
##nos
##nagement
##nified
##netherlands
##nelles
##nham
##naran
##nucc
##nlse
##nhuber
##bj
##bent
##bra
##bot
##bace
##bilit
##bias
##bata
##bold
##beck
##blood
##bovi
##birds
##bvie
##blica
##gr
##gp
##gis
##gion
##glo
##grou
##gene
##gents
##gav
##gote
##gone
##game
##gonomic
##gior
##gmann
##gencia
##geca
##gmac
##grit
##glou
##jar
##jet
##june
##jana
##jci
##jeck
##jsen
##job
##dl
##dy
##din
##det
##dable
##dist
##dock
##dini
##daco
##dgs
##dney
##dressed
##cz
##cas
##cri
##cain
##cill
##core
##cere
##coll
##cons
##camp
##craft
##cker
##cda
##cocell
##czak
##cessing
##council
##pn
##pan
##ped
##pra
##pell
##pted
##pensi
##pik
##pantson
##ll
##lge
##lip
##lio
##lisation
##lde
##laport
##lifier
##lodowska
##lennan
##ljana
##fa
##fp
##fed
##fing
##fly
##fting
##ferm
##fection
##fire
##fique
##ftig
##fonds
##fki
##fares
##felt
##fils
##functional
##fgren
##fessional
##qing
##qute
##hin
##har
##hig
##hting
##hot
##hum
##high
##hard
##hub
##hok
##hond
##hles
##havi
##hau
##hof
##hita
##hmar
##hmer
##huit
##hlets
##hlik
##yas
##yth
##yak
##yard
##yss
##yang
##yte
##yne
##ymb
##ydes
##yssa
##yota
##kar
##kom
##kow
##kline
##kok
##kland
##kets
##kton
##kke
##kala
##kvist
##knaran
##wed
##wom
##wich
##wart
##welling
##wides
##words
##wani
##witch
##56
##xi
##xy
##xit
##13
##25
##tio
##tient
##tially
##tista
##tibles
##tized
##oning
##onent
##onge
##onso
##online
##onte
##onoch
##onrec
thame
thai
thumb
thuy
thimp
##erity
##erate
##erli
##estern
##esky
##esilient
theat
thenews
##ndant
##ortion
##oran
##oret
##orate
##orative
##orph
##orelli
##oruth
##env
##enas
##enss
##enner
##enik
##enma
##eniable
##enius
##ensson
##enicke
##enabs
##enkos
##enaga
##enfoque
##enbacher
##inan
##insi
##inist
##incsd
##inho
##inovs
##investing
##alos
##alore
##alam
##alina
##alitis
##alued
##alley
##alyp
##alardo
##aluru
ink
inic
inac
infor
inion
ingra
inund
inks
inext
inactive
inorgan
inactivity
ingested
##tionary
andro
andalu
andersen
##anu
##anas
##anim
##anad
##ania
##anne
##anias
##anaf
##anza
##antifiable
##anasi
##anakis
##rog
##roach
##rook
##rosa
##roche
##rokes
##roei
##rogne
##rogate
oft
ofelia
##edt
##edy
##edk
##edades
##eddini
##atti
##atos
##ateness
##athic
##atcom
##atars
##atton
##atelli
##atolia
##atulco
##atrists
tos
toc
tome
toiv
tokens
togg
toloo
toyota
##isy
##iserv
##isms
##iseness
##isantes
##issim
##isricht
##arr
##arn
##arts
##arid
##artic
##argy
##arini
##arbeit
##arbons
##arwani
##itn
##itre
##itant
##itages
##itarias
##urk
##urec
##urst
##urter
##uries
##urations
##uray
##urbs
##uristic
##ingo
##ington
##ication
##icate
##iculty
##ecq
##ecum
##ecution
##ecost
##ecki
##eczk
##ationmis
##entrepr
##entabil
##entura
##omed
##omri
##omot
##omier
##omorph
##omitant
##elton
##elindust
##eload
##elanguage
##sters
##stud
##stark
##stelle
##stho
##iler
##ilic
##illy
##ilio
##ilson
##ileres
##reur
##reig
##reate
##reurs
##rejn
##rendt
##reecha
##leen
##lein
##lepr
##lego
##lefl
proform
proph
##mente
##mentforum
foro
forint
foreg
foraging
##ulen
##ulin
##uland
##ulia
##ulgar
##ulgate
##asan
##ashic
##asury
##asinski
reacts
reiter
rends
rendre
reuters
reorient
reabsor
reilly
##olle
##olten
##olini
##oliber
##olishing
eui
euc
eussd
##vets
##ete
##etr
##etal
##etakers
##acs
##aca
##acer
##acar
##acum
##acency
##actics
##acost
##accom
##acios
##acatos
onshore
##sip
##sier
##sial
##siest
##siological
##sieu
##sify
##sigue
##sivity
##sident
conomes
conway
conresp
conurb
condu
conenfoque
##iri
##irano
##abc
##abon
##abuc
##abong
##abeth
##abeg
##abili
##abai
##abela
suk
supers
sutr
##igan
##igot
##igrain
comun
comerc
comics
comedor
comenius
##cement
##ceph
##cendo
stoc
stain
stran
stall
stech
stabl
stump
stav
strid
stairs
stael
stevan
stafford
stuck
stoler
stmicro
stolten
##ersk
##erses
##ersin
##ersonal
eno
entice
enfoque
enferm
enqute
enceph
accepts
acids
acosta
##tsforsch
##tshof
##mplement
##mpwt
##atever
##ateful
##rio
##ri4
##rien
##riad
##riels
##rians
##rief
##rike
##pee
##essa
##esson
##essen
##essed
##essub
##uto
##utz
##utal
##utense
##utzen
##uths
asn
asd
asch
asbl
asgs
asosi
##emel
##emission
##emans
##emef
##emius
##emyer
##eminist
##emecum
##raid
##raine
##rames
##raient
##geyn
coin
cous
coss
cote
coco
coded
coke
coca
couv
colei
cogeca
##pport
##ppmann
##pponen
##ppalardo
##tinen
##tinised
##tincsd
##oded
##odelling
##odegra
##ectric
##identi
##idade
##idung
##idjan
##evant
##evolution
##eveningen
##lyn
##ortas
##ortance
##uni
##unk
##unin
##unas
##unid
eurost
eurocom
eurojust
euromon
eurovign
ales
alts
alour
alme
alqu
alice
alamb
alves
alias
alters
altitude
altitudes
aloud
alerting
alzhe
aldaco
alonso
orm
orate
orally
ordez
##owing
##owicka
##owaste
withing
##ticaca
exasc
exotic
exterior
exsit
##osol
##osyst
##osced
##oshi
##oskel
##oslav
##osinh
##osmith
bei
beer
beech
bebl
beaut
begins
##ocl
##ocated
##ocating
##ocally
rests
resund
resizing
resemble
resumed
resembles
##terberger
##teriades
##fora
isre
isac
isab
isoc
isot
ispra
ishig
##than
##thouse
##thai
##thwa
##thorn
##thuys
##uso
##user
##usuma
##usbay
##chs
##chas
##chlic
##chart
##champ
##chings
##china
##chemical
##chapp
##chbach
##chftig
shank
shek
shuk
##tington
ank
anast
anext
anten
anunc
anger
antes
anci
anterior
anatolia
anabela
##illi
areal
##ucette
##imes
##iman
##imas
##imers
##imoto
##itiv
##itiatives
##itively
whitt
whalley
whatever
##opic
##opec
##optic
##opedia
##iones
##ionale
adger
adigital
adongo
adept
incap
parcs
parris
paralys
parnham
##otran
##otracking
imprac
tourkol
##udar
##udad
##udice
usb
usan
usages
uscn
##verting
##verio
##versial
##ffy
##ffield
##ffpantson
##ffisantes
##fficulty
neill
neocol
neilson
neoliber
plf
ploy
plots
plication
ecv
ecn
ects
ecbs
ecty
ecof
ecsc
ecomm
ecophy
##oural
##ouras
chu
chr
chac
chances
chick
chats
chlor
chhet
chesky
##eveld
thistle
##rantes
##ranjera
##ranchs
##meur
##mexico
##beral
##berth
##quin
##quiti
##quial
##quera
##quantifiable
clou
clld
clock
clark
clivar
##aker
##akam
##akami
##akaya
compel
compair
computes
compression
composic
regdata
##aped
##apies
##apalan
##loor
##logy
##lovak
##loquial
indem
indiana
indrix
indoors
##tivit
##tivating
##andis
##andas
##andise
##aye
##ayne
##ayeh
##vidou
##allini
##alleled
accused
##uston
demp
deem
deactivation
deactiv
atl
atelj
##italy
##italys
##italyl
workshe
workloads
workforces
##ancement
##adio
##adern
##adines
##adier
##adani
##erved
##ervices
##ervalued
##umer
##umen
##umab
##umber
##umacher
##esters
##estech
##establish
##estley
##estoni
datte
datash
conte
contenir
##ighter
supplements
unim
uncc
unann
unifies
unlevel
untw
unhealth
unreal
unrav
unmitig
unacknow
unanim
unterberger
unquantifiable
appels
appreh
appjob
relieve
relaciones
inclure
inclined
digi
digib
dignified
prise
prvention
prjud
przed
prsident
##fice
##fico
##eard
##earning
##romagne
##romanias
##anta
##antn
##antage
##antash
digitale
expo
exped
expos
expli
exphe
##orea
politis
polunin
##ipres
##ipse
##erez
##erending
interins
allal
allied
allaire
allwomen
allergens
sustag
sustentabil
spong
spark
spaw
spurt
spino
sparks
spurring
spagnoli
sponge
spessa
mari
marn
marital
marang
marco
marpol
marleen
##ardi
meier
mezi
mehran
economie
socket
smits
smoother
smgp
smashic
intract
intoler
##encial
##encelanguage
trap
traps
trapped
tradu
trappmann
conspic
conscience
consejo
desde
desyc
desaf
desires
desvaux
leas
leich
lease
leee
leeu
leib
leimb
leke
lends
league
lebner
lequel
##iaire
##iativas
##iafinland
##iaromanias
##izade
##izier
##izao
##izacin
##izabal
ar4
arth
arora
arsen
arenas
##ultas
##iney
##ineering
itu
itters
##graw
##echowski
disgu
##acte
##actes
##acters
secturs
transits
transitory
transcript
transicin
transmissible
agrib
agences
agencia
##ivability
##iveness
##ivores
repo
repsonse
##asts
##astoma
##astedt
climates
climater
climef
climbing
supporters
perim
permis
perils
perrels
persigue
##ovable
##overse
hair
haut
haile
hamm
haird
hamb
havi
##ellors
##ellato
scr
scc
scf
scient
scuss
scored
scaw
scnar
assorti
assemble
##ribes
recours
recovers
recoup
recenss
underground
underemployment
underinsurance
undergone
underinvesting
##aille
canal
cannes
canopy
##ubon
##ubljana
invit
invok
inversin
servicesx
##undp
##unded
effectifs
##ichtshof
finck
outgoing
outlet
outturn
outliers
counties
councill
##entiers
##entific
##entiary
opacity
basing
##aryotic
manu
mans
manne
manuv
manila
decol
deceler
emptive
empathic
##ioglou
##uez
##ueger
upside
upvc
upwelling
##ghes
##ghetti
##ghiu
##ghiros
##ologa
markings
markstrom
partags
newcom
greig
gregory
##ancelled
dirty
dirham
diritti
##soffpantson
seo
seine
seules
seism
segrad
seuls
seemed
techo
environnemental
##overy
moend
mooring
moya
moths
moencsd
fooddr
foodinho
socialization
technic
technik
technisch
technocentrism
##isha
##ishments
requis
pubs
##dering
avel
avner
avog
averse
avaient
avatars
aventura
busy
systemically
platformisation
skf
skin
skovs
sklodowska
modle
modem
moderation
modifying
modlisation
##ricably
businesss
obrien
##icale
##ermarks
informally
informatics
informetr
##agons
##aganis
##agna
##agata
##achten
##acharya
diep
dike
dixon
diabet
dianne
##iek
changer
chanona
changers
##eneg
##eneurs
employments
##aterra
##ongwe
inncocell
##istem
##amen
##amis
##amble
##amura
##amiento
##ryse
##grams
hey
heins
heavier
publics
policy1
policylegal
programma
regionality
sao
saon
saves
saxton
saurait
highway
strateg
##strger
speculative
planner
##alschlic
##elyne
amel
amalg
amadio
contribue
buch
buzz
buvin
bugmann
busiest
skillsets
transpositions
##boa
##bouw
approvals
article3
article8
##engo
##engineering
greenkey
##ounting
##ounep
##arez
##areka
procur
procter
procder
procuring
procurer
pole
poff
pouss
pouv
popper
diffused
rouss
royo
rouble
ropponen
communiqus
ete
etf
priode
prindust
##cessible
respiration
enslav
##ifo
##ifter
##ifinal
noon
noar
noble
noises
noone
notifies
county
##ablacar
researching
activist
availabilities
developmental
hassen
hassani
laf
laide
laura
latitude
lavis
lahc
latitudes
lazio
weind
weaving
subgrou
suburbs
##aptal
howes
howard
prey
preface
preece
prefecture
preamble
interns
internacional
##ensor
autre
emits
emily
emisor
locus
organi
bob
boer
boerman
bouch
boars
bozen
boga
boley
boston
boeh
boyd
overhe
overtime
overfl
overrepres
overrun
overreli
overvalued
overtaken
valin
valle
valend
valables
valves
valdis
valais
valoda
valizade
womans
assessors
followers
reder
redraw
redirection
##isationen
crist
crutzen
##eenmki
maya
mayor
persson
persecution
elib
elco
elasm
elpa
elisa
elenabs
wells
changeable
crea
crete
creatively
creased
termed
financiers
implementable
natl
indica
evgen
evaa
evelyne
##atization
collates
##oustic
##ousness
doug
dozens
doucette
improvi
eser
espo
esping
espin
espn
eslefl
esencial
##onsaw
captivating
mono
monta
thereon
demolished
##ordance
##ordano
##ordinate
solide
solitary
addressee
operability
wherein
##rown
legible
legibly
guaran
coste
costanza
soar
soul
soup
soya
soknaran
soteriades
soonsaw
##okine
##okvas
fiber
finder
fiie
specifics
prototy
protrav
tara
tariver
##ondo
inflic
infine
practise
estp
estuar
estancia
carter
caract
carval
carmen
caretakers
##intel
##intment
##timoc
##ningham
##baldist
rev1
revue
joo
joints
joyal
nonc
noneu
pepper
pehl
pendant
ris3
accessory
gloves
promulgate
equate
equated
equalities
geely
geost
geochemical
geosci
geomorph
geotracking
framework4
##ouv
initiators
initiale
generalize
generalizations
generalisable
globalized
globalgovern
globalpartnership
womenecon
##eeing
##eeuw
secap
expectedsa
numeric
numriques
insuring
instil
insulating
idr
idd
iduh
##kson
knowhow
facs
faceted
faculty
wasteful
transitioned
topical
actuelle
##armon
destino
destined
defra
defensive
deflated
meda
medef
medco
medidas
travelweek
figurer
figuero
##egar
##egna
selections
##phur
##phins
surging
surfact
surmon
suryak
bioacc
bioinform
circa
circulate
circula
circuit
circulating
circuits
circabc
concomitant
concordance
oneill
labore
labores
##cilaso
groupes
governors
##ampton
##ampalli
advices
##ansk
importe
mainlands
mainboard
mainsearch
hello
helena
##ava
##avy
##avor
##avot
##avoid
##avella
keyboard
keypad
keyantash
waterproof
multit
muller
mulidis
##ianza
feu
feet
fehmar
performants
authored
authorizations
furlan
##airn
purify
purport
schl
schult
scheld
schott
schlen
schuster
schmc
scheveningen
schumacher
butt
##taluxembourg
firing
additionnelle
reducible
potassi
potato
##lique
##liberal
##urred
presences
prestig
presumptions
presencelanguage
communicable
biodisc
larges
larsen
##operating
privadas
eur1
eurone
designates
delg
delves
delhi
deltas
deluge
delocalisation
delicate
extr
extents
extunc
extensible
extranjera
linstrument
linser
linquiti
##lds
##togram
educacin
investmentval
##axis
##axosmith
implementation3
##graphe
##endront
acharya
remaking
remington
remodelling
oppla
opplaport
quival
multipl
multipoint
multiutil
multisp
endless
endpoints
endogenously
adopter
adopte
##oga
anything
cerema
ceramis
shareable
shareholders
shareholder
lien
liere
lieven
limpact
currents
varela
worldwides
signe
signatory
signifying
signorelli
opportune
airfares
integrable
integrators
integracin
methodical
afme
afresh
afghan
afraid
sharpe
sharable
fuelling
reste
restores
restreint
restorative
##angulation
##angouras
betting
##ernes
cooperativ
##adeo
takeovers
takeaway
statistiques
challengers
discont
discomfort
themis
safari
safaris
singled
educationwaste
corn
cores
limite
tremor
treasury
tremeur
formulations
formulating
docile
industrialization
urz
urge
uriserv
goodby
ourselves
affinity
flax
flown
fluvial
callaghan
centri
centuries
minh
miners
minako
veracity
vergote
verdin
vergeyn
allowable
##tension
##tenhuis
recoverable
appropriateness
authoritiesmlmupc
viss
##iums
directa
##tila
##tilely
distrac
goel
gogh
goenaga
goudar
gooverse
gographe
taxonomic
accessibility11
performance3
personeel
tablet
commonwealth
##partially
##ftop
##ursing
##ycles
provincia
refr
reflex
refusing
refraining
refonte
lowers
##ligation
##minating
##minute
##minbi
regulates
##gesetz
transformer
transformaciones
carbonate
rightsholders
loon
love
loire
looming
loosen
louder
loffre
lofgren
technicalities
offerte
downgrad
downtown
##aboration
##mmaking
##mmetric
##mmenos
phomm
phelan
phakam
becas
consumerism
behrendt
urbanised
industriesstatistical
trus
trump
traces
truj
tractors
trationmis
trabuc
##modation
maia
maats
mahow
mahor
maersk
maghiros
shortening
shortlist
fairest
covert
fractions
fraser
frente
linkov
accommodates
provisionally
##mester
##redo
destinationsstatistical
understands
understandability
ifpri
iframes
encl
encaps
enclosed
encoding
encroach
##ossy
polluted
electr
electromagne
patt
pata
patric
portant
portlet
portray
porthin
vuln
pointe
openknow
sits
sitch
sitting
depopulation
belt
bello
belfki
connat
##teo
##tek
##tebr
##unctive
##linger
##lingstein
contrarily
contrler
payable
paypal
indiqus
biome
biores
bimplement
biowaste
administrac
steal
steers
steered
steiger
herder
heraw
hertel
herzg
herbace
heritages
individua
individuel
individuate
charting
charles
characters
customize
experiencia
barge
barely
barley
barcode
barlow
baracho
swat
swain
swart
swifter
landry
landline
packet
simard
simelton
##ankind
microone
microbe
microeconomic
microcos
microblo
microevolution
lifeblood
prinn
princet
profiting
professors
##ocked
ruraltour
ocultas
##tifie
##tifizier
liking
rensi
renunc
renuka
renminbi
observer
groupdet
bris
bronau
brenner
brutal
instruc
complimented
##atoriana
fois
foley
humankind
housework
coordonne
rae
rao
raj
raes
raid
raison
rauff
ravet
principes
langen
dependents
dependencia
preceded
icu
ic3
icpd
icaria
icaos
iczm
icaptal
averaging
##roni
essenti
##share
##shire
##shani
triangulation
trimester
cookies16
cookiesmanage
borgne
boruff
summed
responsables
responsabilit
##indones
combated
combina
passing
passages
personalising
personalization
##edicated
lively
humanistic
searchable
alternate
excl
excav
automata
automatisation
emerald
##ativit
siad
siba
sielicka
majoritarian
internalized
waymo
certaines
##versen
playa
playbook
playground
resides
tempstate
sydney
symmetric
schemes2
croslin
crossrefgoogle
terzi
tercer
terabytes
zertifizier
retosa
clearance
clearest
controllers
##roadmap
choix
gdansk
maturing
matson
matlack
matosinh
mattila
matteo
##asonable
disposition
incomehigh
scienced
blaming
blasch
##pecification
specialising
specializing
nextgene
entreprise
efs
efthe
efsd
efovi
##eux
##ieved
critics
barrio
unwilling
latters
standardising
metrix
metered
meteos
sergio
serafe
stats
statssa
realm
realms
realized
menne
readjust
fuller
fullest
sincere
sinopec
newscat
##saw
##ibilit
broadest
broadens
turnaround
##ractive
uncl
uncovers
uncondition
uncomfort
##ermann
homeaway
politicians
afterthough
balbu
harmed
pathogen
characterises
characterize
holder
holthuys
germanwatch
accessibleeu
easiest
##affncsd
fisher
confused
confianza
##aranta
bod5
bodirsky
primitive
responders
calcule
calcifying
slab
salar
salad
saline
salient
respecte
respecter
guidelinesaw
arrieta
bankia
reflows
civit
demonstrably
slovene
draugh
drafts
dragon
drahok
softwood
##elerate
evergrande
marche
marchal
marchadier
professionally
professionnels
electrically
evidences
evidently
evidentiary
transparently
##ierter
centrepub
italia
##ussalam
influenza
frans
franois
freeing
freezing
freepik
irps
irma
irrel
bull
bullying
auditor
audubon
edes
edic
edged
edsc
edna
edima
handles
handful
handym
handsoffpantson
amends
pursuits
resourceful
abn
abst
ably
abbr
abetting
abolished
abbvie
abidjan
abrantes
cycz
closes
ceas
beyer
backshore
viiv
viernes
viadeo
##comulco
##iosity
##sibedk
coasts
pilsen
flowchart
##inspain
spaincan
europens
europabon
##bras
##wayne
ers
erte
erma
erkl
ergonomic
erreurs
nettement
temporaires
definitional
devote
deviates
dedicating
chemically
interactively
founding
foundational
foundries
limites
limitant
elex
eleven
recognizable
##persons
burke
dimit
ppas
negatives
friuli
##nehmer
agencies15
agencies12
agencies10
shipyards
shipowner
china1
debit
debrief
hospitalier
hospitalisations
copa
coped
copying
continuer
aident
huatulco
huete
hughes
##ismet
classed
##ashi
concerte
attractivity
hubei
##denmark
##arkers
downloading
downloadable
downloadpage
tending
tendencias
chapin
centralise
ltvra
steppe
##gregor
postmates
reinst
reinter
reinstate
recyclingbus
hardy
justi
justifie
gray
grave
grade
grainger
grappi
grammenos
complexe
complexit
certificationtrade
operationalise
alignments
czajk
cca
ccnucc
##iasis
##iaslovak
logran
logbook
lograr
ilc
iluc
illes
illiberal
spee
##linie
purchaser
bgel
males
malware
malaga
##pls
papargy
martina
martiniqu
maximised
testament
correcting
corriger
textielindust
dgre
dgpr
dgvm
hydrol
tenets
tenancy
tenkanen
##otherapies
taskrab
imfs
imbert
neutralisation
neutralise
neutralising
investigates
investigacin
midday
revenus
departmental
departamento
virta
virtue
virtuous
dyna
prosocial
hydropon
preferencing
##onton
##swe
##ription
rapide
##itisers
nowski
nowcast
ambitionne
substantiation
substantiating
burdening
misrepres
misused
misinter
##retched
robg
robuart
fews
daz
dahles
daverio
daioglou
daytime
conceptually
rapides
dombrovsk
domingo
domecq
dominey
macis
maclar
macgregor
clouds
cloudfl
farrel
interoperate
conservation8
conservationists
disrupting
basics
pauli
pappalardo
predicts
predicated
gheor
causation
forcefully
producersuniversities
teb
tehran
teutsch
derreur
##ringer
earlygame
hereby
herewear
sensed
debtlower
auws
migrate
##tawa
agrifood
hotelmanagement
##ofi
dissatis
declaring
utilis
voor
voir
occupies
occupiers
existe
getaways
insider
cohr
cohen
cohort
austerity
ferr
fertile
##ortium
examen
mtv
mtnlse
denoted
denisa
denigot
##general
aggregations
aggregator
inequities
romantic
usefully
abson
absences
pilli
profited
##irectorate
mandl
mandating
##afact
##africa
##aftsforsch
##afuso
##afshani
lex6
lex2
lex12
lex10
lex22
lexcution
conductors
ghgiet
##ekker
##hei
grounding
##notes
##gerichtshof
forwardke
leaderships
oecds
droughtcat
immune
immovable
mentioning
plein
pleads
affectes
stimulation
interviewing
interviewee
simplest
simplifications
simplifier
paperboard
hostels
iva
ivector
ivoire
sevilla
sexist
csm
csc
csdgs
cslip
##uane
##amexico
planton
planted
managua
crucially
drawings
disseminates
##ottes
solids
solidaires
actualise
rgions
rgimes
overviews
damm
vaccinations
constate
watermarks
tracks
trackers
histoire
repeals
repetitiv
diversifies
deadliest
samplifier
pasta
displacing
artworks
mobilises
mobilization
mobilissim
glm
glanz
glaxosmith
##asinghe
unfunded
booklets
headings
headlines
headphone
headphones
archety
luxemb
turydes
undis
undeni
undeniable
undervalued
slovakian
msp
novo
novigrain
novaterra
famine
famous
parametric
paramtres
decarbonization
decarbonized
decarbonize
earthobs
earthcheck
animation
harnesses
harald
ngin
unitary
batts
baths
batches
batched
peset
cancelling
credibly
guidebook
curb
cury
curate
curtar
curaao
curiosity
##bnb
##irait
windfar
bradle
sensitise
collectors
luxembourgs
ratifications
rawls
temperate
synops
synoptic
cola
colum
colloquial
##tonie
complter
complacency
complutense
cropland
##pole
degryse
explainer
factorial
tripled
agrotourism
agrochemical
faust
faulty
faurec
telman
telema
gao
gaap
gaze
gaitn
svhc
expressly
bounds
boundless
##ruism
##ruhe
discipline
disciplined
formalized
layered
layoff
mcd
mcas
mcma
mcinn
mclennan
inspecting
mylan
myths
myriad
delaying
milbeck
converged
convergencia
runionese
illum
illnesses
didi
didier
didactics
##aurer
batterie
sidewal
multimodel
drm
wrsi
##sea
semenza
semifinal
entitys
translocating
registra
entirement
guadeloupen
aerosol
nuts3
compensative
compensatory
recitals
normality
bauer
##ariats
suspects
ntms
agentscambodia
historias
biomarkers
ndt
insuffisantes
##misti
republics
lui
luo
luong
luyssa
mora
moran
morcel
morris
morais
morokvas
blockages
bencheik
females
claimant
constitutional
valuer
contraintes
ambitieux
madame
madgav
sheffield
scalabr
driveher
horizontally
deployable
cedaws
##inkeurope
repaired
repairers
bertim
berkel
offsets
aktas
akismet
firewood
rolls
propias
propelled
proposta
proponent
rounding
creditworthiness
garage
garrett
garcilaso
hearings
##desmar
sanur
sanches
santini
sanitisers
sanofi
##athir
##athian
visuals
visualised
queer
queues
queuing
initialize
juries
##lson
##lsruhe
##ittella
probing
##theis
permanence
permanency
biomasses
banque
banbury
mutatis
mutandis
silico
silvic
reinforcements
paso
pasini
perceivability
constrains
chargeable
unea
epistem
##azionale
##etrics
##echnology
##aiwan
illustration
rangeland
thoughts
unsure
unsustain
unsanitary
unsubsc
polished
interconnectivities
fixs
fixer
fixing
fixation
lawson
narcis
contesto
contested
approximated
secretaries
secretariats
dominic
dominates
dominoes
australias
rglementaire
academies
contrasts
contraste
contrasted
dkk
olivia
olstho
winberg
underprepared
infringing
biotechnological
woods
quipem
minded
ieq
rush
treaty5
edii
filming
filmmaking
comesa
consolider
consolidations
consolidates
counteracting
countervailing
depths
##unicipal
takeshita
chinellato
movers
municipio
saying
vfr
warwick
warsaw
##mara
##marks
interpreters
interpretations
bnp
brian
##breaking
discoverable
cyberspace
correspondingly
##barometereng
cahlik
merz
incentivessub
substitutions
substituted
substitutable
caseload
ulrike
augmenter
heaviest
bedia
bedreig
senent
sensibilities
girardin
ncsdmef
##enny
##ennent
##ennie
geostrate
cashiers
northwards
##ijs
##ija
##ijus
##vietnam
##final
##financial
atmos
argan
violated
##adaqui
remedied
summarize
summarizes
waivers
waiver
waive
wahl
transmitting
transmitters
toolboxes
esfri
esfrhr
teammates
grotenhuis
palma
palacios
##biac
##otyja
##otypic
rdps
rduis
ventes
venturas
ventuelles
empirically
scheduling
ntgalli
lunz
lung
lunah
xxii
##ecedents
firmware
complaining
cuttings
bahas
baja
eibs
eiopas
hitting
##moeys
##mooei
##isser
lobel
lobligation
pharmacy
welva
welaser
warmth
brothers
broke
brooks
brotons
brody
mentlabelling
exporters
normalisation
3develop
billable
cellule
grer
gras
gratton
grateful
licences
licenced
littoral
massage
reimburses
enforcer
splitting
appearing
egg
eggs
matilde
forthwith
attainable
printers
expansionary
halved
halpin
oxodegra
parcel
universalschlic
predominate
preserves
experimented
elementary
converse
retrieving
intelligente
ouyang
tituto
[...]
