#version: 0.2
Ġ t
Ġ a
i n
o n
r e
t i
Ġt h
Ġ s
e r
Ġth e
e n
o r
Ġ c
e s
. .
Ġ p
n d
Ġ o
a l
Ġ in
ti on
Ġa nd
Ġ f
i s
r o
a t
Ġ e
a n
Ġo f
Ġ d
i t
in g
Ġt o
e d
Ġ b
Ġ m
Ġ w
a r
i c
Ġ re
l e
.. ..
a tion
en t
o m
s t
e c
u r
v e
i l
Ġ n
m ent
Ġp ro
Ġ h
l o
u l
Ġf or
a s
Ġ g
e t
c e
Ġ (
Ġ u
s i
i m
.... ....
Ġe u
a b
Ġ on
Ġc on
a c
Ġs u
i g
o l
Ġ l
Ġc om
er s
Ġs t
Ġa c
at e
it y
v i
e m
u t
Ġ en
r a
r i
l y
Ġa s
s e
or t
u re
p e
Ġc o
p p
g e
t s
e l
es s
o d
it h
u n
d u
Ġa l
ti c
Ġb e
Ġw ith
Ġ 1
Ġeu ro
Ġe x
ti ve
t h
Ġ or
c h
Ġ is
Ġd e
i r
a in
v er
il l
Ġs h
Ġa n
Ġeuro pe
Ġa re
ec t
c i
f or
q u
t er
Ġb y
i on
Ġw h
u s
ab le
o t
Ġa d
or k
Ġ im
Ġp ar
Ġcom m
Ġin c
f f
si on
Ġim p
es t
ur is
u d
tion s
Ġth at
for m
Ġ r
Ġ 2
........ ........
Ġto uris
i ti
i es
o s
Ġ le
Ġn e
u m
n o
Ġs o
Ġp l
e re
Ġ v
Ġc h
du c
ation s
a ge
Ġre s
r an
Ġtouris m
Ġth is
o re
Ġeurope an
b er
a k
Ġd i
g y
Ġcom p
Ġcon t
Ġe c
is sion
a nd
it al
re s
i d
il ity
a y
Ġre g
a p
al l
a d
an ce
o ur
Ġ 3
m e
Ġa t
er v
Ġw ork
Ġd at
ul d
vi d
at ed
Ġac c
ig h
i f
Ġsu pp
Ġ it
p er
Ġa pp
on om
Ġt ran
ro m
Ġdat a
Ġu n
c t
an t
Ġd ig
Ġc l
o w
l ud
Ġf rom
en d
ment s
m p
Ġdig ital
ve l
Ġp ol
ro u
lo w
p ort
Ġf o
st ain
ci al
Ġu s
Ġw ill
erv ic
Ġin t
Ġ j
ation al
Ġsu stain
d i
l ic
iti es
ar d
o uld
is t
Ġs ervic
Ġm ar
Ġ 4
Ġcomm ission
Ġs p
st r
Ġm e
Ġs e
y st
or s
a tive
Ġsupp ort
yst em
i p
em ber
th er
r on
ac t
ve lo
at es
Ġ 5
velo p
ul t
Ġin ter
Ġde velop
Ġt ra
Ġs m
Ġn ot
in e
Ġinc lud
Ġ k
Ġec onom
Ġthe ir
) .
s o
er gy
Ġa g
a re
Ġpro vid
Ġcon s
Ġa r
ec h
ti v
Ġf in
g ra
Ġen ergy
o p
Ġpro duc
a st
Ġtran s
en ce
Ġs ect
i z
Ġu nd
Ġ y
c es
ri b
Ġp er
Ġh a
Ġal l
im ate
u b
Ġe ff
Ġund er
un t
i a
Ġsh ould
Ġin v
Ġservic es
ic h
u nd
Ġm ember
Ġc an
Ġcl imate
Ġm ore
Ġex p
Ġpol ic
. ,
ure s
i v
Ġo ut
en ti
ar y
a il
Ġ lo
Ġm an
Ġd ec
g h
ur al
u e
k et
Ġwh ich
ak e
al s
Ġpro p
lo y
Ġst r
as ed
Ġre c
Ġp r
Ġne w
Ġpar t
Ġg re
vi ron
Ġst ates
Ġdi re
no v
ab ility
Ġm o
Ġen viron
n e
u st
Ġmar ket
Ġt ech
Ġsustain able
Ġal so
Ġsu ch
Ġso cial
is h
in ess
n t
Ġo ther
et w
a g
Ġre qu
Ġha ve
Ġenviron ment
Ġp re
Ġe mp
Ġd is
ul ar
g et
Ġas s
el l
Ġ 6
at form
Ġfo od
Ġp ub
Ġre l
ic i
Ġpl atform
Ġs ystem
Ġu se
Ġb us
si b
Ġm od
k ill
d ing
ic al
Ġo b
Ġd es
Ġme as
Ġbus iness
o ver
Ġb i
le ment
Ġin du
ac h
Ġin form
Ġle vel
as e
Ġne ed
................ ................
ar ch
Ġpar tic
Ġch an
Ġ 9
Ġs c
ig n
Ġa m
at er
if ic
is ion
en er
j ec
ti es
Ġsect or
Ġu p
Ġprop os
Ġin nov
res s
gra m
d er
e u
Ġh e
i re
rou gh
) ,
Ġsm es
Ġd o
Ġs kill
om e
c tive
Ġinclud ing
Ġpro gram
ul ation
s s
Ġpub lic
a m
c y
Ġpolic y
Ġa v
u tion
Ġar tic
Ġcons um
Ġstr ate
Ġ qu
b o
at ing
r ic
Ġs a
Ġh igh
Ġn ational
Ġin d
Ġpl an
Ġ 7
Ġcont rib
or iz
Ġgre en
Ġre port
Ġskill s
oriz on
Ġinc re
Ġreg ion
Ġb u
Ġinform ation
Ġemp loy
Ġapp ro
Ġsp ec
ect ed
g ies
el s
Ġh orizon
Ġf und
o u
Ġ ro
Ġartic le
Ġp o
Ġimp lement
ri es
Ġdi ff
Ġpro c
no lo
Ġinv est
Ġmeas ures
al ly
er m
l ine
tiv es
l es
Ġth rough
Ġn o
Ġ ent
Ġthe se
Ġen s
Ġres p
Ġdire ctive
r is
se arch
Ġad d
Ġbu il
al ity
Ġcomm un
ap t
Ġac tion
str u
Ġav ail
Ġco unt
Ġtech nolo
Ġre search
Ġg ener
Ġe t
on g
y s
Ġdevelop ment
o se
Ġh as
ac k
un c
ar i
Ġ 8
ri v
en cy
Ġw e
g an
Ġsu b
Ġeconom ic
Ġrequ ire
Ġsh all
Ġh ow
l ish
Ġinter n
ar t
om en
Ġa ut
Ġor gan
o us
Ġl a
e w
ol low
c om
Ġthe y
Ġf ollow
Ġass ess
Ġtrans port
Ġo ver
c l
Ġv al
Ġre le
Ġit s
ard s
e f
Ġw omen
a ce
Ġeconom y
is ation
e en
Ġ .
Ġlo c
h ip
Ġs ec
v ant
Ġb o
Ġw ell
Ġc ol
si tion
etw een
Ġe m
Ġres our
Ġdiff ere
Ġm ay
Ġb etween
Ġc re
et h
Ġ 0
Ġ ................................
Ġp ers
Ġchan ge
h ol
Ġan al
Ġo p
le ct
Ġf ra
b ility
Ġavail able
u tions
ro ss
Ġof f
igh t
Ġind ic
Ġn at
Ġad apt
Ġe v
i le
Ġun ion
in t
Ġimp ro
Ġprogram me
ent s
Ġre f
e x
Ġthe re
or d
v ing
w ork
Ġcon di
Ġex per
Ġfin an
enti al
p s
Ġwh ere
e ar
Ġinnov ation
ro w
Ġm on
Ġreg ulation
Ġadd ress
Ġc ap
Ġs et
Ġtra vel
in ing
Ġg u
Ġens ure
g es
b s
Ġs ol
vi ew
Ġrele vant
age ment
a ti
Ġo per
Ġindu st
o k
Ġr is
Ġcondi tions
re e
Ġg o
Ġco st
Ġle g
ti vi
Ġpartic ular
tivi ties
p tion
si ve
d e
u al
Ġac tivities
Ġimp act
ic ation
ill ion
ak ing
no w
on d
di tion
n ers
al th
Ġpro t
Ġin f
Ġbuil ding
l ed
ti m
Ġpr ac
i ed
n ing
Ġproduc ts
Ġ est
or y
ar get
Ġapp lic
Ġfra me
Ġpers on
Ġ es
in ation
lo b
Ġth an
Ġdiffere nt
Ġcomp an
Ġpro m
os ystem
Ġframe work
Ġsystem s
Ġresour ces
m s
Ġhe alth
Ġd em
Ġin iti
Ġn on
Ġe qu
sib le
Ġj o
Ġec osystem
Ġprovid e
Ġg lob
j ect
Ġ ).
Ġint o
Ġexp ected
hol d
Ġeff ici
ir c
Ġto ol
en ef
Ġacc ess
u es
Ġanal ys
Ġn um
Ġde f
Ġemploy ment
e e
om m
Ġso ur
k s
Ġadapt ation
en s
ult ure
ult ural
Ġw as
re n
Ġp e
n er
Ġeff ec
Ġy ear
Ġre p
Ġsustain ability
enti f
ti t
Ġbi o
Ġdec ision
Ġ id
tic s
Ġfollow ing
i e
p ec
Ġw ast
Ġtran sition
Ġenvironment al
Ġt arget
at ors
Ġf ac
ar m
Ġd est
ut e
Ġk now
Ġman agement
Ġloc al
Ġt im
Ġto p
ur ing
Ġin s
it s
p h
str y
Ġb ased
is e
Ġso ci
Ġglob al
Ġstrate gy
Ġcount ries
e y
ne x
Ġmod els
ers ity
Ġpro jec
Ġent er
e g
ti f
Ġaut h
Ġc ar
v en
Ġspec ific
Ġac tions
Ġmo st
o unt
Ġon line
Ġ1 0
Ġwast e
over n
et y
Ġintern ational
p ris
Ġs ur
Ġb enef
Ġ ra
Ġimp ort
ed i
Ġ /
Ġag ric
c tion
res ent
Ġan nex
Ġa bo
Ġcon si
il i
Ġnum ber
Ġon e
it or
Ġappro ach
unc il
p t
Ġco uncil
is ed
l ig
an s
igh ts
b le
c us
Ġpart ners
a mp
Ġf ut
Ġg rou
Ġac t
r y
Ġproc ess
Ġt y
Ġtechnolo gies
Ġf ig
Ġtra ining
as s
tic al
Ġrel ated
Ġl ab
Ġbe en
ac ts
re d
p l
Ġth ose
Ġprojec ts
Ġh el
Ġus ed
Ġm ain
o c
Ġac ross
Ġ i
t ain
Ġk ey
Ġanalys is
it e
ec onom
l u
ab lish
Ġw ater
ec tion
Ġenter pris
Ġf ur
Ġfinan cial
Ġob jec
Ġwh ile
Ġauth or
Ġg row
o per
Ġest ablish
Ġ low
Ġc irc
Ġpropos als
Ġfut ure
Ġde p
Ġper form
etw ork
Ġindu stry
Ġt erm
Ġsh are
0 1
Ġb ut
Ġp age
Ġad dition
Ġsect ors
Ġacc es
Ġval ue
Ġprom ot
Ġn etwork
Ġcompan ies
Ġfur ther
t al
Ġen g
Ġp ot
Ġcon c
all en
Ġgener al
Ġre duc
Ġp ur
1 9
t ed
Ġid entif
Ġs ch
Ġch allen
Ġsol utions
Ġl ar
led ge
sib ility
Ġad v
0 0
it ed
Ġf ir
Ġresp on
Ġm illion
Ġwork ers
od iv
Ġeffici ency
Ġco uld
t o
Ġst ud
em ic
Ġg overn
Ġex t
Ġst ake
ere d
Ġc ur
Ġm ul
ic e
Ġpro ject
Ġon ly
in es
l d
Ġp os
stru ct
Ġexper i
Ġc r
eg r
Ġpe op
a x
i al
Ġknow ledge
Ġtool s
a ir
Ġare as
ter n
Ġint egr
Ġpartic ip
Ġst and
Ġimplement ation
- -
Ġwith in
Ġres ili
gra ph
Ġnat ural
Ġf ore
pp ort
Ġe duc
Ġneed s
b ased
Ġinvest ment
Ġex ist
Ġregion al
Ġhel p
n ess
ow n
od s
ad e
Ġpeop le
ission s
end er
Ġto tal
Ġac h
Ġco vid
Ġtop ic
Ġtim e
ul es
Ġdes ign
c u
Ġw ould
Ġw ere
Ġre m
in k
Ġach ie
Ġfig ure
h er
Ġpot ential
Ġex amp
Ġw or
tic es
id e
Ġservic e
Ġproduc tion
Ġrequire ments
em p
o ut
Ġ x
Ġan y
Ġwh en
Ġl i
o st
re nt
Ġad op
Ġimpro ve
v ision
Ġcirc ular
Ġe ur
it er
c ed
2 7
tiv ity
Ġf e
ul ts
Ġp riv
Ġimp acts
Ġapp ly
Ġincre ase
pport un
Ġabo ut
Ġthe m
Ġd et
a tives
Ġm eth
Ġs ign
Ġo pportun
Ġb ud
Ġbi odiv
Ġprot ection
Ġinclud e
Ġus ers
Ġs ome
Ġc er
Ġg ender
Ġwork ing
Ġst ate
Ġregion s
Ġa ir
f ore
in ed
Ġinf ra
l i
Ġpropos al
Ġc ultural
Ġpolic ies
Ġbiodiv ersity
Ġprac tices
b on
v ed
Ġlab our
Ġwor ld
Ġbud get
Ġf i
Ġinfra struct
l and
ati s
ay s
ri al
Ġb et
Ġfin al
Ġcontrib ute
Ġsour ce
il ities
Ġconsum ption
t ing
Ġres ults
Ġt w
Ġagric ulture
Ġcur rent
Ġbet ter
o lo
Ġen d
Ġv ari
Ġfund ing
rou nd
Ġco oper
Ġsm all
Ġb as
Ġmul ti
Ġfo cus
Ġt ake
Ġa f
Ġcost s
ag es
Ġf u
Ġwh o
Ġsur ve
t en
Ġprovid ed
Ġsa f
w ards
Ġst atis
Ġassess ment
l ia
Ġmon itor
w are
an g
Ġm in
Ġpar lia
Ġtech n
Ġris k
Ġs ing
Ġin di
Ġd ist
Ġorgan is
Ġeduc ation
Ġplatform s
Ġd el
Ġ1 2
Ġc le
Ġenterpris es
Ġt re
u se
Ġl im
Ġparlia ment
Ġl ong
Ġexist ing
Ġgrow th
Ġ vi
Ġacc ount
Ġs im
Ġa im
ex t
p ri
en sive
Ġo ur
du ce
at ory
Ġfor m
Ġor der
Ġmo bility
hold ers
Ġs ci
ur b
Ġdes c
Ġsing le
Ġse e
c c
Ġis s
Ġa ff
Ġpro f
Ġindust rial
Ġstake holders
Ġr ules
Ġcontrib ution
c ing
Ġal low
h a
Ġc or
Ġcommun ication
ou se
Ġleg al
l l
ere n
Ġappro pri
Ġf arm
Ġauthor ities
Ġlar ge
Ġcap ac
o un
l ab
t y
Ġdire ct
Ġimport ant
Ġchallen ges
Ġm ake
e ver
Ġ ver
u p
Ġf ul
er n
Ġc all
i an
Ġle ad
st and
Ġ2 0
Ġlevel s
Ġconsi der
Ġto wards
and emic
Ġopportun ities
Ġes tim
Ġ1 5
en ces
Ġus ing
al e
Ġdo cu
Ġacces sibility
Ġc ent
Ġcomm on
Ġappropri ate
as ing
Ġrec over
Ġexamp le
Ġinfrastruct ure
Ġt ax
Ġcom pe
Ġbusiness es
Ġhow ever
Ġperform ance
ver age
Ġy ou
Ġem issions
f t
Ġv is
econom y
g th
o g
Ġper i
Ġdigital isation
Ġqu ality
b i
Ġfir st
so ci
Ġpriv ate
urb an
Ġle ast
Ġl if
Ġre view
Ġs me
Ġ1 4
Ġp ort
Ġperson s
Ġcooper ation
Ġt able
Ġinc lu
Ġob lig
ar ing
Ġbio economy
as es
Ġm ater
Ġr ights
le ction
p r
Ġsign ific
Ġst ren
Ġp op
Ġc ase
Ġp andemic
Ġstren gth
Ġcompe ti
g er
Ġreg ul
in ations
lab or
m es
Ġle ar
Ġeffec tive
f ul
Ġsupp ly
ti ce
Ġconsum ers
Ġgu id
g ical
Ġn ec
Ġresili ence
Ġindust ries
s h
Ġe ach
Ġbo th
Ġb ec
is l
Ġsignific ant
m in
Ġex ce
Ġas soci
Ġ z
Ġtechn ical
Ġconsum er
Ġrecover y
Ġpo int
Ġtrans form
Ġdem and
Ġpro vision
Ġcont in
ain s
Ġrec omm
c lud
Ġm a
Ġp h
an ge
Ġpartners hip
Ġrecomm end
Ġd own
p re
u ation
Ġm ust
Ġacc omm
Ġc lo
ow er
Ġsoci ety
Ġaccomm od
Ġdest inations
il it
Ġreg ard
Ġunder stand
Ġam ong
are d
Ġproduc t
Ġnec ess
p es
Ġpos sible
Ġorganis ations
Ġcapac ity
Ġc ities
Ġpromot e
Ġcr iter
Ġme ans
Ġla w
Ġm ade
Ġf air
ul ner
Ġcomp et
Ġp ri
si d
e p
Ġp at
ic t
Ġinnov ative
Ġv ulner
is ing
Ġ1 1
Ġ if
Ġ urban
Ġsh ort
Ġins tit
Ġ1 7
ne w
ur s
Ġmonitor ing
p ut
Ġst art
Ġrep resent
le x
Ġleg isl
k e
Ġobjec tives
Ġsch em
Ġg ran
Ġe lect
Ġsu m
Ġterm s
Ġ -
Ġl ink
Ġcol labor
Ġbenef its
Ġstrate gies
g ing
Ġpol l
Ġman y
Ġev al
for ce
Ġm edi
Ġcomm it
Ġsa me
com es
Ġiniti ative
Ġty pe
Ġperi od
Ġcriter ia
Ġinv ol
Ġtechnolo gy
Ġa round
Ġsec ond
Ġsm art
Ġcount ry
Ġbuilding s
Ġcar bon
u g
ter m
Ġop en
Ġdest ination
el f
an ts
Ġaccommod ation
Ġt r
min ist
p le
Ġde al
ag ed
Ġfac ilit
Ġnat ure
Ġiniti atives
Ġout comes
Ġare a
Ġro le
Ġdesc rib
Ġyear s
Ġin st
Ġcon n
Ġ1 3
Ġdo es
Ġm ed
Ġpri or
Ġad minist
Ġm ic
Ġcont r
Ġnecess ary
p ar
as on
Ġincre ased
Ġecosystem s
Ġf act
Ġs it
Ġen c
Ġinvest ments
a graph
t e
an k
vi du
Ġd ue
Ġprovid ing
Ġc ris
Ġstud y
ust om
Ġindic ators
st at
Ġdel i
in i
Ġo w
ir d
Ġindi vidu
Ġre new
Ġen h
Ġaddition al
ic es
Ġmod el
Ġch ar
in d
iti z
Ġc ustom
Ġp ay
d g
Ġb ar
Ġincre asing
Ġachie ve
emp loy
Ġre duce
Ġl and
Ġac ce
l ing
m edi
s u
Ġcont ext
lo c
o pe
Ġg ap
Ġindic ative
eren ce
Ġstatis tics
Ġstrength en
Ġsh ow
Ġmic ro
Ġidentif y
Ġpop ulation
Ġp ack
ab ilities
Ġstand ards
ro duc
r u
Ġdec ember
Ġeuro stat
re ad
Ġwe bs
ac y
Ġsc ope
Ġco ok
Ġag ree
Ġc itiz
Ġst ron
Ġ1 6
ro p
re g
ur ity
Ġover all
Ġob s
i bility
an ced
Ġp resent
Ġsurve y
Ġenc our
Ġan n
Ġjo bs
ci es
Ġo ct
el d
Ġmedi um
Ġgrou p
Ġr ural
Ġproc ed
Ġin stru
at or
Ġapplic ation
% )
in ci
Ġth ird
Ġbe ha
iz e
Ġf unc
Ġh er
er red
r ing
Ġmeth od
Ġtw o
Ġh um
Ġoff er
Ġobs erv
c ent
i i
Ġg ate
Ġprogram mes
Ġpur p
oun ts
r al
en ess
e qu
Ġbeha vi
Ġg iv
Ġl ess
o ber
Ġrequire d
Ġdescrib ed
Ġ ..
Ġd uring
d f
Ġsh aring
u ct
Ġl ack
Ġpr inci
a tic
Ġco ord
Ġ1 8
Ġcons ult
Ġs w
Ġneed ed
Ġoct ober
Ġv ol
Ġ3 0
ici al
tiv eness
ang u
Ġb est
Ġh ouse
Ġcon f
eth er
ab les
Ġdeli ver
Ġl ine
Ġhigh er
Ġiss ues
k ee
Ġop tions
Ġlif e
Ġdevelop ed
Ġc y
Ġcris is
e es
Ġl angu
Ġgovern ance
Ġli ke
a v
Ġd om
se e
Ġ1 9
iti g
Ġreduc tion
Ġstr uct
Ġrequ est
Ġmeas ure
Ġthere fore
Ġtra de
Ġcommun ity
Ġtarget s
p tions
Ġeffec ts
Ġdep end
it age
Ġat t
Ġcook ies
on e
in ts
Ġc ity
l er
Ġmarket s
Ġsum m
Ġlo ss
pec ts
Ġgrou ps
Ġgate kee
Ġre nov
Ġwh at
Ġtouris t
lect ed
Ġm aking
Ġcl ust
Ġequ ality
ak en
Ġdist rib
Ġme et
i ble
Ġ5 0
Ġt ri
Ġoper ators
Ġconc ern
Ġ view
Ġg e
Ġa ware
Ġs elf
ro l
Ġ ess
ti l
Ġe ar
Ġinclu sive
Ġres ult
i als
Ġp ass
Ġcom b
Ġpl ace
Ġhum an
Ġm itig
Ġl at
Ġre st
Ġchan ges
o od
Ġsaf ety
Ġ2 5
Ġse arch
Ġplan s
Ġris ks
Ġsupport ing
Ġcitiz ens
ab ly
Ġreport ing
Ġprocess es
Ġma j
re h
Ġth ree
Ġal tern
Ġconsi d
Ġcomp reh
ff ici
Ġperson al
Ġbehavi our
g o
Ġcomp ared
Ġem er
Ġfu els
en cies
Ġe lig
Ġmin im
Ġmaj or
Ġcap ital
ent ly
Ġpar agraph
ag ing
Ġp res
Ġintern al
Ġper cent
Ġlear ning
Ġcompreh ensive
Ġw ay
Ġsour ces
Ġdet ail
Ġcont act
Ġsp ace
re l
Ġeff ort
Ġexperi ence
Ġint roduc
Ġent re
Ġunderstand ing
g ic
i ve
Ġ2 1
Ġpl ay
Ġaut om
vi ation
am b
Ġcre ate
Ġcer tain
Ġbe ing
Ġmed ia
ell ing
ro ad
Ġt ur
Ġmater ials
x t
Ġl es
Ġschem es
Ġhouse hold
er o
i res
Ġs y
Ġdef ined
Ġa verage
il y
Ġacc ord
Ġsub m
h ic
Ġc al
Ġpoll ution
Ġc ross
Ġre t
Ġdevelop ing
Ġsc ore
Ġplan ning
Ġ2 2
Ġher itage
Ġfi eld
Ġstron g
Ġfunc tion
Ġe l
Ġinter medi
Ġact ors
Ġwith out
Ġdis abilities
Ġess ential
d ay
or tion
Ġprovid ers
Ġt er
Ġtrans p
cc ess
Ġaccord ance
ar ies
Ġcommun ities
Ġf l
Ġch o
Ġy our
Ġsa ving
Ġwomen s
land s
Ġpercent age
Ġsu ccess
em b
en ari
Ġ2 4
Ġsec tion
Ġsec urity
Ġintegr ated
Ġtre nd
Ġgiv en
Ġpass en
Ġparticular ly
ing s
Ġcomp li
Ġbuil d
w ard
Ġa viation
Ġl iv
ech an
Ġro ad
Ġimplement ing
Ġgo ods
Ġlim ited
c ome
s c
Ġm at
Ġpl as
Ġstrate gic
Ġcer tif
ac es
Ġ ,
es tic
Ġl ist
get her
Ġsc enari
v ers
et s
Ġexp lo
u f
Ġmon th
Ġindividu al
Ġm echan
Ġfin ance
Ġspec ial
ou gh
Ġag ain
Ġaware ness
Ġpo si
Ġref erred
Ġapproach es
Ġens uring
Ġcle ar
Ġof ten
or ding
Ġne xt
Ġunder t
pre ne
Ġmethod olo
o graph
Ġow n
Ġre ach
stru ction
c on
Ġ ve
Ġbar ri
r ation
Ġprovid es
Ġlow er
Ġoblig ations
Ġto gether
Ġcont ent
Ġcont rol
Ġann ual
Ġ2 8
Ġdocu ment
Ġconsid ered
d p
or der
Ġre al
Ġse ver
Ġadop ted
ere st
Ġrel ations
Ġbas is
Ġentre prene
Ġre str
Ġadd ed
Ġd riv
Ġus er
Ġcle an
read y
ven tion
es sion
g ener
ul y
Ġal ready
Ġsci ence
Ġjo int
Ġcompli ance
Ġb illion
Ġinclud es
Ġint erest
Ġlegisl ation
Ġmechan is
Ġrenew able
Ġimpro ving
s a
Ġ ip
ut ing
Ġgo od
Ġapplic ations
Ġcontr act
Ġas pects
Ġmeth ods
Ġrenov ation
st an
Ġh ot
Ġet c
Ġass ist
Ġpropos ed
Ġs ize
Ġemploy ees
Ġc amb
Ġbenef it
Ġre sid
Ġtransform ation
in a
ment al
Ġac tive
Ġsc ale
Ġty pes
Ġvari ous
Ġst at
Ġapp l
econom ic
Ġ2 7
Ġpub lish
Ġsever al
' s
b e
Ġs er
Ġpro g
Ġresp ect
Ġtouris ts
uf act
a u
Ġ ................
Ġcon struction
Ġm et
Ġpo ints
Ġdef ini
en sion
Ġregul atory
Ġeval uation
Ġful l
Ġp ut
Ġ2 6
Ġfu el
i ally
o f
or ate
un e
qu e
Ġt aken
Ġre ce
Ġfacilit ate
w to
Ġb l
Ġregard ing
Ġac tivity
oc k
Ġc ulture
Ġm en
Ġre ad
Ġstud ies
rel ated
Ġt f
Ġco re
pec ially
Ġ ),
Ġ2 3
i ance
Ġ ict
Ġb road
ar ant
Ġ3 1
end ing
on str
erm an
Ġsaving s
er ing
Ġnew s
Ġapplic able
Ġaddress ed
a ff
Ġdem onstr
Ġsoci o
Ġz ero
Ġse lection
bo ard
Ġgovern ment
ri d
Ġmo b
si f
ac ter
Ġsu mp
ical ly
m aking
on line
Ġs in
Ġre ason
se l
Ġrec y
Ġdocu ments
Ġwebs ite
Ġrestr ic
Ġinc en
Ġcamb od
Ġ )
Ġa u
Ġinc ome
Ġprac tice
Ġparticip ation
Ġfore st
Ġagric ultural
Ġpack age
Ġagain st
Ġbarri ers
z ed
Ġman ufact
Ġproc ure
Ġen force
Ġhigh l
Ġex ch
Ġemp ower
Ġstat us
1 0
Ġup d
Ġpat h
Ġchar acter
Ġentreprene urs
Ġh ol
Ġco ver
Ġacc ording
Ġpol i
Ġgener ation
Ġaff ected
r ac
Ġt aking
Ġg dp
Ġcol le
Ġc a
Ġb al
il ar
Ġeng lish
Ġes pecially
Ġdistrib ution
Ġeffort s
at s
Ġw ide
Ġh arm
el ines
Ġaf ter
Ġrecy cl
.. .
Ġo ce
Ġb ig
Ġpr im
Ġrespon sible
c o
Ġf re
Ġpre v
Ġwh ether
Ġaltern ative
Ġstand ard
Ġsim ilar
Ġ2 9
Ġorgan iz
Ġacces sible
Ġnetwork s
Ġch ains
Ġresp ond
Ġf ish
Ġh ome
Ġr ange
Ġb od
ec tive
si de
Ġ5 5
Ġguid elines
Ġs lo
Ġg erman
Ġj an
Ġj uly
Ġexp l
Ġestablish ed
Ġlink ed
6 0
Ġgu arant
Ġpromot ing
Ġproced ure
w ay
ra tive
end ed
Ġfo st
Ġref erence
Ġfinan cing
ren ch
Ġvulner able
Ġ '
at her
un ch
Ġver y
Ġcal c
Ġb ank
si zed
Ġbe fore
Ġrel ative
Ġen ab
Ġqu es
Ġval ues
Ġfact ors
y ing
el ess
Ġar riv
Ġcol lection
Ġdet erm
Ġs al
Ġn or
Ġdis c
Ġinstit utions
Ġc ri
Ġa ge
ron ic
over ty
Ġestim ates
1 2
o id
Ġ #
Ġt est
Ġr un
c le
Ġp overty
Ġcon duc
Ġst e
Ġdis p
Ġrecommend ations
s ing
Ġt as
Ġe ver
os p
Ġprocure ment
Ġc iv
ve m
ol ution
se qu
Ġso ft
Ġprof ession
Ġrelations hip
Ġe vid
eu ro
t ake
Ġb ring
ve red
Ġs ti
Ġh ad
Ġqu an
Ġfund s
Ġobjec tive
Ġidentif ied
Ġd ra
vi ous
Ġpro ble
Ġst aff
Ġaim s
Ġen able
Ġdecision s
Ġadop t
Ġter r
w w
Ġj our
Ġdom estic
vem ber
m an
Ġc ases
Ġd u
Ġinf lu
Ġacce ler
t ee
Ġcommit tee
Ġadminist rative
Ġtransp are
Ġsin ce
Ġun ited
Ġdes k
Ġanal y
Ġpartnership s
Ġprog ress
com p
Ġf ree
at ure
Ġam ounts
Ġresili ent
ak ers
Ġup take
Ġdiffere n
Ġenterpris e
Ġcontin ue
0 7
c er
m ar
Ġaf ric
Ġcent re
Ġin put
Ġe as
Ġch ain
g en
Ġ ital
Ġbe low
erv ation
Ġmar ch
Ġ4 0
Ġinclud ed
Ġev ents
Ġposi tive
Ġappl ied
clud ing
Ġs dg
Ġc ro
Ġr ate
ok ing
Ġsuccess ful
u ary
Ġa ud
Ġcomp ar
Ġfarm ing
is tics
Ġcon ce
Ġprop ortion
re am
Ġf rench
Ġb ul
Ġsc p
Ġadv anced
Ġenforce ment
Ġavail ability
Ġimport ance
Ġc are
Ġf our
emp or
Ġtrend s
i x
Ġtarget ed
Ġinstru ments
Ġp ower
Ġrequ ires
com m
Ġbec ome
Ġpre vious
Ġam ount
Ġlim it
Ġoce an
Ġf ran
Ġb el
Ġco h
Ġdep loy
Ġpur su
Ġlike ly
re ct
Ġlangu age
Ġminim um
v es
pp ing
Ġex tern
Ġdis cus
Ġav oid
Ġprinci p
ffici ent
Ġpoli tical
u ch
Ġj une
Ġnot e
Ġreduc ing
Ġjan uary
end it
Ġcompan y
Ġve hic
Ġsti ll
in s
Ġg as
if ied
Ġexp endit
Ġrec ent
Ġcommun ic
Ġassoci ated
Ġresour ce
Ġev en
th ers
ell ig
9 9
g est
k ing
Ġeu s
Ġeffici ent
Ġabo ve
Ġinvol ve
Ġme an
Ġjo b
Ġrem ain
sh op
Ġextern al
Ġh y
um e
Ġj ust
Ġpublic ations
Ġfund ed
Ġla unch
Ġn ut
Ġad equ
Ġexce ptions
Ġenh ance
Ġpurp ose
Ġplas tic
i er
Ġno vember
Ġbe y
Ġ6 0
cl u
Ġtre at
Ġclust er
Ġciv il
u ps
Ġ q
Ġp il
Ġf ace
Ġor s
Ġgatekee per
Ġevid ence
p ers
ect ing
Ġvi a
Ġbec a
Ġelect ronic
Ġbey ond
Ġo thers
ight ed
Ġundert aking
Ġexch ange
Ġa bility
Ġd ed
le ments
Ġprovision s
Ġcolle ctive
Ġpar ties
Ġcomp lement
Ġmar ine
Ġelect ric
Ġmitig ation
Ġpassen ger
Ġint ellig
Ġhe at
Ġimplement ed
olo gical
employ ed
Ġen ti
hol der
Ġful ly
Ġadequ ate
Ġco ast
Ġ3 5
Ġcre ation
Ġgran t
Ġarriv als
s w
Ġr ight
Ġbo ost
Ġset ting
Ġbul g
th e
Ġpre p
Ġimpro ved
Ġguid ance
le g
Ġnot ably
r us
Ġa pr
Ġb ack
Ġeff ect
Ġintegr ation
Ġcustom ers
Ġcoord ination
o v
Ġ er
Ġf low
lo ad
Ġconsult ation
h e
Ġinst ance
Ġprincip les
it es
Ġprev ent
w ays
Ġw ww
employ ment
Ġdec l
Ġgre ater
Ġrespon se
Ġvulner ability
Ġelig ibility
h ouse
........ ....
Ġexperi ences
ur ance
Ġsub stan
Ġcar ri
Ġdefini tion
Ġcri tical
qu es
g or
Ġsumm ary
Ġever y
) ;
Ġa b
ac c
Ġorgan isation
Ġincen tives
r c
Ġd im
Ġwork shop
Ġun wto
Ġse lected
Ġfin d
Ġcompeti tiveness
Ġout come
o j
p an
Ġre v
Ġconc er
Ġacce pt
in cluding
no ver
Ġfe ed
n ed
Ġa ble
Ġh and
Ġne ut
Ġam bi
Ġreport ed
Ġeval u
go ing
Ġbeca use
Ġb ur
Ġsub ject
Ġtri ps
Ġsoft ware
m ore
ic k
Ġ3 8
Ġfo und
Ġaddress ing
Ġagree ments
Ġhousehold s
Ġsp ain
Ġdiff ic
Ġscore board
m ap
Ġt empor
or g
Ġcomm er
os es
Ġag end
Ġpre d
Ġfir ms
og n
Ġpro per
Ġgo als
Ġtur nover
Ġout put
Ġadv is
Ġge ograph
Ġwho le
Ġsubm ission
Ġded ic
uris m
eth eless
Ġnon etheless
Ġexpendit ure
Ġrec ogn
er ic
Ġoff icial
Ġt ack
Ġrecommend ation
Ġrestric tions
Ġharm on
Ġfin ding
Ġmarket ing
% -
d en
y n
ar bon
Ġestim ated
Ġmater ial
clud e
Ġintermedi ation
Ġcoast al
s es
si a
Ġsh ip
Ġne g
Ġagree ment
o ther
Ġso il
Ġcont ain
Ġsci entif
Ġcompeti tion
9 8
Ġf lo
Ġcurrent ly
Ġfran ce
Ġpursu ant
Ġl u
ri end
Ġse pt
Ġinter ac
Ġrel ation
Ġgap s
Ġapr il
p ro
Ġn et
Ġoblig ation
Ġcontin u
Ġloss es
osp ital
1 1
Ġdec re
Ġorgan ic
Ġdriv ers
Ġagend a
Ġa ug
Ġp p
ut es
Ġfarm ers
Ġclo se
Ġcompet ence
o tion
Ġt e
al og
Ġ3 2
iv ed
Ġcalc ul
Ġp ress
Ġfor ms
iti me
Ġdem oc
Ġstatis tical
Ġpil ot
a f
ti me
Ġl in
Ġmar itime
Ġgreen house
Ġexper ts
Ġtopic s
Ġcollabor ation
Ġemer g
euro pe
Ġdedic ated
as h
Ġu k
rough t
ari an
Ġstake holder
Ġsal es
Ġjour n
Ġdi v
Ġ5 1
Ġall iance
Ġhigh est
Ġoff ice
Ġra il
c s
ot e
Ġqu al
Ġport ug
Ġliv ing
or ation
Ġm uch
Ġde v
Ġprim ary
b y
Ġh ub
Ġfurther more
Ġvol ume
Ġscientif ic
) :
Ġth us
an cing
Ġspec ies
Ġins urance
Ġroad map
Ġentrepreneurs hip
act or
Ġha ving
Ġhe ating
Ġind ex
Ġguarant ee
r ations
Ġde b
Ġdep art
Ġmonth s
Ġsept ember
2 0
l ess
ap ter
Ġfo ot
Ġy oun
Ġcontrib utions
Ġcent ral
Ġvis it
Ġassoci ations
Ġpurp oses
g reg
Ġa id
il d
ol ing
Ġcircular ity
Ġdown load
Ġlegisl ative
Ġconn ec
Ġcoord in
s ed
Ġcomp le
Ġcl ass
Ġrequest ing
Ġassist ance
Ġbod ies
Ġs ite
at ures
Ġcomp on
Ġsit uation
Ġl ast
ri a
Ġag ency
Ġcre ative
Ġoper ating
Ġregul ations
Ġorganiz ation
cer tain
s kill
Ġd m
Ġh ospital
Ġmulti ple
Ġse ason
Ġmo ve
bo und
Ġpo st
Ġequ ip
Ġchallen ge
Ġdiv ersity
Ġe lements
Ġto ur
Ġh ard
Ġon going
Ġ3 6
Ġj us
Ġop tim
Ġlead ers
Ġsy ner
Ġneg ative
0 2
u ally
re ak
Ġcomp lex
Ġscenari os
Ġafric a
Ġintellig ence
es ti
Ġno tice
pec tive
Ġstruct ure
Ġconcern ed
a ve
Ġc e
Ġn ights
un g
Ġch apter
ens ity
Ġgran ts
Ġshow s
Ġintroduc tion
Ġrecycl ing
Ġdim ension
d is
r t
w ide
Ġre in
le vel
for d
Ġpre clude
Ġmod elling
p df
al ities
an ces
Ġw id
Ġal ign
Ġr ates
ast er
al f
Ġ4 2
Ġcharacter istics
Ġs en
al ing
Ġg ra
Ġco vered
Ġeuro pes
Ġy out
Ġexamp les
p id
Ġm ax
Ġmar t
ys ical
Ġoper ational
a tivity
Ġ ir
ti se
Ġm emb
ith er
Ġal loc
Ġ4 5
ific ation
Ġla id
Ġsignificant ly
Ġret ail
Ġmethodolo gy
Ġdi alog
Ġ3 3
................................ ................................
Ġcre ativity
Ġcertif ication
Ġelectric ity
i ent
Ġc ate
Ġst ep
Ġco ur
ci pl
Ġag encies
Ġexp and
Ġemploy ed
Ġpur ch
Ġdirect ly
pr int
Ġpublish ed
Ġis lands
Ġout side
am ic
Ġhealth y
Ġpresent ed
in ary
Ġp our
Ġw ays
th ough
Ġcomp ut
Ġinv esti
Ġ6 5
Ġi i
Ġmechanis ms
Ġvehic les
clu sion
i b
Ġe d
Ġd ate
Ġm al
Ġ3 4
Ġacc om
Ġass um
Ġfunction ing
Ġenab ling
si gh
Ġsh if
Ġch ina
Ġsupport ed
Ġmore over
Ġresp ective
Ġconcer ning
Ġjourn al
Ġt ex
Ġf lex
Ġprior ities
Ġatt rac
Ġal though
Ġun certain
Ġ7 0
Ġcall s
Ġinflu ence
Ġmax im
1 6
o sition
Ġ [
Ġc z
Ġ3 7
Ġpre c
Ġreport s
d em
r ality
Ġun i
Ġsyner gies
a me
b order
Ġreg ards
Ġ3 9
Ġsp aces
Ġcre ating
Ġfac ility
ten tion
Ġappropriate ly
Ġcollabor ative
Ġencour aged
Ġcons ist
Ġsaf e
riend ly
Ġequip ment
d ig
Ġt end
Ġprinci ple
Ġinvesti g
0 9
Ġpre f
Ġam eric
Ġprom otion
Ġext ent
Ġinvol ved
europe an
j ust
Ġa p
Ġp ap
Ġcon sequ
Ġem ission
Ġtex ti
Ġst or
Ġdi ver
Ġ4 7
Ġinv en
Ġvi rt
c ast
n ot
č Ċ
Ġre ven
Ġ4 1
Ġassess ing
Ġiss ue
Ġinclu sion
Ġprior ity
Ġcustom er
Ġencour age
Ġrespond ents
Ġdeploy ment
t a
Ġs pe
ar ity
Ġschem e
Ġtas k
is ts
it ation
Ġcomp ly
port s
ep end
Ġyoun g
5 0
g overn
Ġacc ounts
iz ed
Ġind epend
Ġ0 3
Ġpriv acy
Ġfost er
Ġext re
Ġresid ents
l ers
Ġt en
on s
Ġp t
Ġun iv
Ġpr ices
Ġfe b
Ġgerman y
Ġital y
dig ital
w h
Ġd yn
Ġpro s
Ġl iter
Ġeng agement
Ġexplo re
Ġhy d
i um
p orate
Ġco oling
Ġus es
Ġpo sition
Ġev ent
Ġph ysical
Ġlangu ages
i ques
Ġt ues
ab it
Ġtues day
o und
Ġp act
Ġal ong
Ġartic les
Ġreduc ed
Ġadminist rations
Ġgatekee pers
Ġbur den
ar ia
Ġassess ments
Ġachie ved
Ġwebs ites
Ġmob ile
Ġprofession al
Ġsubstan ti
Ġlin ks
Ġf it
Ġn ow
Ġan other
Ġrespon ses
Ġfe atures
gener al
be ing
Ġtranspare n
Ġambi tion
g ers
Ġequ al
Ġconce pt
Ġf ew
si tions
Ġcon form
Ġra pid
Ġdesc ri
reg ion
1 5
Ġ il
Ġh ous
ate ly
Ġdat ab
Ġ4 6
Ġframework s
Ġtransparen cy
Ġa i
el ine
Ġso ut
Ġinter oper
Ġtechnolo gical
i as
Ġcons ervation
bo ok
Ġro b
Ġbl ue
Ġdialog ue
Ġaccom pan
v is
ti s
is tic
Ġr ank
Ġspec if
Ġfi ve
Ġcompeti tive
Ġcro ati
1 7
f in
an ia
Ġm id
ore s
Ġwe b
Ġequ ity
Ġachie ving
Ġstruct ural
Ġscenari o
_ _
Ġm ight
Ġun employment
Ġexper tise
Ġterr itor
Ġd en
Ġtra dition
Ġman ner
Ġmemb ers
d es
Ġre vision
Ġbas ic
Ġproced ures
Ġelig ible
Ġhous ing
a id
Ġsu g
Ġsp ent
Ġse a
Ġsupport s
Ġproduc ers
Ġha z
Ġcontrib uting
Ġlead ing
Ġtr ust
Ġca us
Ġvirt ual
Ġb order
Ġreg ist
Ġdevelop ments
Ġplan et
Ġfund a
ord ers
Ġshare d
Ġdyn amic
d own
n a
Ġt ext
Ġ4 9
Ġoff ers
Ġparticip ating
Ġclo ud
Ġpay ment
Ġdetail s
Ġmanufact ure
Ġcommer cial
Ġfor ce
ff ic
ak es
Ġlo g
Ġmain tain
Ġparticip ate
Ġ rom
res p
Ġsupp li
sib ilities
Ġsit u
Ġnut ri
1 4
Ġa sia
es ts
an ish
il es
Ġv ision
Ġprop ose
Ġaf ford
Ġinstru ment
Ġtreat ment
Ġd er
Ġ4 4
Ġoff ered
Ġemer ging
1 8
s dg
et er
Ġan sw
Ġat tention
Ġestablish ing
Ġproble ms
Ġfoot print
Ġm ac
ar s
Ġus age
Ġ8 0
Ġbenef ici
Ġear ly
Ġper ce
Ġprot ect
Ġfig ures
Ġeng age
Ġb orders
as sif
Ġ4 3
Ġchan ging
Ġoper ation
Ġcr u
Ġcompet ences
Ġcommunic ations
Ġh ere
Ġg en
Ġref lect
Ġbal ance
Ġhyd ro
Ġrob ust
Ġint ensive
Ġsp ati
Ġy et
Ġtim es
Ġhot el
Ġempower ment
Ġtempor ary
i o
or ti
Ġcarri ed
s p
Ġd ur
it ter
st ream
Ġu til
Ġsu it
Ġad just
vid e
Ġpr ice
ven tions
Ġpat tern
Ġslo ven
Ġanaly se
Ġbulg aria
Ġe ither
ec d
Ġr ather
os ed
ran ge
Ġfore cast
Ġport al
Ġfinding s
er ies
Ġm is
Ġfor k
Ġex am
Ġde leg
Ġec o
Ġ9 0
Ġyout h
Ġinven tions
Ġin equ
Ġm ig
ar ter
Ġwork force
Ġtran sitions
Ġ5 2
Ġtrans f
Ġval id
Ġrem ote
eren ces
Ġhospital ity
o ff
Ġo c
Ġg h
Ġac ts
Ġres olution
Ġj rc
erm ost
Ġsurve ill
Ġconsider ing
Ġinst all
Ġdetail ed
Ġ "
Ġg et
Ġman aged
Ġadop tion
Ġlat est
Ġsubm it
vers e
Ġdeb t
Ġs k
Ġe dition
Ġ4 8
1 3
a pe
r im
Ġt em
on es
al ent
Ġst age
Ġinc or
ore d
Ġ5 3
Ġcons orti
Ġuse ful
Ġsw ed
e ur
o ol
Ġin sigh
Ġf ar
ar ily
ra ft
Ġag greg
Ġout ermost
Ġ7 5
Ġstrengthen ing
Ġques tion
Ġoc cu
r act
Ġor ig
Ġdire c
Ġfunda mental
b ers
f ace
m ing
Ġf all
Ġtra ffic
Ġob tain
Ġeffec tiveness
tif icial
Ġmajor ity
Ġflow s
2 5
Ġp df
Ġm and
ut ed
Ġar range
Ġprocess ing
Ġopportun ity
ru ary
Ġsurveill ance
r s
Ġa bs
Ġbe h
Ġprovid er
Ġrec ord
Ġrel i
Ġmod ern
Ġcol lect
Ġgrou nd
Ġestablish ments
Ġtax ation
Ġfl ag
Ġgeograph ical
g ment
v al
Ġa ward
Ġfor ward
Ġch ec
Ġgrow ing
Ġrest oration
gener ation
Ġconduc t
Ġneut rality
Ġaug ust
s em
Ġ %
Ġeconom ies
com ing
ee p
Ġmanufact uring
Ġflo od
Ġtradition al
2 4
m akers
Ġar tificial
emic als
Ġinstit ution
Ġquan tit
Ġfeb ruary
m ost
or ing
Ġh u
ul ate
ort h
os s
Ġindic ator
Ġgovern ments
comm er
Ġvisit ors
Ġleaders hip
a res
s ect
Ġ --
Ġh ost
Ġproduc ed
Ġintern et
Ġparticip ants
Ġindi rect
Ġharmon ised
Ġd rought
Ġn ations
Ġh ung
Ġst ock
Ġco p
Ġ5 4
Ġ5 6
Ġtrans m
Ġcan not
ne ut
Ġaff ect
Ġmechanis m
Ġreason s
Ġorig in
Ġd ri
Ġh alf
ub lic
Ġrel ating
Ġmod es
Ġtravel lers
tif ied
Ġcambod ia
en ced
Ġh our
Ġint ensity
Ġinter ventions
Ġcre ated
to urism
Ġmin ist
bi o
Ġsit es
Ġinvolve ment
f ood
s k
Ġs tim
Ġinter view
Ġsector al
Ġbas eline
ether lands
Ġautom o
Ġcambod ias
Ġfre qu
Ġconnec tivity
r acy
Ġp ill
Ġl ight
Ġpar ti
Ġset s
Ġsoci et
Ġsim pl
Ġques tions
i tion
Ġc apt
tion ed
Ġm ap
Ġpl ant
Ġcomp l
if y
Ġass ets
Ġcy cle
Ġhot els
Ġupd ate
Ġcz ech
e k
n ational
an ian
Ġm ission
ain t
Ġch emicals
Ġdis sem
Ġimprove ment
Ġlong er
Ġvol unt
Ġbroad er
Ġdescri ption
Ġsuppli ers
Ġcru cial
Ġt sa
Ġth re
es ion
Ġd am
Ġm issions
Ġre use
Ġauthor ity
olo gy
Ġdra w
mar k
er c
ot t
Ġact ual
Ġdirect orate
Ġlaunch ed
Ġgh g
Ġac ad
Ġreg ular
Ġk eep
Ġman ag
Ġpublic ation
Ġover view
Ġsol id
Ġcontr acts
l ines
re te
it ory
Ġcon st
Ġ5 7
Ġpre par
Ġautom ated
sel s
Ġhub s
2 1
m is
Ġp an
Ġf r
ec e
ve re
Ġg ive
Ġon ce
Ġpre vention
Ġbo oking
Ġenh anced
Ġcho ices
Ġdecl ar
Ġcompon ents
Ġmac ro
Ġsociet al
in ion
on a
is on
Ġre pe
Ġcoh esion
Ġdiffic ult
Ġpap er
commer ce
Ġp le
Ġf er
Ġn ame
Ġpar ts
um p
Ġv acc
ad apt
Ġop inion
Ġcar ry
Ġdirec tives
f i
Ġn l
Ġh ist
our g
v ance
Ġa z
Ġo cc
Ġwork er
Ġse par
Ġtra ding
Ġsa mp
Ġoper ations
Ġassoci ation
Ġlat vi
Ġwid er
Ġn etherlands
ig ure
Ġch ild
Ġthrough out
Ġtr ack
Ġbehaviour al
Ġpattern s
f und
at a
Ġ( %)
Ġconc rete
Ġadv ice
Ġmob il
Ġhighl ighted
Ġdifferen ces
Ġmean ing
k now
s hip
Ġr g
Ġdis pl
Ġhigh ly
Ġrele vance
Ġrem ains
ink ing
Ġinfrastruct ures
Ġsurve ys
Ġcor porate
Ġidentify ing
rop a
Ġinsigh ts
b n
g ed
v ak
Ġv o
Ġsp read
Ġgener ated
Ġem b
Ġty p
Ġperform ing
Ġfe as
Ġcompet ent
par agraph
Ġemerg ency
Ġap pe
Ġconsorti um
a i
d om
f igure
Ġcommission s
Ġ5 8
Ġag ri
eu ropa
Ġsub paragraph
Ġcol lected
Ġpers pective
Ġunion s
Ġexper t
Ġdef ence
Ġintegr ate
ru pt
Ġclust ers
Ġlist ed
l if
Ġsch ool
Ġindividu als
Ġpassen gers
ith u
Ġchan n
tif ication
Ġfore ign
Ġobserv ation
Ġoutput s
Ġdiver sif
Ġconform ity
Ġspati al
f ound
g u
t es
Ġdis ability
Ġmain stream
Ġslo vak
Ġprec ari
Ġre nt
res sion
Ġam ending
Ġbo ard
Ġthem atic
Ġpack aging
Ġacceler ate
Ġuniv ersity
Ġ ill
Ġa qu
Ġa irc
Ġp ast
Ġe e
it ing
Ġcon vention
Ġv an
ad line
de p
Ġow ners
Ġfish eries
x emb
ra tic
Ġal most
ap an
Ġdec line
Ġdec arbon
Ġqu ick
Ġro bo
Ġfore stry
Ġenh ancing
Ġhol id
Ġenti re
Ġenti ties
Ġameric a
Ġinteroper ability
. )
0 6
p ol
t on
Ġf a
is es
Ġl ithu
em ical
Ġad ver
Ġpar am
Ġar t
Ġinnov ations
ha us
Ġvis itor
loc k
Ġproble m
Ġtack le
9 2
i ous
Ġ vide
Ġm akers
ur n
Ġco de
Ġan im
id es
Ġ6 1
Ġgener ally
Ġwe ak
Ġest on
Ġobserv ed
Ġear th
Ġuncertain ty
Ġstor age
Ġextre me
Ġflag ship
i ra
Ġb ase
Ġw at
em s
Ġde ep
Ġun it
Ġcl assif
Ġar ch
Ġgre at
Ġenvironment ally
Ġidentif ication
Ġlar gest
Ġext ended
Ġrepresent atives
Ġpay ments
Ġresult ing
Ġser ies
Ġdemonstr ate
Ġprecari ous
9 7
en ing
Ġo j
Ġh abit
pp ed
Ġun f
Ġcl im
Ġman age
Ġoper ator
Ġrep l
Ġi ii
Ġeng ine
av our
Ġrelative ly
Ġshif t
xemb ourg
9 6
p o
re ed
Ġc amp
Ġcan ary
unc ed
Ġundertaking s
a im
b enef
n ic
s pec
Ġo ecd
le t
Ġl t
Ġv hic
gra d
Ġgre ece
Ġdis e
Ġsc al
Ġloc ation
Ġfac ts
Ġra ising
bi odiv
Ġcollabor ate
Ġcho ice
Ġdeleg ated
e ff
Ġw ind
Ġh ar
Ġr r
tit ud
Ġrespon sibility
Ġdesign ed
Ġtechn iques
2 8
j o
Ġf am
Ġb at
Ġre form
Ġan no
Ġcomp uting
Ġj apan
Ġ6 4
Ġris e
Ġprac tical
Ġincreasing ly
Ġlu xembourg
Ġairc raft
c re
er ation
Ġd ans
ate ll
ir ing
Ġimp lic
Ġ5 9
Ġfollow ed
Ġgu ide
Ġgo al
Ġra w
Ġprof ici
Ġrepresent ative
Ġcomb ination
Ġarrange ments
p or
Ġs atell
Ġe th
Ġb ra
Ġw ave
Ġcon clusion
Ġac qu
onom y
Ġse x
Ġag ed
Ġbuil t
Ġadv ance
Ġeffective ly
Ġplas tics
Ġcertif ic
Ġcomput er
Ġdatab ase
b ur
Ġ ....
Ġt ail
Ġd g
Ġsu fficient
Ġse lect
Ġexp ect
Ġup on
Ġpath ways
Ġportug al
Ġvhic ules
3 0
g ium
Ġp en
om es
Ġst ress
Ġeuro p
Ġec c
res hold
Ġ6 2
Ġstart ing
Ġfacilit ating
Ġadvis ory
Ġdemoc ratic
cipl inary
Ġspecif ically
oss il
Ġpill ar
p d
Ġb row
Ġre ality
Ġpro x
ac ed
Ġex erc
Ġper m
Ġlo ans
Ġmain ly
Ġexce ption
Ġconn ected
Ġdiscus sion
gor ith
Ġcate gor
Ġindepend ent
Ġliter ature
Ġsitu ations
Ġtransf er
% .
b ack
h ow
t m
Ġth reshold
Ġs l
Ġfor um
Ġon es
Ġal gorith
Ġun til
Ġgreen comp
Ġbo ok
Ġequ iv
Ġsw d
Ġconf id
Ġdeliver y
Ġcomple te
Ġoccu p
Ġple ase
spec ific
2 3
c tions
g re
Ġc c
ac tion
Ġl ed
ly ing
Ġne ar
Ġ6 3
Ġqu arter
Ġprot ected
Ġfact or
resp on
Ġtem per
Ġdeclar ation
t arget
Ġc rop
Ġf ossil
Ġec ological
Ġlo oking
Ġsystem atic
Ġsub sid
Ġ0 1
Ġvari ables
Ġoffer ing
Ġmen tioned
Ġexpl ain
Ġtest ing
g round
p ite
Ġs ens
ec ts
Ġpl us
Ġag ro
Ġlo an
Ġam b
Ġgener ate
Ġassess ed
Ġobjec tif
Ġful f
Ġtri p
sc ale
Ġmove ment
Ġassum ptions
Ġflex ibility
Ġspe ed
Ġsout h
Ġs low
Ġdes pite
Ġent ry
Ġsy n
Ġrece ived
Ġdepart ment
Ġaz ores
n es
Ġthe n
Ġc at
Ġd ay
Ġl ump
com pl
Ġcirc um
Ġconduc ted
skill ing
% ).
4 0
Ġ ria
Ġpro duce
lo u
lo gical
Ġsu re
Ġinvest eu
Ġanalys es
Ġfac ilities
Ġimprove ments
Ġstron ger
Ġsw it
Ġmitig ate
Ġconsequ ences
Ġhydro gen
Ġinequ alities
a z
Ġs i
Ġs an
Ġm y
Ġad vant
Ġfin ally
Ġexp ress
Ġdec ent
Ġconcern s
Ġstrong ly
Ġste ps
Ġprep ared
neut ral
Ġsatell ite
d s
m o
r up
z er
Ġsh own
Ġr ating
Ġaim ed
Ġcapac ities
Ġrenew ables
govern ance
b g
c irc
f r
p riv
Ġ ............
en gen
Ġex ec
Ġwill ing
Ġk ing
Ġplan ned
Ġmul tim
Ġallow s
Ġtranspare nt
Ġdecre ase
Ġquantit ative
Ġequiv alent
re t
at h
Ġb reak
Ġm ix
Ġw r
ac ific
Ġdat as
Ġdig iti
Ġinvest ors
Ġeduc ational
Ġdel ay
Ġmeasure ment
Ġtas ks
Ġback ground
Ġsamp le
Ġimplic ations
l s
Ġw elf
Ġl ay
eg u
Ġperform ed
Ġpos sibility
Ġlear n
Ġpres ents
Ġmethodolo gies
con t
Ġwelf are
g in
Ġ ic
Ġcon ver
Ġout bound
Ġlo ok
Ġsystem ic
Ġsch engen
Ġsee k
dis ciplinary
Ġsubstanti al
Ġterritor ial
Ġhaz ard
Ġafford able
Ġansw ers
Ġinstitution al
Ġcapt ure
% ),
a ur
Ġp aid
Ġd ut
Ġd one
it a
Ġwe ighted
Ġbo und
Ġma pping
Ġcommit ments
Ġconf erence
Ġplay ing
Ġrun ion
rus sels
sect or
d le
Ġto day
Ġm il
Ġg l
Ġv oc
Ġun e
Ġ9 4
Ġrequire ment
Ġlar ger
Ġcent res
Ġdeterm ine
Ġdev ices
Ġalign ment
Ġmart ini
Ġreven ues
priv ate
Ġmultim od
3 1
Ġ ........
Ġe ast
ow ered
Ġinform ed
Ġam end
Ġsub sequ
Ġref ers
Ġprojec tions
Ġra ti
Ġapply ing
Ġland sc
Ġeas ily
Ġmig ration
6 4
c arbon
Ġt ic
on t
Ġb g
Ġb en
Ġn f
Ġst ream
Ġco verage
un ic
Ġv at
Ġdi d
Ġdis aster
Ġref er
Ġfair ness
Ġmeet ing
Ġrece ive
Ġpath way
Ġeas y
Ġevalu ate
Ġdissem ination
adapt ed
Ġking dom
b a
h u
t ers
Ġb ott
om s
Ġpl aces
Ġ6 6
Ġ9 5
ater al
Ġapplic ants
Ġsaf egu
Ġcomb ined
Ġupd ated
Ġcompar ison
Ġvolunt ary
Ġbat ter
ce ed
Ġco generation
enti ally
ail y
Ġpart ner
Ġestablish ment
Ġtw in
Ġcor ona
Ġcommit ment
Ġconn ect
Ġobserv ations
Ġintroduc ed
Ġterr itory
Ġhour s
Ġcategor ies
b reak
Ġn g
ul ties
iz ation
Ġincre ases
Ġsec ure
c a
c k
ro duce
Ġb russels
et ers
vi rus
qu id
ech nolo
Ġdis rup
tif y
Ġworld wide
Ġsci ences
ian a
Ġconsider ation
Ġclo s
Ġmade ira
Ġaltern atives
Ġcho ose
Ġhighl ight
Ġbel gium
Ġdiffic ulties
Ġrank ing
Ġnutri tion
7 6
b re
e ties
Ġd aily
Ġacc ur
Ġproduc tivity
Ġdec ade
Ġ6 9
Ġpolicy makers
Ġev olution
Ġver sion
Ġinstit ute
Ġship s
Ġrein for
Ġrespective ly
Ġdispl ay
Ġvide o
Ġrr f
Ġmartini que
7 2
a w
h r
Ġc ance
Ġf riendly
is ter
Ġen tit
Ġbe verage
Ġwh ose
Ġinter pre
Ġfra gment
Ġhelp ing
Ġdist ric
Ġview s
Ġcontract ual
6 2
c al
j ud
r ight
ul ations
Ġst ay
ot te
Ġwork s
Ġresearch ers
Ġclear ly
Ġfost ering
Ġbenefici aries
Ġsuit able
Ġmand atory
circ bio
2 9
3 2
p ay
Ġ ur
Ġ ri
Ġs aint
Ġp acific
Ġf avour
Ġd on
it t
Ġat titud
Ġrec ital
Ġtexti les
Ġsug gest
Ġbeh ind
Ġnf bs
a ign
c are
Ġd r
si di
Ġtrans l
Ġout break
Ġpre jud
her n
Ġtw itter
Ġallow ing
Ġsecond ary
Ġdifferen ce
Ġface book
Ġcalcul ated
Ġsen si
Ġaccompan ying
Ġcamp aign
h ood
p ts
em ission
Ġpar is
Ġne ver
Ġcomp ens
Ġsp anish
Ġsub sidi
Ġfocus ing
Ġprof ile
Ġfl ights
con n
stan ces
Ġfer til
9 5
f riendly
in ate
Ġd ays
st ac
Ġde g
Ġsh ares
Ġmeas uring
Ġloc k
Ġmay otte
Ġid e
Ġconc lud
Ġsmall er
Ġfunc tions
Ġrest aur
Ġret urn
Ġbulg arian
Ġcontinu ed
Ġcoordin ated
lif e
Ġcircum stances
5 5
h as
Ġs em
Ġb ill
Ġco un
Ġag ents
Ġop tion
Ġform al
Ġposi tions
sel f
Ġworkshop s
Ġportug ues
Ġtend ers
Ġchec k
Ġrepe aling
Ġhist or
Ġmil est
Ġb au
Ġbi om
Ġhe ad
Ġgu ade
Ġaccount ing
su ch
Ġdepend ing
Ġbod y
Ġcop y
Ġarch it
lou pe
Ġdut ch
Ġportugues e
3 5
Ġf ed
Ġob stac
Ġgu iana
Ġsol ution
Ġrep ublic
Ġins u
Ġtax es
Ġcontrol s
Ġ................ ........
Ġ................ ............
Ġbl ind
Ġcover ing
Ġital ian
Ġsdg s
Ġtexti le
Ġcroati a
Ġdur ation
Ġcorona virus
Ġprejud ice
s ation
u le
in ated
Ġd a
un wto
Ġim medi
Ġenviron ments
Ġ6 8
Ġeconomic s
Ġfac ed
og en
rop ortion
Ġpres ence
Ġdefini tions
Ġwide ly
Ġdisp roportion
Ġadvis ors
Ġjus tice
Ġprepar ation
Ġanno unced
Ġtemper ature
Ġdeg ree
0 5
n l
t w
u tive
Ġa er
om ing
Ġcont ra
Ġcl aim
Ġcons tit
Ġinform al
Ġbo x
Ġauth ors
Ġintegr ating
Ġhighl ights
Ġfish ing
Ġnut s
Ġcour t
Ġminist ry
Ġocc ur
% ,
e ec
o ts
Ġm ach
est ock
ere nt
Ġ9 3
Ġsub s
Ġval u
Ġcre d
Ġoper ate
Ġext ensive
Ġcor rect
Ġstandard isation
Ġdisp ute
Ġcaus ed
Ġparam eters
Ġbau haus
2 2
y ear
Ġf ail
et ary
Ġex clud
Ġv ary
Ġint roduce
Ġnetwork ing
Ġexperi enced
Ġdeliver ing
Ġsumm er
Ġliv estock
Ġnor m
Ġdynamic s
Ġdam age
Ġanim al
Ġamb iti
Ġmultimod al
Ġdistric t
v ency
Ġc ut
Ġm akes
Ġre d
Ġpro ceed
Ġeuro found
ch ar
Ġpr ic
Ġpart y
Ġbi ot
ire d
Ġ7 1
Ġdef ine
Ġconc ent
Ġprof it
Ġstrength s
Ġopen ing
Ġau x
Ġcro ps
Ġconce pts
Ġpred ic
Ġmaxim um
compl iance
Ġguade loupe
2 6
a ult
k ed
l ined
n el
in ding
Ġm ad
Ġg ain
Ġcont ex
rom eter
Ġint en
Ġ9 8
Ġjo in
Ġfac ing
Ġli ve
Ġestim ate
Ġexce pt
Ġdra ft
Ġprep are
Ġpred ict
Ġpros pects
Ġvoc ational
i ents
s ch
t our
w e
ers e
igh b
Ġj ud
Ġpr int
Ġgo ing
Ġph ase
Ġstrengthen ed
Ġmat ch
Ġnews let
Ġfre ight
Ġproper ty
Ġmid dle
Ġstim ulate
Ġchild ren
Ġtic ket
e fficient
m t
v a
Ġ iv
Ġf em
is m
an e
Ġd rop
ec urity
Ġad ap
Ġne ighb
Ġdi verse
Ġ8 7
Ġli quid
Ġaff ecting
Ġver ification
ograph ic
Ġreach ing
Ġfeed back
Ġte le
Ġunf air
tm l
d ate
l t
m ul
w ater
Ġs ide
nd c
Ġh r
lo ok
ul a
ig ation
Ġl ater
Ġen vis
Ġman aging
Ġcontrib utes
Ġspec ified
cl imate
Ġver if
Ġdemoc racy
Ġdri ve
Ġchann els
Ġhabit ats
Ġprofici ency
Ġben ch
Ġcred it
Ġambiti ous
4 4
d a
s l
Ġ ia
Ġa ust
Ġp as
Ġm t
Ġsh e
Ġsp ending
Ġev ol
Ġglob ally
pr us
Ġhard ware
Ġwat ers
Ġconfid ence
8 7
f u
g ory
Ġ ire
Ġf ast
Ġm ent
ri x
Ġch emical
Ġinv ited
Ġ9 9
Ġ7 2
Ġ8 1
Ġrep air
Ġbio logical
Ġread y
Ġrecogn ised
Ġattrac tions
Ġincor por
4 6
d ed
l ink
w ise
Ġt ables
Ġf ire
Ġn av
ac tions
Ġemp has
Ġ7 4
Ġro les
Ġ8 2
Ġ8 5
Ġprot ecting
Ġiniti al
Ġins p
Ġvari ety
Ġtransform ative
su stain
Ġfield s
Ġsimilar ly
Ġneut ral
Ġmart in
Ġil o
Ġden mark
Ġfeas ibility
Ġrati o
Ġlandsc ape
Ġcontex ts
0 3
8 8
Ġth inking
Ġb lock
as m
ol l
Ġsupp l
Ġar ts
sib ly
Ġdo i
Ġ7 9
Ġhorizon tal
Ġrele ase
Ġloc ated
Ġadapt ed
Ġpot entially
Ġfocus ed
Ġrepresent ation
Ġpoll ut
Ġcitiz en
Ġundert aken
Ġinterac tion
Ġtransm ission
4 5
i k
t ra
Ġp estic
Ġm ut
Ġn t
Ġnot ed
Ġout look
Ġ7 8
Ġhealth care
Ġext end
Ġrem o
Ġperi ods
Ġencour aging
ii i
Ġput ting
sel ves
Ġexpl an
Ġaud i
Ġtack ling
Ġrein force
Ġname ly
Ġtyp ically
eff ective
Ġtail ored
Ġpen al
Ġsafegu ard
Ġbiom ass
5 8
6 5
u c
Ġ %)
Ġc ed
Ġinter face
Ġexp os
Ġorgan ised
Ġtur n
Ġinterest s
Ġcalc ulation
Ġprofession als
Ġanaly tics
Ġinput s
Ġpress ure
Ġmal ta
Ġmaxim ise
Ġreven ue
Ġparti ally
Ġconst ra
Ġadver ti
Ġfulf il
Ġadap tive
Ġaust ria
or ne
ron t
Ġother wise
ag n
Ġ8 6
Ġindic ate
Ġperson nel
Ġthem selves
Ġamong st
Ġstart ups
Ġcris es
Ġmat rix
Ġdisc lo
Ġrelationship s
Ġinterac tive
Ġconsist ent
Ġmanag ers
Ġcopy right
Ġobstac les
Ġneighb our
j rc
v est
x ic
Ġb an
Ġb inding
il st
Ġpro b
Ġcom e
Ġwh y
Ġcl ar
str al
Ġdis cipl
Ġqu e
Ġthere by
Ġra ise
Ġexce ed
Ġchar ge
Ġatt ract
ffici ently
Ġresid ential
Ġempower ing
Ġdm os
Ġgra du
Ġcroati an
Ġconclusion s
Ġire land
Ġadverti sing
7 3
e ed
l im
Ġ ;
Ġin h
Ġm ot
Ġ( -
tic le
Ġim age
Ġpol and
Ġsocial ly
Ġ6 7
Ġ7 6
Ġ7 7
Ġins ol
Ġsoci eties
Ġaim ing
Ġtr ig
ru ption
Ġdriv en
Ġ................ ....
Ġregist ered
Ġproceed ings
s m
Ġ round
st rial
Ġcon struct
Ġsu ff
Ġl v
ri e
Ġv ers
Ġinter vention
Ġemp owered
Ġup skilling
Ġsa tis
ord s
Ġwhere as
Ġdef ault
Ġhel d
ness es
Ġair ports
Ġvis ual
Ġstart ed
Ġinvol ving
Ġplay ers
Ġmat ter
Ġclose ly
Ġpt d
region s
Ġswed en
Ġswed ish
Ġhung ary
Ġautomo tive
Ġthre ats
Ġwilling ness
Ġmad rid
Ġdiscipl ines
Ġsatis f
f ol
i eld
l ong
m ed
s ervic
an n
an cial
om ic
Ġsu p
Ġde adline
ad es
Ġpol ish
Ġinter conn
Ġag reed
Ġper man
Ġgre ek
ef op
Ġnum bers
Ġid enti
Ġfocus es
Ġcy prus
Ġdepend ent
Ġdiscus sed
Ġte am
cs d
Ġqual it
Ġsloven ian
Ġsolid arity
Ġdecarbon isation
Ġrobo tics
nic us
Ġsubsid ies
Ġexpress ed
Ġng os
Ġarchit ect
Ġnewslet ter
4 2
9 3
l v
Ġm s
st age
Ġg ross
Ġen jo
Ġal ways
os ing
Ġcont ents
Ġk ind
Ġno vel
Ġair port
Ġdeterm ined
Ġcate gory
Ġflex ible
Ġgen e
Ġthreshold s
Ġexec utive
mul ti
s et
Ġth ough
Ġp s
Ġg ar
Ġex clusion
Ġr us
Ġpl aced
Ġres kill
Ġcl ients
Ġse en
Ġse vere
Ġup coming
Ġdo ub
Ġ7 3
Ġappro x
Ġext ra
Ġcompon ent
region al
Ġsepar ate
Ġadvant age
Ġcontra st
Ġexpos ure
. ),
6 9
7 5
c an
g ent
m ic
n ish
t ran
Ġn ar
ul ated
os ph
Ġcomp ris
Ġcont est
Ġun its
Ġfin land
Ġunder st
Ġplan ts
Ġ8 9
Ġact ing
Ġpos sibilities
Ġreason able
Ġbank rupt
Ġrev ised
fin ancial
rim ination
Ġacad em
Ġrg lement
c r
j ected
u str
Ġc row
Ġst ages
Ġco vers
Ġres erv
Ġbu y
Ġ8 3
Ġ8 4
Ġover n
Ġspecific ations
Ġlab elling
Ġexperi mental
Ġrem ov
Ġfi x
Ġlear ners
Ġbec oming
Ġatt rib
Ġcomplement ary
des ign
Ġlog istics
Ġill ustr
Ġweak nesses
cre ation
Ġexerc ise
Ġobjectif s
Ġdigiti sation
echnolo gy
Ġattitud es
Ġlock down
Ġced efop
d ata
m en
s on
Ġb rought
Ġm or
Ġre ve
ac ulture
Ġwh ilst
Ġad r
Ġit self
Ġus ually
Ġint ended
Ġrec ently
Ġrequ iring
Ġro ll
ous ly
Ġeng aged
Ġlarge ly
Ġshow ed
av es
Ġtf eu
Ġau stral
Ġvehic le
Ġdecre ased
Ġuni que
Ġpref erences
Ġrom ania
Ġreform s
Ġprox im
Ġpric ing
Ġth erm
Ġs n
le c
et ric
Ġinf ring
ren ce
Ġpos sibly
Ġaccount ed
Ġshort ages
Ġrepresent ed
Ġactive ly
Ġcoordin ate
Ġrom anian
Ġexam ine
Ġunderst ood
6 8
7 0
8 0
b l
b r
d riv
h i
Ġc ari
Ġd anish
Ġb er
ac ing
un ion
Ġsh ap
Ġso und
ad ing
Ġfin nish
Ġdec ide
Ġpre sid
Ġsec ret
oc ks
Ġterm in
Ġeng ines
Ġadv erse
Ġiss u
Ġread iness
Ġbal anced
Ġafric an
Ġpurch asing
Ġclassif ication
Ġbound aries
asm us
Ġmot or
3 8
5 7
g a
t ech
Ġf ight
Ġw ant
Ġn bs
ol id
th is
Ġit ems
Ġunder p
Ġqu i
unc tion
Ġ................................ ................
pris es
air s
Ġstate ment
Ġadminist ration
Ġintermedi aries
Ġtreat y
Ġjus tified
Ġsloven ia
Ġmainstream ing
Ġaqu aculture
Ġeston ian
Ġbrow sing
Ġdisproportion ate
Ġfem ale
Ġinsol vency
Ġqualit ative
3 4
6 3
er ve
om in
Ġco per
Ġex em
Ġsp ring
Ġrec ru
Ġgre ener
ific ations
Ġwe ather
Ġindic ated
Ġreduc tions
Ġcooper ate
Ġconsider ations
Ġmed ical
Ġhol istic
Ġorganiz ations
Ġdisp os
Ġcommunic ate
Ġboost ing
Ġprevent ing
Ġclass es
Ġdimension s
Ġinvestig ation
Ġhung arian
Ġsimpl ified
Ġlatvi an
Ġcoper nicus
g n
i or
m on
s me
ti tion
Ġs il
Ġf is
Ġf il
ent er
erv ing
Ġint el
Ġprogram s
Ġpe ak
Ġparticip atory
Ġform at
Ġlaw s
Ġpat ent
Ġgran ted
Ġconn ection
Ġless ons
Ġliv es
Ġcontract ing
Ġmal tes
__ __
Ġsug ges
unic ip
Ġinsu fficient
Ġmaltes e
6 1
8 3
b u
e ad
f it
an o
ar ning
Ġg rid
Ġcom es
Ġen ables
us ers
um ption
Ġcons olid
Ġy ield
Ġinvest ing
Ġtarget ing
Ġinst ead
Ġel im
Ġtransp osition
Ġser ious
Ġmet ric
Ġbring ing
Ġer asmus
dep end
benef it
Ġproxim ity
0 4
a pp
d ers
s v
Ġt akes
Ġo ld
si ties
Ġsu sp
el le
Ġj uris
bo x
Ġport s
Ġser ve
Ġfre ed
Ġaud it
Ġseason ality
Ġalloc ation
Ġliter acy
Ġterritor ies
Ġbenefici ary
Ġautomo b
Ġlithu anian
Ġwr it
Ġcoun ter
sustain able
Ġenjo y
6 6
9 1
c tic
c ultural
e ffici
g row
l ap
s our
in form
Ġs ix
Ġm unicip
Ġh ence
ne y
Ġrequ ests
am es
Ġemploy ers
Ġ8 8
Ġcondi tion
Ġpe er
Ġmost ly
Ġconsult ations
Ġcy bers
Ġmethodolo gical
Ġinterest ed
Ġprim arily
Ġpros per
off s
respon ding
) (
7 1
Ġ :
Ġa k
er t
Ġd k
st s
Ġpro jected
Ġeuro ba
Ġex port
res pective
Ġchallen ging
Ġlim its
Ġlat ter
Ġspecial isation
Ġdemonstr ation
Ġdemonstr ated
Ġcommer ce
Ġcomplex ity
Ġobtain ed
Ġdise ases
Ġdisrup tions
tw o
4 1
7 4
9 4
b be
e urs
h o
i pping
y m
Ġ *
Ġ ndc
Ġs ay
Ġo l
Ġe ts
Ġcom ing
res ents
Ġtrans actions
Ġ................................ ................................................................
Ġrep resents
ines e
Ġtransform ations
Ġstruct ures
Ġdepend encies
Ġlinked in
Ġcompar able
Ġproportion ate
pers on
Ġrecogn ition
Ġinterac tions
Ġaug ment
Ġholid ays
Ġwind ow
Ġfam ily
Ġexpect ations
Ġnear ly
Ġbatter ies
Ġinterpre t
Ġcampaign s
tran s
Ġcari bbe
Ġcybers ecurity
Ġeuroba rometer
3 6
8 4
p art
w ith
Ġw ood
Ġst ar
Ġex ports
Ġy es
Ġmo tiv
Ġpre m
Ġ9 2
Ġ9 7
Ġorgan ise
lect ual
Ġoff ices
Ġdef ining
Ġhel ps
Ġexist ence
Ġtr l
Ġobserv atory
Ġreach ed
Ġclean er
Ġappl ies
Ġrecycl ed
Ġaud its
Ġelectronic s
Ġhaz ards
Ġreli able
Ġacad emic
Ġrestaur ants
Ġsubs tit
driv en
Ġintel lectual
Ġwrit ten
Ġcaribbe an
4 8
c ess
v o
th eless
ch ain
Ġv s
Ġse ven
Ġk o
pl ace
Ġdesign ing
Ġrem un
Ġsim ple
Ġport fol
Ġpop ular
Ġregard less
Ġautom ation
Ġcoh erent
clu sive
Ġinstall ation
Ġagro ec
Ġnever theless
Ġarchitect ure
Ġunderp in
8 1
8 5
9 0
d ic
d ec
f all
Ġs sh
Ġw in
Ġre ly
Ġg ir
Ġg ather
Ġl an
Ġde grad
Ġr ang
ran ts
Ġun less
Ġrec re
Ġrel ate
Ġhe av
Ġaut onomy
Ġtravel ling
Ġprac tition
Ġmeet ings
Ġlat in
Ġfunction al
Ġrecord ed
Ġreli ability
fu els
Ġsup erv
Ġperman ent
5 4
5 9
7 8
Ġ ie
in come
en ergy
is ure
Ġd ro
Ġb ed
Ġm om
ol s
est y
Ġne go
Ġdi ets
res h
Ġint ra
Ġext ension
Ġvi ol
og le
Ġrecommend ed
skill ed
Ġpurch ase
Ġthre at
Ġpan el
Ġholid ay
Ġbott om
Ġcance ll
Ġbiot echnology
Ġtherm al
Ġinfring e
Ġjuris dic
Ġnego ti
3 7
6 7
er y
Ġc as
Ġc um
Ġto o
Ġb ri
st ock
ol ute
Ġl en
Ġen ough
ver sities
Ġch inese
Ġcont am
ad a
Ġcl ient
ip s
op s
Ġtrans national
Ġover come
Ġfra ud
Ġindic es
Ġrespon sibilities
Ġform ats
Ġcor responding
Ġvis its
Ġrest ore
Ġdocument ation
Ġforest s
Ġexpl oring
Ġremain ing
dem oc
Ġsl ight
Ġimmedi ate
Ġsn ap
3 9
e an
ul ative
Ġl itter
el ong
os en
Ġle isure
Ġskill ed
Ġwell being
Ġthere of
Ġinf o
Ġthan ks
Ġequ ally
Ġkey w
Ġauthor ising
Ġlow est
Ġaddition ally
Ġstud ents
Ġair lines
Ġlif esty
Ġlif elong
Ġclo sed
Ġsumm ar
Ġfl ight
comp ass
Ġcompar ative
comm un
Ġstructure d
Ġir respective
Ġcour se
Ġattrac tive
Ġslovak ia
Ġfacts he
Ġbra z
bur se
Ġdiscussion s
Ġpestic ides
Ġovern ight
enter prises
5 3
8 2
8 6
b us
i ef
l an
re ach
it ted
Ġm b
Ġw age
Ġn orth
Ġ( )
ran t
Ġdigital ise
lic ation
Ġtra in
Ġsc re
Ġpo or
int ensive
ond on
Ġtool box
Ġmain ten
Ġprior iti
Ġconf ir
Ġscore s
Ġguarant ees
Ġavoid ing
acc ess
Ġdatab ases
Ġregist ration
Ġaggreg ate
Ġabs olute
Ġlatvi a
Ġeurop en
zer land
Ġfix ed
Ġol der
Ġpractition ers
Ġsnap sh
h ing
z e
re strial
er ous
Ġe labor
an a
ent ed
Ġg a
Ġco al
qu ality
Ġimp ose
Ġ9 6
Ġaff airs
Ġdirect or
Ġmeasure d
Ġ) ;
osp ace
Ġacceler ating
Ġeas ier
Ġoptim al
Ġaccompan ied
Ġhost s
Ġlithu ania
Ġacqu is
Ġaer ospace
Ġliquid ity
Ġmut ual
Ġdispos al
. ).
3 3
5 6
c ur
f s
l it
r d
Ġc sa
is s
is ual
an ges
Ġw es
Ġre im
Ġac know
Ġle verage
Ġreg ister
Ġsupp lement
Ġnot es
Ġsc aling
Ġappro ved
ari at
Ġpers ist
Ġref lected
Ġcap abilities
Ġfore se
Ġallow ed
Ġrepresent ing
loc ation
Ġge o
Ġear ning
Ġminim ise
Ġter restrial
Ġlimit ations
ov isual
Ġseason al
Ġpref erred
Ġrent al
Ġcompens ation
Ġenvis aged
Ġreskill ing
h and
Ġ ul
Ġc ash
Ġf aster
Ġw ild
ic s
ce ption
Ġen compass
tic ip
Ġsh ar
Ġat m
Ġk b
Ġk ore
Ġar ctic
ub e
Ġunder lying
iv ing
Ġemp ir
Ġprogram ming
Ġfinan ced
Ġanalys ing
Ġknow n
Ġeng aging
Ġexperi ment
Ġbudget s
Ġtax pay
Ġconn ecting
Ġmonth ly
Ġer df
Ġconnec tions
Ġalloc ated
Ġfragment ation
Ġhistor ical
Ġfis cal
Ġremun eration
democ racy
Ġc s
Ġb n
Ġl ate
Ġl itt
Ġco urs
ot y
Ġeuropean s
Ġlo b
Ġsc op
Ġro oms
Ġpo ol
Ġtransport ation
Ġfir m
Ġvari ed
ang ible
Ġreview s
Ġdriv ing
Ġdifferen ti
Ġdiscus s
Ġgra ph
Ġuni versities
Ġdri ver
Ġvo ice
Ġdise ase
Ġcertific ate
Ġri ver
Ġdon nes
Ġaudi ovisual
servic e
ann ual
Ġmom ent
Ġmainten ance
e ast
m b
Ġ $
Ġsu fficiently
Ġor ient
ci p
Ġun pre
Ġinv ent
Ġout lined
Ġprot oc
Ġfore see
Ġthem es
Ġbehaviour s
Ġintroduc ing
Ġexplo itation
con s
Ġdisc rimination
Ġcontain ing
Ġmaintain ing
Ġfrequ ently
Ġcompl ain
Ġconst ant
Ġmacro economic
Ġswit ch
Ġmilest ones
Ġblock chain
lec ts
effici ency
Ġaugment ed
4 7
7 7
7 9
c ount
f rom
i ers
y ch
in ants
Ġw ages
ac tive
Ġst em
Ġv ent
Ġse w
iz ing
Ġup gra
Ġpolicy making
Ġpers pec
Ġref lects
Ġcar s
Ġfut ures
ced ented
Ġph arm
Ġachieve ment
Ġpack ages
Ġcertain ty
Ġrece ip
Ġnor ms
Ġsubmit ted
Ġemb ed
Ġalgorith mic
Ġcc is
Ġswit zerland
Ġnav igation
Ġtrig ger
Ġvers us
Ġshap ing
Ġwes tern
Ġul tim
Ġunpre cedented
c ap
c les
m a
p ublic
Ġd ensity
Ġb r
Ġw a
Ġw arm
tic ally
Ġat omic
Ġus a
Ġsp ci
Ġinter act
Ġwe ight
Ġyear ly
Ġsur face
Ġra ised
Ġaff ects
Ġpoll in
loc al
Ġautom atic
Ġbring s
Ġbel ie
sw d
Ġmanufacture rs
Ġmodern isation
Ġeston ia
Ġexclud es
Ġconstra ints
Ġempir ical
Ġtaxpay ers
a gram
t f
t able
u ro
Ġthe me
Ġp a
Ġp al
Ġf lu
Ġm as
Ġw el
as ion
Ġl ondon
Ġen for
Ġapp ren
Ġsp lit
cl ing
Ġsol ar
ond s
Ġdem ographic
Ġbio fuels
Ġcur ric
Ġx x
Ġvari ation
Ġcommit ted
Ġexplo red
mar ket
Ġprep aring
Ġevalu ated
Ġsout hern
bn b
pol ic
Ġbreak down
Ġdatas et
Ġsubsequ ent
Ġnorm al
Ġsecret ariat
4 9
5 2
b orne
i j
o urism
s ec
Ġs ession
or row
Ġe ic
an sion
Ġto ok
Ġb a
Ġm ati
Ġl ic
ge o
ci d
Ġad mis
res sive
Ġat tain
ow ers
Ġexp ansion
Ġbu ff
Ġno ise
Ġgu est
Ġsch ed
Ġindi a
Ġvis ibility
Ġshow ing
Ġpres ervation
Ġnor way
Ġsubstan ces
Ġfound ation
Ġinvestig ate
Ġbeh alf
Ġecc ch
Ġreinfor cing
bu il
Ġautomob iles
Ġportfol io
Ġgir ls
Ġdegrad ation
Ġsnapsh ot
Ġappren tices
Ġadmis sibility
b es
d o
l a
n et
o o
s en
es ter
Ġp i
Ġp ict
Ġf resh
Ġd rough
Ġb rid
Ġm ining
il ateral
Ġsh ape
op oll
Ġidentif ies
Ġext rac
Ġcomb ine
Ġjoint ly
Ġpublish ing
co vid
Ġcoh erence
Ġab road
dis c
Ġabs ence
fund ing
Ġeth ical
Ġeurop a
Ġsens ors
Ġpollut ants
Ġperspec tives
Ġdrough ts
c or
f ts
g i
g ence
p andemic
p roduc
Ġ {
ti le
Ġin bound
Ġe i
Ġn ace
Ġv ital
Ġinter f
ast ers
Ġprop osition
ell ed
Ġgener ations
Ġ0 2
her itage
li er
Ġconsider able
Ġsurvey ed
Ġdepend s
Ġret rie
Ġintermedi ate
Ġdeterm ining
Ġdisc over
Ġrun ning
Ġproportion ality
Ġcomple ted
Ġuniv ers
Ġee a
Ġselect ing
Ġexplain ed
Ġsubsequ ently
Ġfertil is
Ġconclud ed
Ġvalu able
Ġinh abit
Ġcum ulative
Ġlitt le
Ġmati re
Ġapprentices hip
opoll ution
( )
. ;
k ey
t t
u k
v in
Ġl union
ut or
Ġal i
Ġsh ocks
Ġle ver
Ġv f
Ġch osen
Ġdi vid
res ili
Ġapp s
Ġeconom ically
Ġexp ression
ou ch
Ġno tification
Ġref und
tim es
Ġcommon ly
Ġexce ll
Ġtransform ing
Ġconf lic
Ġcertif ied
Ġtest ed
Ġste el
Ġcare er
he ad
Ġsubstanti ally
Ġfew er
Ġmis sing
Ġdiversif ication
benef its
Ġsensi tive
Ġincorpor ated
Ġpenal ties
Ġneighbour hood
4 3
8 9
Ġc ell
Ġb ro
ic a
Ġn ames
Ġh al
Ġg ro
Ġg ear
lic it
Ġcons ent
Ġdec ades
Ġrel ig
Ġdo ing
ace u
ens us
Ġsur vi
Ġauthor ised
Ġpromot es
Ġpromot ed
Ġsch ol
Ġdesign ation
Ġair bnb
Ġsim ulation
Ġcor resp
Ġdeal ing
Ġrequest ed
cle ar
man n
Ġuni form
govern mental
Ġperce ptions
Ġvalid ation
Ġaggreg ated
fund ed
Ġconvention al
Ġprecarious ness
Ġdoub le
Ġslight ly
) /
5 1
j eu
w or
er b
en cing
Ġo x
al le
Ġf le
is tive
Ġe lement
Ġre us
il le
Ġh it
ri ve
Ġco des
od e
th rough
Ġmar gin
Ġy ork
Ġha ul
Ġass istive
Ġ9 1
Ġpublic ly
Ġsa ve
Ġno v
Ġris ing
Ġrem ed
iter ran
Ġph ot
Ġdepend ence
Ġparagraph e
Ġpres umption
Ġown ed
au x
Ġincen tiv
Ġaccording ly
Ġrapid ly
Ġinteroper able
Ġmanufacture r
Ġder ived
Ġground s
Ġstim ul
Ġfeas ible
dep th
Ġ.... ...
gre en
Ġsubsidi aries
Ġide as
Ġclaim s
Ġissu ed
person al
access ed
Ġearning s
Ġatm osph
Ġpharm aceu
m ail
Ġp ron
at ch
ing u
Ġm er
Ġal one
Ġpar c
Ġcont ains
Ġar ising
Ġar gu
Ġha pp
Ġcap ita
Ġtravel ler
Ġannex es
Ġadop ting
Ġlead s
Ġdeli vered
Ġdom ains
Ġrenov ations
Ġdistrib uted
Ġmitig ating
Ġmat ters
Ġprevious ly
Ġpred omin
Ġte ach
Ġsen se
Ġextre mes
Ġappe ar
Ġclim atic
Ġengine ering
Ġapprox imate
Ġnar row
Ġsugges ts
Ġak is
Ġviol ence
bus iness
Ġkore a
buil ding
a ving
r ich
z en
Ġre n
ur y
Ġn csd
Ġh is
Ġfor ces
as ive
si an
Ġac tiv
ra fts
Ġal le
Ġinc ur
Ġr ule
Ġres ervation
ad vant
Ġmar king
Ġk p
Ġproduc er
Ġrec ording
Ġmon ey
Ġset t
Ġbudget ary
Ġdist in
Ġcor rel
Ġcall ed
Ġann um
Ġconsid ers
Ġparagraph s
Ġdistribution al
Ġjour ney
Ġevery one
Ġcontain ed
Ġfall ing
Ġmanag er
Ġowners hip
Ġquick ly
Ġdatas ets
Ġnt g
Ġps ych
Ġfactshe et
wor ld
iterran ean
j an
l ateral
u i
Ġth ings
Ġe ip
Ġd ash
Ġto uch
Ġre act
il ing
Ġst able
Ġas si
Ġco up
Ġim m
Ġimp osed
Ġv ac
Ġcomp are
Ġcomp aring
Ġun cr
Ġus ual
Ġpre lim
Ġdis asters
Ġinnov ate
Ġgreen ing
Ġwe ek
Ġsub sc
Ġloc ations
Ġworld s
Ġmin or
Ġph one
ug g
Ġgiv ing
Ġdepend ency
Ġbarri er
Ġentreprene ur
Ġresid ence
Ġsump s
Ġfour th
Ġbel ong
the tic
Ġperce ived
Ġinequ ality
Ġinstall ations
Ġrecord s
Ġinterview s
Ġmap s
Ġprepared ness
Ġeast ern
Ġbill ing
Ġrecru it
Ġagroec ology
Ġkeyw ords
lan tic
Ġshar p
Ġcours es
Ġreceip ts
g ain
t d
Ġt it
Ġa way
in ent
re p
Ġc and
Ġin land
ar k
Ġst ra
od es
Ġal ter
Ġtouris tic
Ġch am
if t
end ix
Ġexp osed
gh t
Ġdis advant
Ġref u
Ġref erences
Ġmon it
Ġensure d
Ġaccess ing
Ġadv ances
Ġmin d
Ġorganis ational
Ġvulner abilities
Ġfacilit ated
Ġmed iterranean
Ġfeed stock
Ġproper ties
Ġoptim ise
Ġalong side
Ġindirect ly
Ġregular ly
Ġscal es
Ġamend ment
Ġentit y
Ġban ks
Ġfreed om
burse ment
Ġpict ure
0 8
h orizon
l in
m od
s ite
y l
Ġt ce
en a
en n
it ch
Ġw al
ul ed
Ġg r
ol i
ol es
Ġbe gin
Ġan ticip
Ġle ft
Ġso vere
Ġv aries
ber g
Ġse qu
Ġtra ce
Ġgre w
Ġdis char
Ġdis ruption
Ġam ended
Ġro utes
Ġcap ability
li ke
Ġsim ulations
Ġestim ation
Ġshort fall
Ġdom ain
Ġfunction ality
Ġfl ash
Ġexplo it
Ġsocio economic
pan cy
Ġgeograph ic
Ġyout ube
Ġpap ers
Ġsensi tivity
Ġfed er
Ġinterconn ected
Ġbuy ers
Ġcand id
h n
Ġs ell
en ed
Ġo u
Ġf ront
Ġe p
it arian
Ġm ess
Ġn ul
Ġn ort
Ġu ber
im e
ab el
Ġle ave
Ġle aving
Ġne b
um n
Ġacc red
Ġse am
Ġag ent
Ġexp licit
Ġmo ving
Ġno tify
ew ater
Ġnum erous
Ġsign ed
sh aring
Ġdescrib e
Ġcustom s
Ġbehavi or
Ġremain ed
Ġcalcul ate
Ġemerg ence
Ġdev ice
Ġsuit ability
rim in
val ue
Ġvacc ination
Ġschool s
Ġaqu atic
zer opollution
Ġaccur ate
Ġbench mar
Ġia ms
Ġidenti ty
Ġtermin als
Ġmetric s
Ġcomplain ts
polic y
Ġuncr pd
Ġprelim inary
c ri
d m
f iques
h igh
s ub
u ine
in du
en viron
Ġc ge
Ġe di
Ġh tml
Ġfor th
ig en
Ġal ia
Ġex ists
Ġde ad
ere s
Ġv ouch
duc t
Ġec ol
Ġreg ener
Ġun p
Ġpol ar
Ġsustain ably
ast e
Ġass et
Ġfollow s
Ġcre ates
Ġunion how
Ġpur s
Ġtime ly
Ġfe ature
Ġpop ulations
Ġcontin ent
Ġchar ging
Ġclust ering
Ġexch anges
Ġharm ful
Ġlimit ing
Ġcarri er
Ġevalu ating
Ġcomput ers
Ġsk ip
Ġincor porate
Ġaward ed
Ġur gent
Ġfavour able
Ġsuppl ied
Ġexplan ation
Ġcontest ability
Ġjurisdic tion
Ġspci fiques
Ġcurric ula
Ġseam less
b al
l led
l aw
w s
Ġ +
re ctive
Ġs ont
Ġf ile
Ġe ase
ar ticle
Ġh omes
ch emical
Ġso u
Ġso le
Ġres ol
Ġproduc ing
Ġmod al
Ġqu est
Ġdiff er
Ġent ail
Ġens ures
art ers
Ġmon etary
Ġimport s
Ġlab s
Ġdet ection
use um
Ġtax onomy
Ġdemand s
Ġbar gain
Ġsw ift
Ġve get
Ġrestric tion
Ġbel ief
Ġintellig ent
Ġsetting s
leg al
Ġambi tions
Ġcontinu ous
Ġretail ers
sigh t
Ġameric as
Ġconsequ ently
wh ere
Ġconcept ual
sdg s
Ġtransm itted
Ġvacc ine
Ġmeaning ful
Ġalgorith ms
Ġoccup ational
Ġsyn thetic
sector al
ogen e
Ġverif ier
multi ple
Ġrang ing
count ry
Ġretrie ved
f low
h tml
y cle
or ient
Ġp owers
al ed
Ġf ill
Ġm ass
ra w
se y
Ġco lo
Ġex emp
Ġex clusive
Ġsh o
ot ing
Ġr ich
Ġv es
Ġcomp ati
Ġcomp osition
Ġapp endix
end s
Ġcons ensus
Ġnew ly
Ġmod e
Ġsc ar
Ġpropos es
Ġ................................ ................................
Ġaddress es
de velop
Ġwas hing
Ġli k
Ġsome times
Ġtw ins
Ġvi rus
Ġcharacter ised
Ġposition ing
Ġcaus es
Ġgen uine
Ġcompl aint
Ġopinion s
Ġstream s
Ġtransl ate
Ġconstit ute
Ġevol ving
Ġremov als
Ġpresid ent
Ġvent ure
Ġultim ately
Ġapproximate ly
rep resent
igen ous
a ut
d ens
r ated
t ext
y en
Ġt ips
in ars
Ġe f
Ġe le
Ġw arning
ab il
Ġres ist
Ġcomp ost
and a
Ġdigital ly
ult ane
Ġha m
Ġunder m
Ġhe art
Ġinvest ed
Ġfinan ci
Ġtravel ers
Ġins pec
Ġinternational ly
Ġlab or
pl as
Ġparticip ated
Ġvari able
Ġsim ultane
sh ort
ling ual
Ġear lier
Ġhol ding
Ġenab led
Ġrev ise
Ġdm issions
Ġalign ed
Ġcour ts
Ġexpand ing
Ġpurch ases
Ġindepend ence
Ġadjust ed
Ġadjust ment
ract ed
Ġquantit y
Ġfrequ ency
Ġhist ory
Ġmobil ise
Ġbra nd
Ġsex ual
Ġreinfor ced
Ġticket s
Ġcrow d
Ġaustral ia
depend ent
ho ods
Ġlifesty les
commun ities
Ġbraz il
Ġmargin al
Ġincur red
Ġpurs ue
a o
b as
b ia
c ut
l ar
m id
Ġ ion
Ġth ink
Ġs elling
Ġo pp
tion al
Ġe ight
an cy
ed s
Ġb es
Ġm agn
ec tions
Ġ( %
si tive
ac o
Ġst ability
Ġas p
Ġco pe
Ġan ti
Ġne ither
Ġcons erv
Ġcan ada
Ġpr s
Ġdis put
cy cle
Ġind igenous
Ġcontrib uted
Ġanalys ed
Ġwast ewater
Ġtim ing
Ġbenef icial
Ġmulti lingual
Ġprof iles
Ġcor rid
Ġguid es
Ġinst agram
Ġmicro enterprises
Ġgiv es
Ġcy cles
Ġhuman ities
Ġbroad ly
Ġoce ans
Ġquan tification
Ġinflu enced
Ġcollective ly
Ġaccept ance
Ġqual ified
Ġqual ifications
Ġrepl ace
Ġperm it
Ġbook ings
Ġlay ing
Ġhead qu
Ġconcent ration
Ġconstruct eurs
trans form
rimin atory
Ġwashing ton
Ġdisput es
e lect
f e
i pped
p a
s bs
t r
w c
Ġa head
Ġs v
Ġp us
Ġm useum
Ġpro ven
ul s
si ven
Ġl ag
Ġl ines
Ġex ac
ant e
Ġproduc tive
ag greg
Ġrel ies
Ġchan ged
Ġindic ating
Ġgu ests
Ġindust ri
ens es
pl aces
Ġvari ations
Ġbas in
Ġlif ec
Ġexce l
Ġcontin ues
Ġinvol ves
loc king
ograph y
Ġrestr ict
Ġupd ates
Ġbig gest
Ġadequate ly
Ġtempor al
Ġharmon isation
Ġuk ra
Ġmand ate
sect ors
ck in
Ġclos er
Ġsem ester
Ġacadem ia
grow th
Ġinterpret ation
Ġbri ef
Ġwarm ing
Ġforth coming
siven ess
c ost
d r
d oc
g ments
l ies
Ġa ver
Ġb reed
ch elle
Ġis land
ci a
Ġinc omes
Ġinter link
ich e
jec tif
Ġsa w
Ġemploy er
Ġindic ates
Ġgo ogle
Ġaccess ed
Ġhelp ed
Ġdesign ated
Ġmulti lateral
Ġdist ance
Ġcor ner
stand ard
Ġstart up
Ġrenew ed
Ġ.. .
Ġspecial ist
Ġage ing
Ġconsist ency
Ġoccu pancy
Ġchann el
Ġgreat est
Ġmilest one
Ġbench mark
Ġgene va
Ġ................................................ ...
Ġbelie ve
Ġenfor cing
Ġrelig ious
Ġschol ar
alle l
Ġcham ber
Ġexac erb
ckin sey
Ġt ree
on duct
re sid
en tic
Ġc ult
Ġc jeu
an i
Ġw orth
ar a
le y
st ake
Ġn it
ut ors
ure d
th es
th ing
ch ina
Ġwh ite
Ġpar allel
duc tion
Ġwork ed
if ying
Ġapp li
Ġj u
Ġse as
Ġse ems
Ġk e
iv es
Ġlo st
Ġrec o
Ġpart ly
ag ri
Ġpropos ing
Ġestablish es
emic onduct
Ġext ending
Ġfore sight
ll ing
stand ing
Ġlink ing
ind ex
Ġspecial ised
Ġrespect ing
Ġupd ating
Ġanaly tical
Ġheat w
Ġcontain ers
Ġdeb ate
Ġed ge
Ġuncertain ties
Ġquarter ly
Ġmach ine
sour ce
Ġcoup led
Ġbargain ing
Ġsho pping
f er
h am
s mes
w omen
w aste
y a
Ġa wards
or tive
Ġc ad
Ġp ace
it able
Ġn ud
Ġn ou
Ġn ive
Ġh in
Ġh eter
Ġg al
Ġg ains
Ġas ked
ts a
el and
ot ourism
Ġinc om
Ġun clear
Ġdig comp
Ġinter cultural
so ft
op en
Ġstr ugg
Ġind eed
Ġrep os
Ġvis ible
Ġunderstand able
medi um
Ġpresent ation
Ġconf erences
Ġip ol
Ġresid ent
Ġprog ressive
Ġforest ers
Ġacceler ated
Ġexpendit ures
Ġce ment
Ġsen ior
Ġrank ed
Ġplanet ary
Ġreflect ing
neut rality
Ġdraw ing
Ġcarry ing
Ġsepar ately
Ġtrack ing
Ġgreat ly
Ġhabit at
Ġcertific ates
Ġprox y
Ġcc ri
Ġsystematic ally
Ġconver sion
Ġfragment ed
Ġment al
Ġcancell ation
Ġreim bursement
Ġalle vi
Ġdead lines
b ase
d ef
f o
k er
n ace
Ġp es
Ġe if
it ud
Ġre bound
le u
il o
im p
se a
Ġal b
Ġsh ops
Ġpar ks
Ġle t
Ġle vers
Ġpl ays
Ġv ill
Ġv ast
duc ed
Ġec on
Ġec otourism
Ġcl arity
Ġdigital ised
Ġint ers
Ġrec on
Ġdis par
Ġro om
Ġover lap
Ġequ ipped
Ġrep ay
Ġwater borne
Ġlar ticle
Ġadv ancing
Ġpeop les
Ġdist ingu
Ġaff ili
Ġnecess arily
Ġcompet encies
Ġtr ue
Ġfacilit ates
Ġcy cling
Ġdom in
Ġcomb us
Ġpres erving
Ġtur key
Ġip cc
Ġmen u
Ġpoli tics
Ġpil ots
Ġcomplement ed
Ġcarri ers
Ġevalu ations
urism o
pro ject
Ġcalcul ations
Ġmove ments
Ġir r
Ġattrac tiveness
wh o
Ġperce ption
Ġchec ks
Ġfrequ ent
Ġsimpl ify
mis s
know s
Ġscal eu
Ġeth nic
Ġcat al
Ġic eland
Ġbatter y
Ġaccur acy
Ġfed eration
xic o
Ġconsolid ated
Ġcas c
Ġorient ation
Ġextrac tion
Ġinhabit ants
Ġdistingu ish
b id
e z
g ue
i able
n s
u ments
in vest
re nd
Ġs port
Ġe ib
Ġw il
Ġw et
Ġn ine
Ġpro of
Ġl g
Ġst ated
vi er
os is
ad s
Ġwork place
Ġsustain ed
di tions
rib e
ue leu
Ġass emb
Ġinnov ators
Ġval or
Ġloc ally
Ġem ail
Ġoff ici
Ġsol d
Ġrep roduc
Ġterm ination
Ġstate ments
Ġcooper ative
Ġform ation
Ġsci enti
Ġoblig ated
Ġlear ned
pre ad
Ġann ually
Ġcomb ining
Ġcapital ise
Ġclean ing
Ġmet ers
Ġincen tive
Ġcambod ian
Ġenab lers
Ġpositive ly
Ġaud io
Ġenhance ment
ov a
Ġab str
Ġflo ods
Ġexpand ed
Ġshif ts
Ġafford ability
Ġget ting
Ġprepar atory
Ġappe ars
po int
Ġhazard ous
Ġexclud ed
Ġclar ify
Ġsuff ered
Ġforese en
Ġlob jectif
Ġembed ded
uro pe
resili ent
Ġecol abel
Ġsou ght
transform ations
Ġreco vered
Ġheter ogene
b d
k ers
Ġt urismo
re ci
Ġc am
Ġc ord
Ġp est
ed ia
il ies
lo s
ol d
Ġl ays
Ġst ores
Ġis bn
all ed
Ġcl ick
Ġmar ked
Ġinter disciplinary
Ġtra ders
Ġund ue
Ġstr ict
Ġpre cip
Ġbi as
Ġhe adline
Ġemploy ee
Ġimpact ed
Ġdef ines
Ġauth entic
Ġra pport
Ġexperi ments
Ġsee king
ian ces
Ġchar ter
Ġmicro plas
Ġline ar
Ġmeet s
Ġbuild s
ension s
Ġquan tify
Ġacceler ator
Ġsuccessful ly
Ġproper ly
Ġir ish
Ġtrust ed
Ġdraw n
Ġclim at
Ġfam ilies
Ġgl ass
Ġdisrup tive
Ġjud icial
Ġdisclo se
Ġbankrupt cy
stake holder
Ġappli ances
Ġhin der
f ort
g dp
i ant
m et
s ystem
s ection
v ent
Ġt on
Ġt angible
Ġs emiconduct
Ġp ages
Ġo il
Ġf al
ro ph
ro gen
Ġre char
st er
Ġg pp
et te
Ġsu per
em a
pp er
Ġsh ock
ant ly
Ġsp end
are nt
Ġcons ists
Ġall iances
Ġcap able
Ġcost a
Ġes a
tit ution
Ġlab els
pl us
Ġobjec ts
Ġext racted
Ġli br
Ġorganis ers
Ġver ify
ful ly
sh ore
Ġz ones
Ġmedi ation
Ġinstru ctions
Ġminim ising
Ġbur dens
Ġprec ise
dem and
Ġspe ak
Ġnutri ents
Ġtem pl
Ġkeep ing
Ġdiversif y
Ġprofici ent
Ġsyn ergy
Ġsan itation
Ġmix ed
Ġentit led
Ġbill s
Ġroll ing
bl ue
Ġprosper ity
Ġprem ium
Ġscop ing
Ġei is
Ġlever aging
Ġdash board
Ġsovere ign
Ġvouch ers
Ġexemp tions
cut ting
Ġcombus tion
b en
c p
c os
f unction
g l
h ere
h of
l lo
m atic
n on
in al
Ġc ater
Ġc rafts
Ġf ine
Ġf riend
Ġb lo
Ġb orrow
Ġre tain
im es
Ġcom ments
vi ations
em ed
Ġen vo
ra ising
el i
Ġsh ipping
Ġimp ly
Ġr ception
Ġr dm
um es
Ġcomp ound
Ġun like
Ġse gment
Ġinter personal
iz es
ces sion
Ġdire ction
ag u
Ġno tified
Ġsec tions
Ġem as
Ġprom ising
pl atform
Ġli ability
Ġfe es
Ġmulti annual
Ġclo sing
Ġencour ages
Ġgate way
Ġconsult ing
Ġcy ber
Ġcomb at
Ġhuman itarian
Ġpres erve
Ġundert ake
Ġhol d
Ġstandard ised
Ġsoil s
pro of
pro fit
af rd
Ġalloc ate
Ġap art
Ġconform ment
Ġmaintain ed
Ġutil ita
rupt ed
Ġanim als
Ġfulf ill
Ġadvant ages
Ġ........ .
Ġhighlight ing
Ġsubsidi arity
Ġvary ing
Ġremo ve
Ġacadem y
Ġmunicip al
Ġwindow s
part y
Ġinfringe ment
cur rent
Ġprotoc ols
Ġstem ming
Ġautomatic ally
Ġbuff er
Ġtrace ability
Ġnort hern
orient ed
Ġprs ent
aggreg ated
Ġindustri als
Ġlifec ycle
Ġcasc ading
Ġutilita ires
g ie
h s
m illion
o int
w orth
Ġ ice
er a
or a
or gan
es pread
Ġp ed
Ġp ests
al ence
at t
Ġd p
Ġm ort
Ġm ale
Ġre ward
ur a
lo gy
Ġsu iv
Ġl as
Ġst op
Ġde ath
us ed
ff s
Ġimp osing
Ġcomp osed
res ult
id s
vel i
Ġmar ri
Ġman ip
Ġman ual
Ġdec id
Ġro ut
Ġadapt ing
work ing
Ġfac es
Ġenter ing
Ġi bid
Ġreduc es
Ġcur ren
Ġcr unch
Ġli veli
Ġdet er
Ġdeli ber
Ġlack ing
Ġel der
Ġnext generation
comm unic
Ġqual ification
Ġnegative ly
Ġwid espread
Ġforecast s
Ġcollect ing
Ġorigin al
Ġhar vest
respon sibilities
Ġclos ure
Ġemphas is
Ġsafeguard ing
Ġdisclo s
Ġremov al
Ġelim inate
Ġrecre ational
Ġheav y
Ġdro pped
Ġcontam inants
Ġacquis ition
oty pes
Ġpi pe
Ġfertilis ers
Ġcorresp ond
Ġcorrel ation
Ġves sels
Ġsimultane ously
Ġcad re
b and
c ase
d ays
g lob
h ib
i que
l ation
m ade
p al
p ost
Ġs ort
Ġs ale
Ġthe ory
or ies
Ġp ul
Ġp et
Ġp ays
Ġin e
Ġf ell
it ures
ed ge
Ġb ilateral
Ġm ckinsey
Ġsu d
Ġl gers
Ġco sme
ir th
Ġwh om
Ġwh oles
Ġimp lies
Ġr f
Ġne u
Ġv oting
Ġsupp ortive
Ġun lock
Ġun locking
mp l
ag encies
Ġmod if
Ġqu ant
Ġgener ating
ex p
Ġspecific ities
Ġmain land
Ġcer om
Ġmin ister
Ġprof its
ha ul
Ġreview ed
Ġinclu siveness
sh are
Ġcriter ion
Ġgran ular
Ġresult ed
Ġrest oring
Ġrece iving
Ġste pping
Ġavoid ed
Ġtempor arily
Ġblue print
Ġspecif y
Ġdur able
Ġquestion na
Ġflood ing
Ġminist ries
know n
Ġvo itures
Ġexception al
Ġsuggest ed
Ġmach ines
Ġpenal ty
Ġgradu ally
Ġacknow led
Ġexperiment ation
Ġsched uled
disc riminatory
Ġexcell ence
Ġdistin ct
Ġukra ine
Ġscienti sts
Ġprecip itation
b rid
c n
f ir
n g
n ec
w a
re le
es e
es co
al a
Ġf iles
Ġd ss
Ġto w
ic ations
Ġre si
st e
Ġg am
Ġst ore
Ġbe ach
Ġde emed
Ġad ding
Ġdat es
Ġsp ect
str ate
Ġtra der
ces sive
Ġfood s
Ġhe aring
Ġemploy ing
ous and
Ġwhere ver
Ġwhere by
Ġeffici ently
Ġpartners result
Ġact ually
Ġi ot
Ġintegr ity
Ġindicators responsibilities
ird s
Ġpay ing
loc ks
Ġhum ans
Ġfunction alities
Ġlimit ation
af ter
Ġconsequ ence
wh ich
Ġrobust ness
Ġvalid ated
Ġsubmit ting
Ġarrange ment
Ġabs or
Ġ% ),
Ġhu ge
Ġfa ire
Ġbrow s
Ġoccup ations
Ġalignment long
Ġamend ments
Ġimmedi ately
Ġsuppl ies
Ġexceed ing
Ġunderpin ning
Ġrecre ation
Ġeuropen ne
Ġelabor ation
Ġpersist ent
sec ond
Ġmonit ored
Ġelder ly
b ial
c ity
k a
l f
n ity
o x
z z
Ġ .,
Ġt a
Ġt ari
er df
Ġc it
Ġf ab
Ġe y
Ġd ang
Ġm aster
Ġw all
Ġre struct
Ġh ab
ig u
Ġst ef
ut ri
ch ange
ect or
Ġimp er
iti m
per form
Ġun av
Ġun employed
di ents
Ġse em
ell es
Ġappro val
Ġsol ving
Ġleg itim
Ġprom inent
ass ment
Ġvi able
Ġsee ks
lab elling
Ġcompe tit
Ġvis ited
Ġz o
Ġelect r
Ġcollabor ations
Ġbar b
Ġpresent ing
Ġdistrib utors
Ġcal ib
Ġmat urity
Ġprev alence
Ġguarant eed
euro found
Ġcontinu ing
Ġassum ed
Ġshif ting
Ġindepend ently
Ġparti al
Ġexception ally
Ġdecent ral
Ġune ven
Ġ........ ..
Ġoccur rence
Ġbankrupt cies
Ġber th
inform ed
Ġheav ily
Ġsuperv is
Ġsew age
Ġentrepreneur ial
Ġbreed ing
Ġirr igation
' ,
b ut
c ris
d raw
j unction
m er
o ir
Ġ &
Ġt alent
Ġt ipping
in ational
Ġs erv
Ġs ized
Ġc i
it u
Ġb locks
Ġm es
ar ities
Ġg d
Ġu g
Ġon to
Ġcon vers
Ġl ue
pe er
ot al
Ġinc ub
Ġso on
Ġec odes
ap s
ad ata
Ġacc um
ist rib
Ġse af
ip her
so cial
Ġout line
Ġcol lap
Ġfra g
Ġtool k
Ġdef ici
ten eg
Ġprovision al
Ġph en
Ġperiod ic
Ġcapital s
Ġspecial ists
Ġser bia
Ġdemonstr ating
Ġadopt ers
Ġcomplement arity
Ġdecl ined
Ġab bre
Ġhand ling
Ġhand book
Ġhospital s
Ġcomply ing
assif ication
Ġutil ities
Ġforecast ing
Ġdifficult y
Ġrobo ts
Ġentire ly
Ġhar ness
Ġhar assment
Ġtail or
Ġcat ch
Ġrestaur ant
Ġcut ting
Ġconcent rated
Ġpredict able
Ġinsp ire
Ġremo ving
Ġrus sia
app ro
Ġprosper ous
Ġlen gth
east ern
Ġforesee able
Ġfle et
Ġpredomin antly
Ġnul le
Ġbelief s
Ġcompost ing
Ġmagn itud
Ġcorrid ors
Ġpus h
Ġcord is
Ġmicroplas tics
Ġcrunch base
Ġcompetit ors
cris is
Ġecodes ign
b m
b ri
e or
e per
o ecd
o unced
r um
t as
Ġt ender
in ter
on o
en g
Ġd uly
Ġto days
ic it
om et
Ġh o
Ġh or
Ġcon junction
Ġac cid
Ġen vision
Ġwith draw
Ġex cluding
th rop
Ġde eper
est ration
Ġpl acing
Ġdi vision
Ġdi vide
Ġcomp il
Ġcomp rom
Ġun able
Ġfin es
op h
Ġtrans disciplinary
bo th
Ġent ered
Ġet uc
riv ing
Ġwe alth
Ġmon teneg
Ġbio geo
Ġtim eline
ph one
Ġprocess ors
Ġtraining s
Ġstand s
ade us
Ġwor st
Ġstatis tic
Ġshort age
Ġmed ic
til isation
Ġintroduc es
Ġcal end
Ġintermedi ary
sc aling
Ġca pe
Ġbank ing
Ġenab ler
Ġdu ties
ins titution
Ġpress ures
af ric
Ġdepart ments
Ġil ost
Ġnutri ent
Ġmis le
Ġdeleg ation
verse as
Ġvolunt e
Ġ............ ..
Ġconver gence
Ġred ress
Ġticket ing
Ġincorpor ating
Ġaustral ian
Ġpresid ency
Ġbreakdown s
ode grad
Ġincentiv ise
Ġpron ounced
Ġkp is
Ġsequ estration
represent ed
Ġmuseum s
communic ations
Ġcollap se
Ġmonteneg ro
c ill
g rou
p oration
r ust
re port
re search
ti ary
Ġs ent
or tions
Ġin gre
Ġf if
Ġf ueleu
Ġd in
Ġd up
Ġb orne
Ġg az
ce l
ab led
el iness
Ġex its
Ġex cessive
Ġan cill
ff en
Ġr duction
ore st
res ults
ap es
Ġun s
Ġun esco
ant es
Ġme at
ult inational
Ġtra ject
Ġsm oo
Ġar ise
Ġlo ad
Ġstr ing
Ġsa id
Ġcre di
Ġ0 0
Ġfra ming
Ġadapt ability
Ġprot ective
Ġes f
Ġrep lic
Ġcr pd
Ġsign als
Ġsaf er
Ġguid ing
Ġmedi an
Ġmic ron
Ġvol umes
Ġsy m
Ġ................ ...
Ġdeploy ed
Ġhy brid
Ġer a
Ġrail way
Ġdepart ure
ib les
Ġassum ption
Ġil legal
Ġexam ination
Ġhour ly
Ġrating s
Ġcapture d
Ġprofit ability
Ġtele communications
tra vel
Ġrus sian
Ġcompris es
Ġillustr ated
hi bi
____ ____
Ġaudit ors
Ġinfringe ments
Ġwild life
Ġdivid ed
Ġbelong ing
Ġbegin ning
Ġexplicit ly
Ġcompati ble
elect ronic
glob al
Ġquant um
fir st
Ġug anda
Ġancill ary
. :
a ires
c is
e et
k en
m ain
n os
s ol
s itu
t re
Ġt al
Ġt ed
Ġs erving
Ġc ard
Ġp ure
Ġf ont
is me
at o
an al
Ġm ultinational
Ġw ar
ar tile
Ġre tention
st a
ec c
Ġpro vin
Ġg ig
ac in
Ġcom fort
Ġst ays
Ġen lar
ra me
Ġor al
Ġpar ad
Ġdi agn
Ġcomp ile
Ġse gments
gra v
iv ers
Ġout reach
rough ly
Ġav ec
Ġoff line
Ġapplic ant
Ġra re
Ġimport ers
oper ation
Ġintegr al
Ġtw ice
Ġmulti pl
Ġorganis ms
Ġcor rective
bi osis
Ġbec omes
Ġinstit utes
Ġlink ages
ple te
Ġdescrib es
Ġcontr ary
Ġemer ge
Ġel se
con f
Ġmet adata
Ġdemonstr ates
Ġconduc ting
Ġquan tif
Ġexternal ities
Ġdecre asing
ash ion
Ġdepart ing
Ġoptim isation
................................................................ ................................
govern ment
Ġmembers hip
Ġsuppli er
Ġmig rants
Ġinstall ed
Ġdissem inate
Ġtyp ical
Ġdiversif ied
Ġ............ .
Ġ........................ ...
Ġnt os
Ġidenti ties
Ġgene tic
Ġapprox im
Ġreve als
Ġexem pt
Ġscre ening
Ġacknow ledge
hand ling
Ġinvent ory
Ġpollin ators
Ġfresh water
Ġcell s
Ġpharmaceu tical
Ġpsych ological
Ġsubsc ribe
Ġunp aid
Ġcolo ur
Ġlik eli
Ġnit rogen
Ġsemiconduct or
Ġliveli hoods
rele vant
Ġrestruct uring
Ġhab its
Ġelectr ical
ipher al
Ġmagnitud e
Ġingre dients
Ġlikeli hood
i os
l en
m g
o tions
t n
v it
v ol
Ġt p
ti ties
Ġth or
Ġth ousand
es f
Ġo verseas
Ġf ru
is ive
Ġd f
Ġm us
Ġre lying
st op
ur p
Ġpro ve
Ġh ier
lo oking
Ġg over
Ġcon om
Ġcon se
Ġac ron
Ġor d
Ġim bal
no vember
Ġv en
Ġv ice
Ġreg imes
Ġsupp ression
Ġapp oint
Ġme xico
Ġinter governmental
Ġar ab
op a
Ġmod er
bo ards
Ġro llo
Ġent ries
Ġindic ations
ex ist
Ġsur round
Ġaddition ality
Ġfe el
Ġdet ect
fore st
Ġtre ated
Ġcor por
Ġver tical
Ġconsider ably
Ġregul ate
Ġtechnical ly
Ġcontin uation
Ġcompet e
su pport
Ġmicro soft
ator ies
Ġconsult ancy
Ġip bes
be it
Ġread ily
rid ge
Ġquan tities
empor al
Ġcomplement ing
Ġcomplement arities
Ġyoun ger
Ġlast ing
Ġweb inars
Ġdam ages
Ġvacc ines
Ġocc asion
Ġadver tis
Ġclassif ied
Ġclim ati
Ġacqu ired
Ġinten sif
Ġattrib uted
inform ation
Ġlan es
Ġcoal ition
Ġupgra de
Ġbrid ge
Ġunivers al
Ġconflic t
Ġremed ies
Ġstimul ating
Ġrecruit ment
Ġdisadvant aged
Ġveget ation
Ġham per
Ġasp ect
Ġincom plete
Ġallevi ate
Ġassemb ly
Ġtempl ate
Ġdisclos ure
Ġpipe line
Ġwholes ale
Ġquestionna ire
Ġabbre viations
institution al
Ġsmoo th
. -
] .
n it
r ys
Ġt ry
in ating
in dependent
re f
re qu
ti ous
Ġth om
Ġth rive
Ġs and
Ġs ant
Ġs ports
or ia
Ġc es
Ġin see
Ġf at
Ġf ashion
ro g
Ġb ot
Ġw i
Ġw ish
Ġw ord
Ġw ords
Ġw aves
ec tiveness
Ġg i
Ġsu s
Ġl ending
vi a
ri f
se x
ion e
Ġr al
Ġle ak
Ġcomp lements
Ġcomp uls
Ġmar k
Ġse p
Ġag grav
Ġinv asive
und er
Ġcan ari
Ġpolic e
Ġdec isive
ag ric
Ġmod ule
Ġbi odegrad
Ġpartic ul
Ġconsum ing
Ġnational ly
Ġpo se
Ġaut onom
Ġval uation
Ġrele ased
Ġem otion
Ġoff set
ied om
Ġequ itable
ass l
pl ing
Ġauthor isation
Ġrespon ding
Ġorganis er
Ġdel ays
Ġform er
Ġappropri ations
Ġregul ators
Ġnec ps
Ġsumm it
Ġge ffen
Ġter tiary
Ġve t
Ġinterest ing
Ġput s
Ġculture d
Ġcharacter istic
Ġarriv al
Ġdeterm ination
Ġdisc ount
he alth
fin ancing
Ġansw er
Ġutil ity
Ġadjust ments
Ġvalid ate
eff ectiveness
Ġbook s
cont ract
Ġhistor ic
Ġcorrect ly
Ġfail ure
Ġgain ed
Ġevol ve
Ġattract ing
Ġkind s
Ġreserv oir
Ġmunicip alities
Ġsubstit ution
Ġsubstit ute
Ġprioriti se
cons um
Ġupgra ding
sen sitive
Ġsett lement
Ġcandid ate
Ġsole ly
Ġlg isl
hof er
Ġfriend s
Ġsym biosis
Ġhier arch
Ġcompuls ory
f ree
f arm
g us
i us
k as
m bre
n ical
r r
s pe
u el
u ari
v re
v an
y al
Ġ roughly
Ġs izes
er ts
en se
or m
or al
is c
is ite
is ons
at lantic
Ġto m
Ġm ill
Ġm ere
Ġw it
ur i
Ġn om
Ġpro mp
Ġpro active
Ġg es
ab ol
Ġl igh
Ġst ations
Ġas yl
tic a
Ġex clude
ch er
ot ed
Ġr ational
Ġr ica
age o
Ġtourism s
ap er
are r
Ġper ipheral
Ġman ure
Ġgre y
Ġmo unt
Ġrel atives
Ġinnov ating
ss a
Ġcap s
Ġapplic ability
Ġhealth ier
Ġiniti ally
Ġjo hn
Ġsour cing
Ġpe ers
Ġra in
Ġra di
Ġmillion s
Ġdesign ate
Ġcor ruption
Ġph y
Ġpublish ers
Ġmet eor
Ġfree ly
Ġdecl ines
Ġaccept ed
Ġfound ed
Ġflo or
Ġcontinu ously
Ġjourn als
Ġdialog ues
Ġpref er
Ġpref erence
Ġfar ms
Ġhu ws
Ġmobil ising
Ġboard ing
Ġwat ch
Ġrepl aced
Ġpen et
cont rol
Ġnutrition al
Ġcance lled
Ġ........................ ..
