{"<s>": 0, "<pad>": 1, "</s>": 2, "<unk>": 3, "<mask>": 4, "!": 5, "\"": 6, "#": 7, "$": 8, "%": 9, "&": 10, "'": 11, "(": 12, ")": 13, "*": 14, "+": 15, ",": 16, "-": 17, ".": 18, "/": 19, "0": 20, "1": 21, "2": 22, "3": 23, "4": 24, "5": 25, "6": 26, "7": 27, "8": 28, "9": 29, ":": 30, ";": 31, "<": 32, "=": 33, ">": 34, "?": 35, "@": 36, "A": 37, "B": 38, "C": 39, "D": 40, "E": 41, "F": 42, "G": 43, "H": 44, "I": 45, "J": 46, "K": 47, "L": 48, "M": 49, "N": 50, "O": 51, "P": 52, "Q": 53, "R": 54, "S": 55, "T": 56, "U": 57, "V": 58, "W": 59, "X": 60, "Y": 61, "Z": 62, "[": 63, "\\": 64, "]": 65, "^": 66, "_": 67, "`": 68, "a": 69, "b": 70, "c": 71, "d": 72, "e": 73, "f": 74, "g": 75, "h": 76, "i": 77, "j": 78, "k": 79, "l": 80, "m": 81, "n": 82, "o": 83, "p": 84, "q": 85, "r": 86, "s": 87, "t": 88, "u": 89, "v": 90, "w": 91, "x": 92, "y": 93, "z": 94, "{": 95, "|": 96, "}": 97, "~": 98, "\u00a1": 99, "\u00a2": 100, "\u00a3": 101, "\u00a4": 102, "\u00a5": 103, "\u00a6": 104, "\u00a7": 105, "\u00a8": 106, "\u00a9": 107, "\u00aa": 108, "\u00ab": 109, "\u00ac": 110, "\u00ae": 111, "\u00af": 112, "\u00b0": 113, "\u00b1": 114, "\u00b2": 115, "\u00b3": 116, "\u00b4": 117, "\u00b5": 118, "\u00b6": 119, "\u00b7": 120, "\u00b8": 121, "\u00b9": 122, "\u00ba": 123, "\u00bb": 124, "\u00bc": 125, "\u00bd": 126, "\u00be": 127, "\u00bf": 128, "\u00c0": 129, "\u00c1": 130, "\u00c2": 131, "\u00c3": 132, "\u00c4": 133, "\u00c5": 134, "\u00c6": 135, "\u00c7": 136, "\u00c8": 137, "\u00c9": 138, "\u00ca": 139, "\u00cb": 140, "\u00cc": 141, "\u00cd": 142, "\u00ce": 143, "\u00cf": 144, "\u00d0": 145, "\u00d1": 146, "\u00d2": 147, "\u00d3": 148, "\u00d4": 149, "\u00d5": 150, "\u00d6": 151, "\u00d7": 152, "\u00d8": 153, "\u00d9": 154, "\u00da": 155, "\u00db": 156, "\u00dc": 157, "\u00dd": 158, "\u00de": 159, "\u00df": 160, "\u00e0": 161, "\u00e1": 162, "\u00e2": 163, "\u00e3": 164, "\u00e4": 165, "\u00e5": 166, "\u00e6": 167, "\u00e7": 168, "\u00e8": 169, "\u00e9": 170, "\u00ea": 171, "\u00eb": 172, "\u00ec": 173, "\u00ed": 174, "\u00ee": 175, "\u00ef": 176, "\u00f0": 177, "\u00f1": 178, "\u00f2": 179, "\u00f3": 180, "\u00f4": 181, "\u00f5": 182, "\u00f6": 183, "\u00f7": 184, "\u00f8": 185, "\u00f9": 186, "\u00fa": 187, "\u00fb": 188, "\u00fc": 189, "\u00fd": 190, "\u00fe": 191, "\u00ff": 192, "\u0100": 193, "\u0101": 194, "\u0102": 195, "\u0103": 196, "\u0104": 197, "\u0105": 198, "\u0106": 199, "\u0107": 200, "\u0108": 201, "\u0109": 202, "\u010a": 203, "\u010b": 204, "\u010c": 205, "\u010d": 206, "\u010e": 207, "\u010f": 208, "\u0110": 209, "\u0111": 210, "\u0112": 211, "\u0113": 212, "\u0114": 213, "\u0115": 214, "\u0116": 215, "\u0117": 216, "\u0118": 217, "\u0119": 218, "\u011a": 219, "\u011b": 220, "\u011c": 221, "\u011d": 222, "\u011e": 223, "\u011f": 224, "\u0120": 225, "\u0121": 226, "\u0122": 227, "\u0123": 228, "\u0124": 229, "\u0125": 230, "\u0126": 231, "\u0127": 232, "\u0128": 233, "\u0129": 234, "\u012a": 235, "\u012b": 236, "\u012c": 237, "\u012d": 238, "\u012e": 239, "\u012f": 240, "\u0130": 241, "\u0131": 242, "\u0132": 243, "\u0133": 244, "\u0134": 245, "\u0135": 246, "\u0136": 247, "\u0137": 248, "\u0138": 249, "\u0139": 250, "\u013a": 251, "\u013b": 252, "\u013c": 253, "\u013d": 254, "\u013e": 255, "\u013f": 256, "\u0140": 257, "\u0141": 258, "\u0142": 259, "\u0143": 260, "\u0120t": 261, "\u0120a": 262, "in": 263, "on": 264, "re": 265, "ti": 266, "\u0120th": 267, "\u0120s": 268, "er": 269, "\u0120the": 270, "en": 271, "or": 272, "\u0120c": 273, "es": 274, "..": 275, "\u0120p": 276, "nd": 277, "\u0120o": 278, "al": 279, "\u0120in": 280, "tion": 281, "\u0120and": 282, "\u0120f": 283, "is": 284, "ro": 285, "at": 286, "\u0120e": 287, "an": 288, "\u0120of": 289, "\u0120d": 290, "it": 291, "ing": 292, "\u0120to": 293, "ed": 294, "\u0120b": 295, "\u0120m": 296, "\u0120w": 297, "ar": 298, "ic": 299, "\u0120re": 300, "le": 301, "....": 302, "ation": 303, "ent": 304, "om": 305, "st": 306, "ec": 307, "ur": 308, "ve": 309, "il": 310, "\u0120n": 311, "ment": 312, "\u0120pro": 313, "\u0120h": 314, "lo": 315, "ul": 316, "\u0120for": 317, "as": 318, "\u0120g": 319, "et": 320, "ce": 321, "\u0120(": 322, "\u0120u": 323, "si": 324, "im": 325, "........": 326, "\u0120eu": 327, "ab": 328, "\u0120on": 329, "\u0120con": 330, "ac": 331, "\u0120su": 332, "ig": 333, "ol": 334, "\u0120l": 335, "\u0120com": 336, "ers": 337, "\u0120st": 338, "\u0120ac": 339, "ate": 340, "ity": 341, "vi": 342, "em": 343, "ut": 344, "\u0120en": 345, "ra": 346, "ri": 347, "ly": 348, "\u0120as": 349, "se": 350, "ort": 351, "ure": 352, "pe": 353, "\u0120co": 354, "pp": 355, "ge": 356, "ts": 357, "el": 358, "ess": 359, "od": 360, "ith": 361, "un": 362, "du": 363, "\u0120al": 364, "tic": 365, "\u0120be": 366, "\u0120with": 367, "\u01201": 368, "\u0120euro": 369, "\u0120ex": 370, "tive": 371, "th": 372, "\u0120or": 373, "ch": 374, "\u0120is": 375, "\u0120de": 376, "ir": 377, "ain": 378, "ver": 379, "ill": 380, "\u0120sh": 381, "\u0120an": 382, "\u0120europe": 383, "\u0120are": 384, "ect": 385, "ci": 386, "for": 387, "qu": 388, "ter": 389, "\u0120by": 390, "ion": 391, "\u0120wh": 392, "us": 393, "able": 394, "ot": 395, "\u0120ad": 396, "ork": 397, "\u0120im": 398, "\u0120par": 399, "\u0120comm": 400, "\u0120inc": 401, "ff": 402, "sion": 403, "\u0120imp": 404, "est": 405, "uris": 406, "ud": 407, "tions": 408, "\u0120that": 409, "form": 410, "\u0120r": 411, "\u01202": 412, "................": 413, "\u0120touris": 414, "iti": 415, "ies": 416, "os": 417, "\u0120le": 418, "\u0120ne": 419, "um": 420, "no": 421, "\u0120so": 422, "\u0120pl": 423, "ere": 424, "\u0120v": 425, "\u0120ch": 426, "duc": 427, "ations": 428, "age": 429, "\u0120res": 430, "ran": 431, "\u0120tourism": 432, "\u0120this": 433, "ore": 434, "\u0120european": 435, "ber": 436, "ak": 437, "\u0120di": 438, "gy": 439, "\u0120comp": 440, "\u0120cont": 441, "\u0120ec": 442, "ission": 443, "and": 444, "ital": 445, "res": 446, "id": 447, "ility": 448, "ay": 449, "\u0120reg": 450, "ap": 451, "all": 452, "ad": 453, "ance": 454, "our": 455, "\u01203": 456, "me": 457, "\u0120at": 458, "erv": 459, "\u0120work": 460, "\u0120dat": 461, "uld": 462, "vid": 463, "ated": 464, "\u0120acc": 465, "igh": 466, "if": 467, "\u0120supp": 468, "\u0120it": 469, "per": 470, "\u0120app": 471, "onom": 472, "\u0120tran": 473, "rom": 474, "\u0120data": 475, "\u0120un": 476, "ct": 477, "ant": 478, "\u0120dig": 479, "\u0120cl": 480, "ow": 481, "lud": 482, "\u0120from": 483, "end": 484, "ments": 485, "mp": 486, "\u0120digital": 487, "vel": 488, "\u0120pol": 489, "rou": 490, "low": 491, "port": 492, "\u0120fo": 493, "stain": 494, "cial": 495, "\u0120us": 496, "\u0120will": 497, "ervic": 498, "\u0120int": 499, "\u0120j": 500, "ational": 501, "\u0120sustain": 502, "di": 503, "lic": 504, "ities": 505, "ard": 506, "ould": 507, "ist": 508, "\u0120servic": 509, "\u0120mar": 510, "\u01204": 511, "\u0120commission": 512, "\u0120sp": 513, "str": 514, "\u0120me": 515, "\u0120se": 516, "yst": 517, "ors": 518, "ative": 519, "\u0120support": 520, "ystem": 521, "ip": 522, "ember": 523, "ther": 524, "ron": 525, "act": 526, "velo": 527, "ates": 528, "\u01205": 529, "velop": 530, "ult": 531, "\u0120inter": 532, "\u0120develop": 533, "\u0120tra": 534, "\u0120sm": 535, "\u0120not": 536, "ine": 537, "\u0120includ": 538, "\u0120k": 539, "\u0120econom": 540, "\u0120their": 541, ").": 542, "so": 543, "ergy": 544, "\u0120ag": 545, "are": 546, "\u0120provid": 547, "\u0120cons": 548, "\u0120ar": 549, "ech": 550, "tiv": 551, "\u0120fin": 552, "gra": 553, "\u0120energy": 554, "op": 555, "\u0120produc": 556, "ast": 557, "\u0120trans": 558, "ence": 559, "\u0120sect": 560, "iz": 561, "\u0120und": 562, "\u0120y": 563, "ces": 564, "rib": 565, "\u0120per": 566, "\u0120ha": 567, "\u0120all": 568, "imate": 569, "ub": 570, "\u0120eff": 571, "\u0120under": 572, "unt": 573, "ia": 574, "\u0120should": 575, "\u0120inv": 576, "\u0120services": 577, "ich": 578, "und": 579, "\u0120member": 580, "\u0120can": 581, "\u0120climate": 582, "\u0120more": 583, "\u0120exp": 584, "\u0120polic": 585, ".,": 586, "ures": 587, "iv": 588, "\u0120out": 589, "enti": 590, "ary": 591, "ail": 592, "\u0120lo": 593, "\u0120man": 594, "\u0120dec": 595, "gh": 596, "ural": 597, "ue": 598, "ket": 599, "\u0120which": 600, "ake": 601, "als": 602, "\u0120prop": 603, "loy": 604, "\u0120str": 605, "ased": 606, "\u0120rec": 607, "\u0120pr": 608, "\u0120new": 609, "\u0120part": 610, "\u0120gre": 611, "viron": 612, "\u0120states": 613, "\u0120dire": 614, "nov": 615, "ability": 616, "\u0120mo": 617, "\u0120environ": 618, "ne": 619, "ust": 620, "\u0120market": 621, "\u0120tech": 622, "\u0120sustainable": 623, "\u0120also": 624, "\u0120such": 625, "\u0120social": 626, "ish": 627, "iness": 628, "nt": 629, "\u0120other": 630, "etw": 631, "ag": 632, "\u0120requ": 633, "\u0120have": 634, "\u0120environment": 635, "\u0120pre": 636, "\u0120emp": 637, "\u0120dis": 638, "ular": 639, "get": 640, "\u0120ass": 641, "ell": 642, "\u01206": 643, "atform": 644, "\u0120food": 645, "\u0120pub": 646, "\u0120rel": 647, "ici": 648, "\u0120platform": 649, "\u0120system": 650, "\u0120use": 651, "\u0120bus": 652, "sib": 653, "\u0120mod": 654, "kill": 655, "ding": 656, "ical": 657, "\u0120ob": 658, "\u0120des": 659, "\u0120meas": 660, "\u0120business": 661, "over": 662, "\u0120bi": 663, "lement": 664, "\u0120indu": 665, "ach": 666, "\u0120inform": 667, "\u0120level": 668, "ase": 669, "\u0120need": 670, "................................": 671, "arch": 672, "\u0120partic": 673, "\u0120chan": 674, "\u01209": 675, "\u0120sc": 676, "ign": 677, "\u0120am": 678, "ater": 679, "ific": 680, "ision": 681, "ener": 682, "jec": 683, "ties": 684, "\u0120sector": 685, "\u0120up": 686, "\u0120propos": 687, "\u0120innov": 688, "ress": 689, "gram": 690, "der": 691, "eu": 692, "\u0120he": 693, "ire": 694, "rough": 695, "),": 696, "\u0120smes": 697, "\u0120do": 698, "\u0120skill": 699, "ome": 700, "ctive": 701, "\u0120including": 702, "\u0120program": 703, "ulation": 704, "ss": 705, "\u0120public": 706, "am": 707, "cy": 708, "\u0120policy": 709, "\u0120av": 710, "ution": 711, "\u0120artic": 712, "\u0120consum": 713, "\u0120strate": 714, "\u0120qu": 715, "bo": 716, "ating": 717, "ric": 718, "\u0120sa": 719, "\u0120high": 720, "\u0120national": 721, "\u0120ind": 722, "\u0120plan": 723, "\u01207": 724, "\u0120contrib": 725, "oriz": 726, "\u0120green": 727, "\u0120report": 728, "\u0120skills": 729, "orizon": 730, "\u0120incre": 731, "\u0120region": 732, "\u0120bu": 733, "\u0120information": 734, "\u0120employ": 735, "\u0120appro": 736, "\u0120spec": 737, "ected": 738, "gies": 739, "els": 740, "\u0120horizon": 741, "\u0120fund": 742, "ou": 743, "\u0120ro": 744, "\u0120article": 745, "\u0120po": 746, "\u0120implement": 747, "ries": 748, "\u0120diff": 749, "\u0120proc": 750, "nolo": 751, "\u0120invest": 752, "\u0120measures": 753, "ally": 754, "erm": 755, "line": 756, "tives": 757, "les": 758, "\u0120through": 759, "\u0120no": 760, "\u0120ent": 761, "\u0120these": 762, "\u0120ens": 763, "\u0120resp": 764, "\u0120directive": 765, "ris": 766, "search": 767, "\u0120add": 768, "\u0120buil": 769, "ality": 770, "\u0120commun": 771, "apt": 772, "\u0120action": 773, "stru": 774, "\u0120avail": 775, "\u0120count": 776, "\u0120technolo": 777, "\u0120research": 778, "\u0120gener": 779, "\u0120et": 780, "ong": 781, "ys": 782, "\u0120development": 783, "ose": 784, "\u0120has": 785, "ack": 786, "unc": 787, "ari": 788, "\u01208": 789, "riv": 790, "ency": 791, "\u0120we": 792, "gan": 793, "\u0120sub": 794, "\u0120economic": 795, "\u0120require": 796, "\u0120shall": 797, "\u0120how": 798, "lish": 799, "\u0120intern": 800, "art": 801, "omen": 802, "\u0120aut": 803, "\u0120organ": 804, "ous": 805, "\u0120la": 806, "ew": 807, "ollow": 808, "com": 809, "\u0120they": 810, "\u0120follow": 811, "\u0120assess": 812, "\u0120transport": 813, "\u0120over": 814, "cl": 815, "\u0120val": 816, "\u0120rele": 817, "\u0120its": 818, "ards": 819, "ef": 820, "\u0120women": 821, "ace": 822, "\u0120economy": 823, "isation": 824, "een": 825, "\u0120.": 826, "\u0120loc": 827, "hip": 828, "\u0120sec": 829, "vant": 830, "\u0120bo": 831, "\u0120well": 832, "\u0120col": 833, "sition": 834, "etween": 835, "\u0120em": 836, "\u0120resour": 837, "\u0120differe": 838, "\u0120may": 839, "\u0120between": 840, "\u0120cre": 841, "eth": 842, "\u01200": 843, "\u0120................................": 844, "\u0120pers": 845, "\u0120change": 846, "hol": 847, "\u0120anal": 848, "\u0120op": 849, "lect": 850, "\u0120fra": 851, "bility": 852, "\u0120available": 853, "utions": 854, "ross": 855, "\u0120off": 856, "ight": 857, "\u0120indic": 858, "\u0120nat": 859, "\u0120adapt": 860, "\u0120ev": 861, "ile": 862, "\u0120union": 863, "int": 864, "\u0120impro": 865, "\u0120programme": 866, "ents": 867, "\u0120ref": 868, "ex": 869, "\u0120there": 870, "ord": 871, "ving": 872, "work": 873, "\u0120condi": 874, "\u0120exper": 875, "\u0120finan": 876, "ential": 877, "ps": 878, "\u0120where": 879, "ear": 880, "\u0120innovation": 881, "row": 882, "\u0120mon": 883, "\u0120regulation": 884, "\u0120address": 885, "\u0120cap": 886, "\u0120set": 887, "\u0120travel": 888, "ining": 889, "\u0120gu": 890, "\u0120ensure": 891, "ges": 892, "bs": 893, "\u0120sol": 894, "view": 895, "\u0120relevant": 896, "agement": 897, "ati": 898, "\u0120oper": 899, "\u0120indust": 900, "ok": 901, "\u0120ris": 902, "\u0120conditions": 903, "ree": 904, "\u0120go": 905, "\u0120cost": 906, "\u0120leg": 907, "tivi": 908, "\u0120particular": 909, "tivities": 910, "ption": 911, "sive": 912, "de": 913, "ual": 914, "\u0120activities": 915, "\u0120impact": 916, "ication": 917, "illion": 918, "aking": 919, "now": 920, "ond": 921, "dition": 922, "ners": 923, "alth": 924, "\u0120prot": 925, "\u0120inf": 926, "\u0120building": 927, "led": 928, "tim": 929, "\u0120prac": 930, "ied": 931, "ning": 932, "\u0120products": 933, "\u0120est": 934, "ory": 935, "arget": 936, "\u0120applic": 937, "\u0120frame": 938, "\u0120person": 939, "\u0120es": 940, "ination": 941, "lob": 942, "\u0120than": 943, "\u0120different": 944, "\u0120compan": 945, "\u0120prom": 946, "osystem": 947, "\u0120framework": 948, "\u0120systems": 949, "\u0120resources": 950, "ms": 951, "\u0120health": 952, "\u0120dem": 953, "\u0120initi": 954, "\u0120non": 955, "\u0120equ": 956, "sible": 957, "\u0120jo": 958, "\u0120ecosystem": 959, "\u0120provide": 960, "\u0120glob": 961, "ject": 962, "\u0120).": 963, "\u0120into": 964, "\u0120expected": 965, "hold": 966, "\u0120effici": 967, "irc": 968, "\u0120tool": 969, "enef": 970, "\u0120access": 971, "ues": 972, "\u0120analys": 973, "\u0120num": 974, "\u0120def": 975, "\u0120employment": 976, "ee": 977, "omm": 978, "\u0120sour": 979, "ks": 980, "\u0120adaptation": 981, "ens": 982, "ulture": 983, "ultural": 984, "\u0120was": 985, "ren": 986, "\u0120pe": 987, "ner": 988, "\u0120effec": 989, "\u0120year": 990, "\u0120rep": 991, "\u0120sustainability": 992, "entif": 993, "tit": 994, "\u0120bio": 995, "\u0120decision": 996, "\u0120id": 997, "tics": 998, "\u0120following": 999, "ie": 1000, "pec": 1001, "\u0120wast": 1002, "\u0120transition": 1003, "\u0120environmental": 1004, "\u0120target": 1005, "ators": 1006, "\u0120fac": 1007, "arm": 1008, "\u0120dest": 1009, "ute": 1010, "\u0120know": 1011, "\u0120management": 1012, "\u0120local": 1013, "\u0120tim": 1014, "\u0120top": 1015, "uring": 1016, "\u0120ins": 1017, "its": 1018, "ph": 1019, "stry": 1020, "\u0120based": 1021, "ise": 1022, "\u0120soci": 1023, "\u0120global": 1024, "\u0120strategy": 1025, "\u0120countries": 1026, "ey": 1027, "nex": 1028, "\u0120models": 1029, "ersity": 1030, "\u0120projec": 1031, "\u0120enter": 1032, "eg": 1033, "tif": 1034, "\u0120auth": 1035, "\u0120car": 1036, "ven": 1037, "\u0120specific": 1038, "\u0120actions": 1039, "\u0120most": 1040, "ount": 1041, "\u0120online": 1042, "\u012010": 1043, "\u0120waste": 1044, "overn": 1045, "ety": 1046, "\u0120international": 1047, "pris": 1048, "\u0120sur": 1049, "\u0120benef": 1050, "\u0120ra": 1051, "\u0120import": 1052, "edi": 1053, "\u0120/": 1054, "\u0120agric": 1055, "ction": 1056, "resent": 1057, "\u0120annex": 1058, "\u0120abo": 1059, "\u0120consi": 1060, "ili": 1061, "\u0120number": 1062, "\u0120one": 1063, "itor": 1064, "\u0120approach": 1065, "uncil": 1066, "pt": 1067, "\u0120council": 1068, "ised": 1069, "lig": 1070, "ans": 1071, "ights": 1072, "ble": 1073, "cus": 1074, "\u0120partners": 1075, "amp": 1076, "\u0120fut": 1077, "\u0120grou": 1078, "\u0120act": 1079, "ry": 1080, "\u0120process": 1081, "\u0120ty": 1082, "\u0120technologies": 1083, "\u0120fig": 1084, "\u0120training": 1085, "ass": 1086, "tical": 1087, "\u0120related": 1088, "\u0120lab": 1089, "\u0120been": 1090, "acts": 1091, "red": 1092, "pl": 1093, "\u0120those": 1094, "\u0120projects": 1095, "\u0120hel": 1096, "\u0120used": 1097, "\u0120main": 1098, "oc": 1099, "\u0120across": 1100, "\u0120i": 1101, "tain": 1102, "\u0120key": 1103, "\u0120analysis": 1104, "ite": 1105, "econom": 1106, "lu": 1107, "ablish": 1108, "\u0120water": 1109, "ection": 1110, "\u0120enterpris": 1111, "\u0120fur": 1112, "\u0120financial": 1113, "\u0120objec": 1114, "\u0120while": 1115, "\u0120author": 1116, "\u0120grow": 1117, "oper": 1118, "\u0120establish": 1119, "\u0120low": 1120, "\u0120circ": 1121, "\u0120proposals": 1122, "\u0120future": 1123, "\u0120dep": 1124, "\u0120perform": 1125, "etwork": 1126, "\u0120industry": 1127, "\u0120term": 1128, "\u0120share": 1129, "01": 1130, "\u0120but": 1131, "\u0120page": 1132, "\u0120addition": 1133, "\u0120sectors": 1134, "\u0120acces": 1135, "\u0120value": 1136, "\u0120promot": 1137, "\u0120network": 1138, "\u0120companies": 1139, "\u0120further": 1140, "tal": 1141, "\u0120eng": 1142, "\u0120pot": 1143, "\u0120conc": 1144, "allen": 1145, "\u0120general": 1146, "\u0120reduc": 1147, "\u0120pur": 1148, "19": 1149, "ted": 1150, "\u0120identif": 1151, "\u0120sch": 1152, "\u0120challen": 1153, "\u0120solutions": 1154, "\u0120lar": 1155, "ledge": 1156, "sibility": 1157, "\u0120adv": 1158, "00": 1159, "ited": 1160, "\u0120fir": 1161, "\u0120respon": 1162, "\u0120million": 1163, "\u0120workers": 1164, "odiv": 1165, "\u0120efficiency": 1166, "\u0120could": 1167, "to": 1168, "\u0120stud": 1169, "emic": 1170, "\u0120govern": 1171, "\u0120ext": 1172, "\u0120stake": 1173, "ered": 1174, "\u0120cur": 1175, "\u0120mul": 1176, "ice": 1177, "\u0120project": 1178, "\u0120only": 1179, "ines": 1180, "ld": 1181, "\u0120pos": 1182, "struct": 1183, "\u0120experi": 1184, "\u0120cr": 1185, "egr": 1186, "\u0120peop": 1187, "ax": 1188, "ial": 1189, "\u0120knowledge": 1190, "\u0120tools": 1191, "air": 1192, "\u0120areas": 1193, "tern": 1194, "\u0120integr": 1195, "\u0120particip": 1196, "\u0120stand": 1197, "\u0120implementation": 1198, "--": 1199, "\u0120within": 1200, "\u0120resili": 1201, "graph": 1202, "\u0120natural": 1203, "\u0120fore": 1204, "pport": 1205, "\u0120educ": 1206, "\u0120needs": 1207, "based": 1208, "\u0120investment": 1209, "\u0120exist": 1210, "\u0120regional": 1211, "\u0120help": 1212, "ness": 1213, "own": 1214, "ods": 1215, "ade": 1216, "\u0120people": 1217, "issions": 1218, "ender": 1219, "\u0120total": 1220, "\u0120ach": 1221, "\u0120covid": 1222, "\u0120topic": 1223, "\u0120time": 1224, "ules": 1225, "\u0120design": 1226, "cu": 1227, "\u0120would": 1228, "\u0120were": 1229, "\u0120rem": 1230, "ink": 1231, "\u0120achie": 1232, "\u0120figure": 1233, "her": 1234, "\u0120potential": 1235, "\u0120examp": 1236, "\u0120wor": 1237, "tices": 1238, "ide": 1239, "\u0120service": 1240, "\u0120production": 1241, "\u0120requirements": 1242, "emp": 1243, "out": 1244, "\u0120x": 1245, "\u0120any": 1246, "\u0120when": 1247, "\u0120li": 1248, "ost": 1249, "rent": 1250, "\u0120adop": 1251, "\u0120improve": 1252, "vision": 1253, "\u0120circular": 1254, "\u0120eur": 1255, "iter": 1256, "ced": 1257, "27": 1258, "tivity": 1259, "\u0120fe": 1260, "ults": 1261, "\u0120priv": 1262, "\u0120impacts": 1263, "\u0120apply": 1264, "\u0120increase": 1265, "pportun": 1266, "\u0120about": 1267, "\u0120them": 1268, "\u0120det": 1269, "atives": 1270, "\u0120meth": 1271, "\u0120sign": 1272, "\u0120opportun": 1273, "\u0120bud": 1274, "\u0120biodiv": 1275, "\u0120protection": 1276, "\u0120include": 1277, "\u0120users": 1278, "\u0120some": 1279, "\u0120cer": 1280, "\u0120gender": 1281, "\u0120working": 1282, "\u0120state": 1283, "\u0120regions": 1284, "\u0120air": 1285, "fore": 1286, "ined": 1287, "\u0120infra": 1288, "li": 1289, "\u0120proposal": 1290, "\u0120cultural": 1291, "\u0120policies": 1292, "\u0120biodiversity": 1293, "\u0120practices": 1294, "bon": 1295, "ved": 1296, "\u0120labour": 1297, "\u0120world": 1298, "\u0120budget": 1299, "\u0120fi": 1300, "\u0120infrastruct": 1301, "land": 1302, "atis": 1303, "ays": 1304, "rial": 1305, "\u0120bet": 1306, "\u0120final": 1307, "\u0120contribute": 1308, "\u0120source": 1309, "ilities": 1310, "\u0120consumption": 1311, "ting": 1312, "\u0120results": 1313, "\u0120tw": 1314, "\u0120agriculture": 1315, "\u0120current": 1316, "\u0120better": 1317, "olo": 1318, "\u0120end": 1319, "\u0120vari": 1320, "\u0120funding": 1321, "round": 1322, "\u0120cooper": 1323, "\u0120small": 1324, "\u0120bas": 1325, "\u0120multi": 1326, "\u0120focus": 1327, "\u0120take": 1328, "\u0120af": 1329, "\u0120costs": 1330, "ages": 1331, "\u0120fu": 1332, "\u0120who": 1333, "\u0120surve": 1334, "ten": 1335, "\u0120provided": 1336, "\u0120saf": 1337, "wards": 1338, "\u0120statis": 1339, "\u0120assessment": 1340, "lia": 1341, "\u0120monitor": 1342, "ware": 1343, "ang": 1344, "\u0120min": 1345, "\u0120parlia": 1346, "\u0120techn": 1347, "\u0120risk": 1348, "\u0120sing": 1349, "\u0120indi": 1350, "\u0120dist": 1351, "\u0120organis": 1352, "\u0120education": 1353, "\u0120platforms": 1354, "\u0120del": 1355, "\u012012": 1356, "\u0120cle": 1357, "\u0120enterprises": 1358, "\u0120tre": 1359, "use": 1360, "\u0120lim": 1361, "\u0120parliament": 1362, "\u0120long": 1363, "\u0120existing": 1364, "\u0120growth": 1365, "\u0120vi": 1366, "\u0120account": 1367, "\u0120sim": 1368, "\u0120aim": 1369, "ext": 1370, "pri": 1371, "ensive": 1372, "\u0120our": 1373, "duce": 1374, "atory": 1375, "\u0120form": 1376, "\u0120order": 1377, "\u0120mobility": 1378, "holders": 1379, "\u0120sci": 1380, "urb": 1381, "\u0120desc": 1382, "\u0120single": 1383, "\u0120see": 1384, "cc": 1385, "\u0120iss": 1386, "\u0120aff": 1387, "\u0120prof": 1388, "\u0120industrial": 1389, "\u0120stakeholders": 1390, "\u0120rules": 1391, "\u0120contribution": 1392, "cing": 1393, "\u0120allow": 1394, "ha": 1395, "\u0120cor": 1396, "\u0120communication": 1397, "ouse": 1398, "\u0120legal": 1399, "ll": 1400, "eren": 1401, "\u0120appropri": 1402, "\u0120farm": 1403, "\u0120authorities": 1404, "\u0120large": 1405, "\u0120capac": 1406, "oun": 1407, "lab": 1408, "ty": 1409, "\u0120direct": 1410, "\u0120important": 1411, "\u0120challenges": 1412, "\u0120make": 1413, "ever": 1414, "\u0120ver": 1415, "up": 1416, "\u0120ful": 1417, "ern": 1418, "\u0120call": 1419, "ian": 1420, "\u0120lead": 1421, "stand": 1422, "\u012020": 1423, "\u0120levels": 1424, "\u0120consider": 1425, "\u0120towards": 1426, "andemic": 1427, "\u0120opportunities": 1428, "\u0120estim": 1429, "\u012015": 1430, "ences": 1431, "\u0120using": 1432, "ale": 1433, "\u0120docu": 1434, "\u0120accessibility": 1435, "\u0120cent": 1436, "\u0120common": 1437, "\u0120appropriate": 1438, "asing": 1439, "\u0120recover": 1440, "\u0120example": 1441, "\u0120infrastructure": 1442, "\u0120tax": 1443, "\u0120compe": 1444, "\u0120businesses": 1445, "\u0120however": 1446, "\u0120performance": 1447, "verage": 1448, "\u0120you": 1449, "\u0120emissions": 1450, "ft": 1451, "\u0120vis": 1452, "economy": 1453, "gth": 1454, "og": 1455, "\u0120peri": 1456, "\u0120digitalisation": 1457, "\u0120quality": 1458, "bi": 1459, "\u0120first": 1460, "soci": 1461, "\u0120private": 1462, "urban": 1463, "\u0120least": 1464, "\u0120lif": 1465, "\u0120review": 1466, "\u0120sme": 1467, "\u012014": 1468, "\u0120port": 1469, "\u0120persons": 1470, "\u0120cooperation": 1471, "\u0120table": 1472, "\u0120inclu": 1473, "\u0120oblig": 1474, "aring": 1475, "\u0120bioeconomy": 1476, "ases": 1477, "\u0120mater": 1478, "\u0120rights": 1479, "lection": 1480, "pr": 1481, "\u0120signific": 1482, "\u0120stren": 1483, "\u0120pop": 1484, "\u0120case": 1485, "\u0120pandemic": 1486, "\u0120strength": 1487, "\u0120competi": 1488, "ger": 1489, "\u0120regul": 1490, "inations": 1491, "labor": 1492, "mes": 1493, "\u0120lear": 1494, "\u0120effective": 1495, "ful": 1496, "\u0120supply": 1497, "tice": 1498, "\u0120consumers": 1499, "\u0120guid": 1500, "gical": 1501, "\u0120nec": 1502, "\u0120resilience": 1503, "\u0120industries": 1504, "sh": 1505, "\u0120each": 1506, "\u0120both": 1507, "\u0120bec": 1508, "isl": 1509, "\u0120significant": 1510, "min": 1511, "\u0120exce": 1512, "\u0120associ": 1513, "\u0120z": 1514, "\u0120technical": 1515, "\u0120consumer": 1516, "\u0120recovery": 1517, "\u0120point": 1518, "\u0120transform": 1519, "\u0120demand": 1520, "\u0120provision": 1521, "\u0120contin": 1522, "ains": 1523, "\u0120recomm": 1524, "clud": 1525, "\u0120ma": 1526, "\u0120ph": 1527, "ange": 1528, "\u0120partnership": 1529, "\u0120recommend": 1530, "\u0120down": 1531, "pre": 1532, "uation": 1533, "\u0120must": 1534, "\u0120accomm": 1535, "\u0120clo": 1536, "ower": 1537, "\u0120society": 1538, "\u0120accommod": 1539, "\u0120destinations": 1540, "ilit": 1541, "\u0120regard": 1542, "\u0120understand": 1543, "\u0120among": 1544, "ared": 1545, "\u0120product": 1546, "\u0120necess": 1547, "pes": 1548, "\u0120possible": 1549, "\u0120organisations": 1550, "\u0120capacity": 1551, "\u0120cities": 1552, "\u0120promote": 1553, "\u0120criter": 1554, "\u0120means": 1555, "\u0120law": 1556, "\u0120made": 1557, "\u0120fair": 1558, "ulner": 1559, "\u0120compet": 1560, "\u0120pri": 1561, "sid": 1562, "ep": 1563, "\u0120pat": 1564, "ict": 1565, "\u0120innovative": 1566, "\u0120vulner": 1567, "ising": 1568, "\u012011": 1569, "\u0120if": 1570, "\u0120urban": 1571, "\u0120short": 1572, "\u0120instit": 1573, "\u012017": 1574, "new": 1575, "urs": 1576, "\u0120monitoring": 1577, "put": 1578, "\u0120start": 1579, "\u0120represent": 1580, "lex": 1581, "\u0120legisl": 1582, "ke": 1583, "\u0120objectives": 1584, "\u0120schem": 1585, "\u0120gran": 1586, "\u0120elect": 1587, "\u0120sum": 1588, "\u0120terms": 1589, "\u0120-": 1590, "\u0120link": 1591, "\u0120collabor": 1592, "\u0120benefits": 1593, "\u0120strategies": 1594, "ging": 1595, "\u0120poll": 1596, "\u0120many": 1597, "\u0120eval": 1598, "force": 1599, "\u0120medi": 1600, "\u0120commit": 1601, "\u0120same": 1602, "comes": 1603, "\u0120initiative": 1604, "\u0120type": 1605, "\u0120period": 1606, "\u0120criteria": 1607, "\u0120invol": 1608, "\u0120technology": 1609, "\u0120around": 1610, "\u0120second": 1611, "\u0120smart": 1612, "\u0120country": 1613, "\u0120buildings": 1614, "\u0120carbon": 1615, "ug": 1616, "term": 1617, "\u0120open": 1618, "\u0120destination": 1619, "elf": 1620, "ants": 1621, "\u0120accommodation": 1622, "\u0120tr": 1623, "minist": 1624, "ple": 1625, "\u0120deal": 1626, "aged": 1627, "\u0120facilit": 1628, "\u0120nature": 1629, "\u0120initiatives": 1630, "\u0120outcomes": 1631, "\u0120area": 1632, "\u0120role": 1633, "\u0120describ": 1634, "\u0120years": 1635, "\u0120inst": 1636, "\u0120conn": 1637, "\u012013": 1638, "\u0120does": 1639, "\u0120med": 1640, "\u0120prior": 1641, "\u0120administ": 1642, "\u0120mic": 1643, "\u0120contr": 1644, "\u0120necessary": 1645, "par": 1646, "ason": 1647, "\u0120increased": 1648, "\u0120ecosystems": 1649, "\u0120fact": 1650, "\u0120sit": 1651, "\u0120enc": 1652, "\u0120investments": 1653, "agraph": 1654, "te": 1655, "ank": 1656, "vidu": 1657, "\u0120due": 1658, "\u0120providing": 1659, "\u0120cris": 1660, "\u0120study": 1661, "ustom": 1662, "\u0120indicators": 1663, "stat": 1664, "\u0120deli": 1665, "ini": 1666, "\u0120ow": 1667, "ird": 1668, "\u0120individu": 1669, "\u0120renew": 1670, "\u0120enh": 1671, "\u0120additional": 1672, "ices": 1673, "\u0120model": 1674, "\u0120char": 1675, "ind": 1676, "itiz": 1677, "\u0120custom": 1678, "\u0120pay": 1679, "dg": 1680, "\u0120bar": 1681, "\u0120increasing": 1682, "\u0120achieve": 1683, "employ": 1684, "\u0120reduce": 1685, "\u0120land": 1686, "\u0120acce": 1687, "ling": 1688, "medi": 1689, "su": 1690, "\u0120context": 1691, "loc": 1692, "ope": 1693, "\u0120gap": 1694, "\u0120indicative": 1695, "erence": 1696, "\u0120statistics": 1697, "\u0120strengthen": 1698, "\u0120show": 1699, "\u0120micro": 1700, "\u0120identify": 1701, "\u0120population": 1702, "\u0120pack": 1703, "abilities": 1704, "\u0120standards": 1705, "roduc": 1706, "ru": 1707, "\u0120december": 1708, "\u0120eurostat": 1709, "read": 1710, "\u0120webs": 1711, "acy": 1712, "\u0120scope": 1713, "\u0120cook": 1714, "\u0120agree": 1715, "\u0120citiz": 1716, "\u0120stron": 1717, "\u012016": 1718, "rop": 1719, "reg": 1720, "urity": 1721, "\u0120overall": 1722, "\u0120obs": 1723, "ibility": 1724, "anced": 1725, "\u0120present": 1726, "\u0120survey": 1727, "\u0120encour": 1728, "\u0120ann": 1729, "\u0120jobs": 1730, "cies": 1731, "\u0120oct": 1732, "eld": 1733, "\u0120medium": 1734, "\u0120group": 1735, "\u0120rural": 1736, "\u0120proced": 1737, "\u0120instru": 1738, "ator": 1739, "\u0120application": 1740, "%)": 1741, "inci": 1742, "\u0120third": 1743, "\u0120beha": 1744, "ize": 1745, "\u0120func": 1746, "\u0120her": 1747, "erred": 1748, "ring": 1749, "\u0120method": 1750, "\u0120two": 1751, "\u0120hum": 1752, "\u0120offer": 1753, "\u0120observ": 1754, "cent": 1755, "ii": 1756, "\u0120gate": 1757, "\u0120programmes": 1758, "\u0120purp": 1759, "ounts": 1760, "ral": 1761, "eness": 1762, "equ": 1763, "\u0120behavi": 1764, "\u0120giv": 1765, "\u0120less": 1766, "ober": 1767, "\u0120required": 1768, "\u0120described": 1769, "\u0120..": 1770, "\u0120during": 1771, "df": 1772, "\u0120sharing": 1773, "uct": 1774, "\u0120lack": 1775, "\u0120princi": 1776, "atic": 1777, "\u0120coord": 1778, "\u012018": 1779, "\u0120consult": 1780, "\u0120sw": 1781, "\u0120needed": 1782, "\u0120october": 1783, "\u0120vol": 1784, "\u012030": 1785, "icial": 1786, "tiveness": 1787, "angu": 1788, "\u0120best": 1789, "\u0120house": 1790, "\u0120conf": 1791, "ether": 1792, "ables": 1793, "\u0120deliver": 1794, "\u0120line": 1795, "\u0120higher": 1796, "\u0120issues": 1797, "kee": 1798, "\u0120options": 1799, "\u0120life": 1800, "\u0120developed": 1801, "\u0120cy": 1802, "\u0120crisis": 1803, "ees": 1804, "\u0120langu": 1805, "\u0120governance": 1806, "\u0120like": 1807, "av": 1808, "\u0120dom": 1809, "see": 1810, "\u012019": 1811, "itig": 1812, "\u0120reduction": 1813, "\u0120struct": 1814, "\u0120request": 1815, "\u0120measure": 1816, "\u0120therefore": 1817, "\u0120trade": 1818, "\u0120community": 1819, "\u0120targets": 1820, "ptions": 1821, "\u0120effects": 1822, "\u0120depend": 1823, "itage": 1824, "\u0120att": 1825, "\u0120cookies": 1826, "one": 1827, "ints": 1828, "\u0120city": 1829, "ler": 1830, "\u0120markets": 1831, "\u0120summ": 1832, "\u0120loss": 1833, "pects": 1834, "\u0120groups": 1835, "\u0120gatekee": 1836, "\u0120renov": 1837, "\u0120what": 1838, "\u0120tourist": 1839, "lected": 1840, "\u0120making": 1841, "\u0120clust": 1842, "\u0120equality": 1843, "aken": 1844, "\u0120distrib": 1845, "\u0120meet": 1846, "ible": 1847, "\u012050": 1848, "\u0120tri": 1849, "\u0120operators": 1850, "\u0120concern": 1851, "\u0120view": 1852, "\u0120ge": 1853, "\u0120aware": 1854, "\u0120self": 1855, "rol": 1856, "\u0120ess": 1857, "til": 1858, "\u0120ear": 1859, "\u0120inclusive": 1860, "\u0120result": 1861, "ials": 1862, "\u0120pass": 1863, "\u0120comb": 1864, "\u0120place": 1865, "\u0120human": 1866, "\u0120mitig": 1867, "\u0120lat": 1868, "\u0120rest": 1869, "\u0120changes": 1870, "ood": 1871, "\u0120safety": 1872, "\u012025": 1873, "\u0120search": 1874, "\u0120plans": 1875, "\u0120risks": 1876, "\u0120supporting": 1877, "\u0120citizens": 1878, "ably": 1879, "\u0120reporting": 1880, "\u0120processes": 1881, "\u0120maj": 1882, "reh": 1883, "\u0120three": 1884, "\u0120altern": 1885, "\u0120consid": 1886, "\u0120compreh": 1887, "ffici": 1888, "\u0120personal": 1889, "\u0120behaviour": 1890, "go": 1891, "\u0120compared": 1892, "\u0120emer": 1893, "\u0120fuels": 1894, "encies": 1895, "\u0120elig": 1896, "\u0120minim": 1897, "\u0120major": 1898, "\u0120capital": 1899, "ently": 1900, "\u0120paragraph": 1901, "aging": 1902, "\u0120pres": 1903, "\u0120internal": 1904, "\u0120percent": 1905, "\u0120learning": 1906, "\u0120comprehensive": 1907, "\u0120way": 1908, "\u0120sources": 1909, "\u0120detail": 1910, "\u0120contact": 1911, "\u0120space": 1912, "rel": 1913, "\u0120effort": 1914, "\u0120experience": 1915, "\u0120introduc": 1916, "\u0120entre": 1917, "\u0120understanding": 1918, "gic": 1919, "ive": 1920, "\u012021": 1921, "\u0120play": 1922, "\u0120autom": 1923, "viation": 1924, "amb": 1925, "\u0120create": 1926, "\u0120certain": 1927, "\u0120being": 1928, "\u0120media": 1929, "elling": 1930, "road": 1931, "\u0120tur": 1932, "\u0120materials": 1933, "xt": 1934, "\u0120les": 1935, "\u0120schemes": 1936, "\u0120household": 1937, "ero": 1938, "ires": 1939, "\u0120sy": 1940, "\u0120defined": 1941, "\u0120average": 1942, "ily": 1943, "\u0120accord": 1944, "\u0120subm": 1945, "hic": 1946, "\u0120cal": 1947, "\u0120pollution": 1948, "\u0120cross": 1949, "\u0120ret": 1950, "\u0120developing": 1951, "\u0120score": 1952, "\u0120planning": 1953, "\u012022": 1954, "\u0120heritage": 1955, "\u0120field": 1956, "\u0120strong": 1957, "\u0120function": 1958, "\u0120el": 1959, "\u0120intermedi": 1960, "\u0120actors": 1961, "\u0120without": 1962, "\u0120disabilities": 1963, "\u0120essential": 1964, "day": 1965, "ortion": 1966, "\u0120providers": 1967, "\u0120ter": 1968, "\u0120transp": 1969, "ccess": 1970, "\u0120accordance": 1971, "aries": 1972, "\u0120communities": 1973, "\u0120fl": 1974, "\u0120cho": 1975, "\u0120your": 1976, "\u0120saving": 1977, "\u0120womens": 1978, "lands": 1979, "\u0120percentage": 1980, "\u0120success": 1981, "emb": 1982, "enari": 1983, "\u012024": 1984, "\u0120section": 1985, "\u0120security": 1986, "\u0120integrated": 1987, "\u0120trend": 1988, "\u0120given": 1989, "\u0120passen": 1990, "\u0120particularly": 1991, "ings": 1992, "\u0120compli": 1993, "\u0120build": 1994, "ward": 1995, "\u0120aviation": 1996, "\u0120liv": 1997, "echan": 1998, "\u0120road": 1999, "\u0120implementing": 2000, "\u0120goods": 2001, "\u0120limited": 2002, "come": 2003, "sc": 2004, "\u0120mat": 2005, "\u0120plas": 2006, "\u0120strategic": 2007, "\u0120certif": 2008, "aces": 2009, "\u0120,": 2010, "estic": 2011, "\u0120list": 2012, "gether": 2013, "\u0120scenari": 2014, "vers": 2015, "ets": 2016, "\u0120explo": 2017, "uf": 2018, "\u0120month": 2019, "\u0120individual": 2020, "\u0120mechan": 2021, "\u0120finance": 2022, "\u0120special": 2023, "ough": 2024, "\u0120again": 2025, "\u0120awareness": 2026, "\u0120posi": 2027, "\u0120referred": 2028, "\u0120approaches": 2029, "\u0120ensuring": 2030, "\u0120clear": 2031, "\u0120often": 2032, "ording": 2033, "\u0120next": 2034, "\u0120undert": 2035, "prene": 2036, "\u0120methodolo": 2037, "ograph": 2038, "\u0120own": 2039, "\u0120reach": 2040, "struction": 2041, "con": 2042, "\u0120ve": 2043, "\u0120barri": 2044, "ration": 2045, "\u0120provides": 2046, "\u0120lower": 2047, "\u0120obligations": 2048, "\u0120together": 2049, "\u0120content": 2050, "\u0120control": 2051, "\u0120annual": 2052, "\u012028": 2053, "\u0120document": 2054, "\u0120considered": 2055, "dp": 2056, "order": 2057, "\u0120real": 2058, "\u0120sever": 2059, "\u0120adopted": 2060, "erest": 2061, "\u0120relations": 2062, "\u0120basis": 2063, "\u0120entreprene": 2064, "\u0120restr": 2065, "\u0120added": 2066, "\u0120driv": 2067, "\u0120user": 2068, "\u0120clean": 2069, "ready": 2070, "vention": 2071, "ession": 2072, "gener": 2073, "uly": 2074, "\u0120already": 2075, "\u0120science": 2076, "\u0120joint": 2077, "\u0120compliance": 2078, "\u0120billion": 2079, "\u0120includes": 2080, "\u0120interest": 2081, "\u0120legislation": 2082, "\u0120mechanis": 2083, "\u0120renewable": 2084, "\u0120improving": 2085, "sa": 2086, "\u0120ip": 2087, "uting": 2088, "\u0120good": 2089, "\u0120applications": 2090, "\u0120contract": 2091, "\u0120aspects": 2092, "\u0120methods": 2093, "\u0120renovation": 2094, "stan": 2095, "\u0120hot": 2096, "\u0120etc": 2097, "\u0120assist": 2098, "\u0120proposed": 2099, "\u0120size": 2100, "\u0120employees": 2101, "\u0120camb": 2102, "\u0120benefit": 2103, "\u0120resid": 2104, "\u0120transformation": 2105, "ina": 2106, "mental": 2107, "\u0120active": 2108, "\u0120scale": 2109, "\u0120types": 2110, "\u0120various": 2111, "\u0120stat": 2112, "\u0120appl": 2113, "economic": 2114, "\u012027": 2115, "\u0120publish": 2116, "\u0120several": 2117, "'s": 2118, "be": 2119, "\u0120ser": 2120, "\u0120prog": 2121, "\u0120respect": 2122, "\u0120tourists": 2123, "ufact": 2124, "au": 2125, "\u0120................": 2126, "\u0120construction": 2127, "\u0120met": 2128, "\u0120points": 2129, "\u0120defini": 2130, "ension": 2131, "\u0120regulatory": 2132, "\u0120evaluation": 2133, "\u0120full": 2134, "\u0120put": 2135, "\u012026": 2136, "\u0120fuel": 2137, "ially": 2138, "of": 2139, "orate": 2140, "une": 2141, "que": 2142, "\u0120taken": 2143, "\u0120rece": 2144, "\u0120facilitate": 2145, "wto": 2146, "\u0120bl": 2147, "\u0120regarding": 2148, "\u0120activity": 2149, "ock": 2150, "\u0120culture": 2151, "\u0120men": 2152, "\u0120read": 2153, "\u0120studies": 2154, "related": 2155, "\u0120tf": 2156, "\u0120core": 2157, "pecially": 2158, "\u0120),": 2159, "\u012023": 2160, "iance": 2161, "\u0120ict": 2162, "\u0120broad": 2163, "arant": 2164, "\u012031": 2165, "ending": 2166, "onstr": 2167, "erman": 2168, "\u0120savings": 2169, "ering": 2170, "\u0120news": 2171, "\u0120applicable": 2172, "\u0120addressed": 2173, "aff": 2174, "\u0120demonstr": 2175, "\u0120socio": 2176, "\u0120zero": 2177, "\u0120selection": 2178, "board": 2179, "\u0120government": 2180, "rid": 2181, "\u0120mob": 2182, "sif": 2183, "acter": 2184, "\u0120sump": 2185, "ically": 2186, "making": 2187, "online": 2188, "\u0120sin": 2189, "\u0120reason": 2190, "sel": 2191, "\u0120recy": 2192, "\u0120documents": 2193, "\u0120website": 2194, "\u0120restric": 2195, "\u0120incen": 2196, "\u0120cambod": 2197, "\u0120)": 2198, "\u0120au": 2199, "\u0120income": 2200, "\u0120practice": 2201, "\u0120participation": 2202, "\u0120forest": 2203, "\u0120agricultural": 2204, "\u0120package": 2205, "\u0120against": 2206, "\u0120barriers": 2207, "zed": 2208, "\u0120manufact": 2209, "\u0120procure": 2210, "\u0120enforce": 2211, "\u0120highl": 2212, "\u0120exch": 2213, "\u0120empower": 2214, "\u0120status": 2215, "10": 2216, "\u0120upd": 2217, "\u0120path": 2218, "\u0120character": 2219, "\u0120entrepreneurs": 2220, "\u0120hol": 2221, "\u0120cover": 2222, "\u0120according": 2223, "\u0120poli": 2224, "\u0120generation": 2225, "\u0120affected": 2226, "rac": 2227, "\u0120taking": 2228, "\u0120gdp": 2229, "\u0120colle": 2230, "\u0120ca": 2231, "\u0120bal": 2232, "ilar": 2233, "\u0120english": 2234, "\u0120especially": 2235, "\u0120distribution": 2236, "\u0120efforts": 2237, "ats": 2238, "\u0120wide": 2239, "\u0120harm": 2240, "elines": 2241, "\u0120after": 2242, "\u0120recycl": 2243, "...": 2244, "\u0120oce": 2245, "\u0120big": 2246, "\u0120prim": 2247, "\u0120responsible": 2248, "co": 2249, "\u0120fre": 2250, "\u0120prev": 2251, "\u0120whether": 2252, "\u0120alternative": 2253, "\u0120standard": 2254, "\u0120similar": 2255, "\u012029": 2256, "\u0120organiz": 2257, "\u0120accessible": 2258, "\u0120networks": 2259, "\u0120chains": 2260, "\u0120respond": 2261, "\u0120fish": 2262, "\u0120home": 2263, "\u0120range": 2264, "\u0120bod": 2265, "ective": 2266, "side": 2267, "\u012055": 2268, "\u0120guidelines": 2269, "\u0120slo": 2270, "\u0120german": 2271, "\u0120jan": 2272, "\u0120july": 2273, "\u0120expl": 2274, "\u0120established": 2275, "\u0120linked": 2276, "60": 2277, "\u0120guarant": 2278, "\u0120promoting": 2279, "\u0120procedure": 2280, "way": 2281, "rative": 2282, "ended": 2283, "\u0120fost": 2284, "\u0120reference": 2285, "\u0120financing": 2286, "rench": 2287, "\u0120vulnerable": 2288, "\u0120'": 2289, "ather": 2290, "unch": 2291, "\u0120very": 2292, "\u0120calc": 2293, "\u0120bank": 2294, "sized": 2295, "\u0120before": 2296, "\u0120relative": 2297, "\u0120enab": 2298, "\u0120ques": 2299, "\u0120values": 2300, "\u0120factors": 2301, "ying": 2302, "eless": 2303, "\u0120arriv": 2304, "\u0120collection": 2305, "\u0120determ": 2306, "\u0120sal": 2307, "\u0120nor": 2308, "\u0120disc": 2309, "\u0120institutions": 2310, "\u0120cri": 2311, "\u0120age": 2312, "ronic": 2313, "overty": 2314, "\u0120estimates": 2315, "12": 2316, "oid": 2317, "\u0120#": 2318, "\u0120test": 2319, "\u0120run": 2320, "cle": 2321, "\u0120poverty": 2322, "\u0120conduc": 2323, "\u0120ste": 2324, "\u0120disp": 2325, "\u0120recommendations": 2326, "sing": 2327, "\u0120tas": 2328, "\u0120ever": 2329, "osp": 2330, "\u0120procurement": 2331, "\u0120civ": 2332, "vem": 2333, "olution": 2334, "sequ": 2335, "\u0120soft": 2336, "\u0120profession": 2337, "\u0120relationship": 2338, "\u0120evid": 2339, "euro": 2340, "take": 2341, "\u0120bring": 2342, "vered": 2343, "\u0120sti": 2344, "\u0120had": 2345, "\u0120quan": 2346, "\u0120funds": 2347, "\u0120objective": 2348, "\u0120identified": 2349, "\u0120dra": 2350, "vious": 2351, "\u0120proble": 2352, "\u0120staff": 2353, "\u0120aims": 2354, "\u0120enable": 2355, "\u0120decisions": 2356, "\u0120adopt": 2357, "\u0120terr": 2358, "ww": 2359, "\u0120jour": 2360, "\u0120domestic": 2361, "vember": 2362, "man": 2363, "\u0120cases": 2364, "\u0120du": 2365, "\u0120influ": 2366, "\u0120acceler": 2367, "tee": 2368, "\u0120committee": 2369, "\u0120administrative": 2370, "\u0120transpare": 2371, "\u0120since": 2372, "\u0120united": 2373, "\u0120desk": 2374, "\u0120analy": 2375, "\u0120partnerships": 2376, "\u0120progress": 2377, "comp": 2378, "\u0120free": 2379, "ature": 2380, "\u0120amounts": 2381, "\u0120resilient": 2382, "akers": 2383, "\u0120uptake": 2384, "\u0120differen": 2385, "\u0120enterprise": 2386, "\u0120continue": 2387, "07": 2388, "cer": 2389, "mar": 2390, "\u0120afric": 2391, "\u0120centre": 2392, "\u0120input": 2393, "\u0120eas": 2394, "\u0120chain": 2395, "gen": 2396, "\u0120ital": 2397, "\u0120below": 2398, "ervation": 2399, "\u0120march": 2400, "\u012040": 2401, "\u0120included": 2402, "\u0120events": 2403, "\u0120positive": 2404, "\u0120applied": 2405, "cluding": 2406, "\u0120sdg": 2407, "\u0120cro": 2408, "\u0120rate": 2409, "oking": 2410, "\u0120successful": 2411, "uary": 2412, "\u0120aud": 2413, "\u0120compar": 2414, "\u0120farming": 2415, "istics": 2416, "\u0120conce": 2417, "\u0120proportion": 2418, "ream": 2419, "\u0120french": 2420, "\u0120bul": 2421, "\u0120scp": 2422, "\u0120advanced": 2423, "\u0120enforcement": 2424, "\u0120availability": 2425, "\u0120importance": 2426, "\u0120care": 2427, "\u0120four": 2428, "empor": 2429, "\u0120trends": 2430, "ix": 2431, "\u0120targeted": 2432, "\u0120instruments": 2433, "\u0120power": 2434, "\u0120requires": 2435, "comm": 2436, "\u0120become": 2437, "\u0120previous": 2438, "\u0120amount": 2439, "\u0120limit": 2440, "\u0120ocean": 2441, "\u0120fran": 2442, "\u0120bel": 2443, "\u0120coh": 2444, "\u0120deploy": 2445, "\u0120pursu": 2446, "\u0120likely": 2447, "rect": 2448, "\u0120language": 2449, "\u0120minimum": 2450, "ves": 2451, "pping": 2452, "\u0120extern": 2453, "\u0120discus": 2454, "\u0120avoid": 2455, "\u0120princip": 2456, "fficient": 2457, "\u0120political": 2458, "uch": 2459, "\u0120june": 2460, "\u0120note": 2461, "\u0120reducing": 2462, "\u0120january": 2463, "endit": 2464, "\u0120company": 2465, "\u0120vehic": 2466, "\u0120still": 2467, "ins": 2468, "\u0120gas": 2469, "ified": 2470, "\u0120expendit": 2471, "\u0120recent": 2472, "\u0120communic": 2473, "\u0120associated": 2474, "\u0120resource": 2475, "\u0120even": 2476, "thers": 2477, "ellig": 2478, "99": 2479, "gest": 2480, "king": 2481, "\u0120eus": 2482, "\u0120efficient": 2483, "\u0120above": 2484, "\u0120involve": 2485, "\u0120mean": 2486, "\u0120job": 2487, "\u0120remain": 2488, "shop": 2489, "\u0120external": 2490, "\u0120hy": 2491, "ume": 2492, "\u0120just": 2493, "\u0120publications": 2494, "\u0120funded": 2495, "\u0120launch": 2496, "\u0120nut": 2497, "\u0120adequ": 2498, "\u0120exceptions": 2499, "\u0120enhance": 2500, "\u0120purpose": 2501, "\u0120plastic": 2502, "ier": 2503, "\u0120november": 2504, "\u0120bey": 2505, "\u012060": 2506, "clu": 2507, "\u0120treat": 2508, "\u0120cluster": 2509, "\u0120civil": 2510, "ups": 2511, "\u0120q": 2512, "\u0120pil": 2513, "\u0120face": 2514, "\u0120ors": 2515, "\u0120gatekeeper": 2516, "\u0120evidence": 2517, "pers": 2518, "ecting": 2519, "\u0120via": 2520, "\u0120beca": 2521, "\u0120electronic": 2522, "\u0120beyond": 2523, "\u0120others": 2524, "ighted": 2525, "\u0120undertaking": 2526, "\u0120exchange": 2527, "\u0120ability": 2528, "\u0120ded": 2529, "lements": 2530, "\u0120provisions": 2531, "\u0120collective": 2532, "\u0120parties": 2533, "\u0120complement": 2534, "\u0120marine": 2535, "\u0120electric": 2536, "\u0120mitigation": 2537, "\u0120passenger": 2538, "\u0120intellig": 2539, "\u0120heat": 2540, "\u0120implemented": 2541, "ological": 2542, "employed": 2543, "\u0120enti": 2544, "holder": 2545, "\u0120fully": 2546, "\u0120adequate": 2547, "\u0120coast": 2548, "\u012035": 2549, "\u0120creation": 2550, "\u0120grant": 2551, "\u0120arrivals": 2552, "sw": 2553, "\u0120right": 2554, "\u0120boost": 2555, "\u0120setting": 2556, "\u0120bulg": 2557, "the": 2558, "\u0120prep": 2559, "\u0120improved": 2560, "\u0120guidance": 2561, "leg": 2562, "\u0120notably": 2563, "rus": 2564, "\u0120apr": 2565, "\u0120back": 2566, "\u0120effect": 2567, "\u0120integration": 2568, "\u0120customers": 2569, "\u0120coordination": 2570, "ov": 2571, "\u0120er": 2572, "\u0120flow": 2573, "load": 2574, "\u0120consultation": 2575, "he": 2576, "\u0120instance": 2577, "\u0120principles": 2578, "ites": 2579, "\u0120prevent": 2580, "ways": 2581, "\u0120www": 2582, "employment": 2583, "\u0120decl": 2584, "\u0120greater": 2585, "\u0120response": 2586, "\u0120vulnerability": 2587, "\u0120eligibility": 2588, "house": 2589, "............": 2590, "\u0120experiences": 2591, "urance": 2592, "\u0120substan": 2593, "\u0120carri": 2594, "\u0120definition": 2595, "\u0120critical": 2596, "ques": 2597, "gor": 2598, "\u0120summary": 2599, "\u0120every": 2600, ");": 2601, "\u0120ab": 2602, "acc": 2603, "\u0120organisation": 2604, "\u0120incentives": 2605, "rc": 2606, "\u0120dim": 2607, "\u0120workshop": 2608, "\u0120unwto": 2609, "\u0120selected": 2610, "\u0120find": 2611, "\u0120competitiveness": 2612, "\u0120outcome": 2613, "oj": 2614, "pan": 2615, "\u0120rev": 2616, "\u0120concer": 2617, "\u0120accept": 2618, "including": 2619, "nover": 2620, "\u0120feed": 2621, "ned": 2622, "\u0120able": 2623, "\u0120hand": 2624, "\u0120neut": 2625, "\u0120ambi": 2626, "\u0120reported": 2627, "\u0120evalu": 2628, "going": 2629, "\u0120because": 2630, "\u0120bur": 2631, "\u0120subject": 2632, "\u0120trips": 2633, "\u0120software": 2634, "more": 2635, "ick": 2636, "\u012038": 2637, "\u0120found": 2638, "\u0120addressing": 2639, "\u0120agreements": 2640, "\u0120households": 2641, "\u0120spain": 2642, "\u0120diffic": 2643, "\u0120scoreboard": 2644, "map": 2645, "\u0120tempor": 2646, "org": 2647, "\u0120commer": 2648, "oses": 2649, "\u0120agend": 2650, "\u0120pred": 2651, "\u0120firms": 2652, "ogn": 2653, "\u0120proper": 2654, "\u0120goals": 2655, "\u0120turnover": 2656, "\u0120output": 2657, "\u0120advis": 2658, "\u0120geograph": 2659, "\u0120whole": 2660, "\u0120submission": 2661, "\u0120dedic": 2662, "urism": 2663, "etheless": 2664, "\u0120nonetheless": 2665, "\u0120expenditure": 2666, "\u0120recogn": 2667, "eric": 2668, "\u0120official": 2669, "\u0120tack": 2670, "\u0120recommendation": 2671, "\u0120restrictions": 2672, "\u0120harmon": 2673, "\u0120finding": 2674, "\u0120marketing": 2675, "%-": 2676, "den": 2677, "yn": 2678, "arbon": 2679, "\u0120estimated": 2680, "\u0120material": 2681, "clude": 2682, "\u0120intermediation": 2683, "\u0120coastal": 2684, "ses": 2685, "sia": 2686, "\u0120ship": 2687, "\u0120neg": 2688, "\u0120agreement": 2689, "other": 2690, "\u0120soil": 2691, "\u0120contain": 2692, "\u0120scientif": 2693, "\u0120competition": 2694, "98": 2695, "\u0120flo": 2696, "\u0120currently": 2697, "\u0120france": 2698, "\u0120pursuant": 2699, "\u0120lu": 2700, "riend": 2701, "\u0120sept": 2702, "\u0120interac": 2703, "\u0120relation": 2704, "\u0120gaps": 2705, "\u0120april": 2706, "pro": 2707, "\u0120net": 2708, "\u0120obligation": 2709, "\u0120continu": 2710, "\u0120losses": 2711, "ospital": 2712, "11": 2713, "\u0120decre": 2714, "\u0120organic": 2715, "\u0120drivers": 2716, "\u0120agenda": 2717, "\u0120aug": 2718, "\u0120pp": 2719, "utes": 2720, "\u0120farmers": 2721, "\u0120close": 2722, "\u0120competence": 2723, "otion": 2724, "\u0120te": 2725, "alog": 2726, "\u012032": 2727, "ived": 2728, "\u0120calcul": 2729, "\u0120press": 2730, "\u0120forms": 2731, "itime": 2732, "\u0120democ": 2733, "\u0120statistical": 2734, "\u0120pilot": 2735, "af": 2736, "time": 2737, "\u0120lin": 2738, "\u0120maritime": 2739, "\u0120greenhouse": 2740, "\u0120experts": 2741, "\u0120topics": 2742, "\u0120collaboration": 2743, "\u0120emerg": 2744, "europe": 2745, "\u0120dedicated": 2746, "ash": 2747, "\u0120uk": 2748, "rought": 2749, "arian": 2750, "\u0120stakeholder": 2751, "\u0120sales": 2752, "\u0120journ": 2753, "\u0120div": 2754, "\u012051": 2755, "\u0120alliance": 2756, "\u0120highest": 2757, "\u0120office": 2758, "\u0120rail": 2759, "cs": 2760, "ote": 2761, "\u0120qual": 2762, "\u0120portug": 2763, "\u0120living": 2764, "oration": 2765, "\u0120much": 2766, "\u0120dev": 2767, "\u0120primary": 2768, "by": 2769, "\u0120hub": 2770, "\u0120furthermore": 2771, "\u0120volume": 2772, "\u0120scientific": 2773, "):": 2774, "\u0120thus": 2775, "ancing": 2776, "\u0120species": 2777, "\u0120insurance": 2778, "\u0120roadmap": 2779, "\u0120entrepreneurship": 2780, "actor": 2781, "\u0120having": 2782, "\u0120heating": 2783, "\u0120index": 2784, "\u0120guarantee": 2785, "rations": 2786, "\u0120deb": 2787, "\u0120depart": 2788, "\u0120months": 2789, "\u0120september": 2790, "20": 2791, "less": 2792, "apter": 2793, "\u0120foot": 2794, "\u0120youn": 2795, "\u0120contributions": 2796, "\u0120central": 2797, "\u0120visit": 2798, "\u0120associations": 2799, "\u0120purposes": 2800, "greg": 2801, "\u0120aid": 2802, "ild": 2803, "oling": 2804, "\u0120circularity": 2805, "\u0120download": 2806, "\u0120legislative": 2807, "\u0120connec": 2808, "\u0120coordin": 2809, "sed": 2810, "\u0120comple": 2811, "\u0120class": 2812, "\u0120requesting": 2813, "\u0120assistance": 2814, "\u0120bodies": 2815, "\u0120site": 2816, "atures": 2817, "\u0120compon": 2818, "\u0120situation": 2819, "\u0120last": 2820, "ria": 2821, "\u0120agency": 2822, "\u0120creative": 2823, "\u0120operating": 2824, "\u0120regulations": 2825, "\u0120organization": 2826, "certain": 2827, "skill": 2828, "\u0120dm": 2829, "\u0120hospital": 2830, "\u0120multiple": 2831, "\u0120season": 2832, "\u0120move": 2833, "bound": 2834, "\u0120post": 2835, "\u0120equip": 2836, "\u0120challenge": 2837, "\u0120diversity": 2838, "\u0120elements": 2839, "\u0120tour": 2840, "\u0120hard": 2841, "\u0120ongoing": 2842, "\u012036": 2843, "\u0120jus": 2844, "\u0120optim": 2845, "\u0120leaders": 2846, "\u0120syner": 2847, "\u0120negative": 2848, "02": 2849, "ually": 2850, "reak": 2851, "\u0120complex": 2852, "\u0120scenarios": 2853, "\u0120africa": 2854, "\u0120intelligence": 2855, "esti": 2856, "\u0120notice": 2857, "pective": 2858, "\u0120structure": 2859, "\u0120concerned": 2860, "ave": 2861, "\u0120ce": 2862, "\u0120nights": 2863, "ung": 2864, "\u0120chapter": 2865, "ensity": 2866, "\u0120grants": 2867, "\u0120shows": 2868, "\u0120introduction": 2869, "\u0120recycling": 2870, "\u0120dimension": 2871, "dis": 2872, "rt": 2873, "wide": 2874, "\u0120rein": 2875, "level": 2876, "ford": 2877, "\u0120preclude": 2878, "\u0120modelling": 2879, "pdf": 2880, "alities": 2881, "ances": 2882, "\u0120wid": 2883, "\u0120align": 2884, "\u0120rates": 2885, "aster": 2886, "alf": 2887, "\u012042": 2888, "\u0120characteristics": 2889, "\u0120sen": 2890, "aling": 2891, "\u0120gra": 2892, "\u0120covered": 2893, "\u0120europes": 2894, "\u0120yout": 2895, "\u0120examples": 2896, "pid": 2897, "\u0120max": 2898, "\u0120mart": 2899, "ysical": 2900, "\u0120operational": 2901, "ativity": 2902, "\u0120ir": 2903, "tise": 2904, "\u0120memb": 2905, "ither": 2906, "\u0120alloc": 2907, "\u012045": 2908, "ification": 2909, "\u0120laid": 2910, "\u0120significantly": 2911, "\u0120retail": 2912, "\u0120methodology": 2913, "\u0120dialog": 2914, "\u012033": 2915, "................................................................": 2916, "\u0120creativity": 2917, "\u0120certification": 2918, "\u0120electricity": 2919, "ient": 2920, "\u0120cate": 2921, "\u0120step": 2922, "\u0120cour": 2923, "cipl": 2924, "\u0120agencies": 2925, "\u0120expand": 2926, "\u0120employed": 2927, "\u0120purch": 2928, "\u0120directly": 2929, "print": 2930, "\u0120published": 2931, "\u0120islands": 2932, "\u0120outside": 2933, "amic": 2934, "\u0120healthy": 2935, "\u0120presented": 2936, "inary": 2937, "\u0120pour": 2938, "\u0120ways": 2939, "though": 2940, "\u0120comput": 2941, "\u0120investi": 2942, "\u012065": 2943, "\u0120ii": 2944, "\u0120mechanisms": 2945, "\u0120vehicles": 2946, "clusion": 2947, "ib": 2948, "\u0120ed": 2949, "\u0120date": 2950, "\u0120mal": 2951, "\u012034": 2952, "\u0120accom": 2953, "\u0120assum": 2954, "\u0120functioning": 2955, "\u0120enabling": 2956, "sigh": 2957, "\u0120shif": 2958, "\u0120china": 2959, "\u0120supported": 2960, "\u0120moreover": 2961, "\u0120respective": 2962, "\u0120concerning": 2963, "\u0120journal": 2964, "\u0120tex": 2965, "\u0120flex": 2966, "\u0120priorities": 2967, "\u0120attrac": 2968, "\u0120although": 2969, "\u0120uncertain": 2970, "\u012070": 2971, "\u0120calls": 2972, "\u0120influence": 2973, "\u0120maxim": 2974, "16": 2975, "osition": 2976, "\u0120[": 2977, "\u0120cz": 2978, "\u012037": 2979, "\u0120prec": 2980, "\u0120reports": 2981, "dem": 2982, "rality": 2983, "\u0120uni": 2984, "\u0120synergies": 2985, "ame": 2986, "border": 2987, "\u0120regards": 2988, "\u012039": 2989, "\u0120spaces": 2990, "\u0120creating": 2991, "\u0120facility": 2992, "tention": 2993, "\u0120appropriately": 2994, "\u0120collaborative": 2995, "\u0120encouraged": 2996, "\u0120consist": 2997, "\u0120safe": 2998, "riendly": 2999, "\u0120equipment": 3000, "dig": 3001, "\u0120tend": 3002, "\u0120principle": 3003, "\u0120investig": 3004, "09": 3005, "\u0120pref": 3006, "\u0120americ": 3007, "\u0120promotion": 3008, "\u0120extent": 3009, "\u0120involved": 3010, "european": 3011, "just": 3012, "\u0120ap": 3013, "\u0120pap": 3014, "\u0120consequ": 3015, "\u0120emission": 3016, "\u0120texti": 3017, "\u0120stor": 3018, "\u0120diver": 3019, "\u012047": 3020, "\u0120inven": 3021, "\u0120virt": 3022, "cast": 3023, "not": 3024, "\u010d\u010a": 3025, "\u0120reven": 3026, "\u012041": 3027, "\u0120assessing": 3028, "\u0120issue": 3029, "\u0120inclusion": 3030, "\u0120priority": 3031, "\u0120customer": 3032, "\u0120encourage": 3033, "\u0120respondents": 3034, "\u0120deployment": 3035, "ta": 3036, "\u0120spe": 3037, "arity": 3038, "\u0120scheme": 3039, "\u0120task": 3040, "ists": 3041, "itation": 3042, "\u0120comply": 3043, "ports": 3044, "epend": 3045, "\u0120young": 3046, "50": 3047, "govern": 3048, "\u0120accounts": 3049, "ized": 3050, "\u0120independ": 3051, "\u012003": 3052, "\u0120privacy": 3053, "\u0120foster": 3054, "\u0120extre": 3055, "\u0120residents": 3056, "lers": 3057, "\u0120ten": 3058, "ons": 3059, "\u0120pt": 3060, "\u0120univ": 3061, "\u0120prices": 3062, "\u0120feb": 3063, "\u0120germany": 3064, "\u0120italy": 3065, "digital": 3066, "wh": 3067, "\u0120dyn": 3068, "\u0120pros": 3069, "\u0120liter": 3070, "\u0120engagement": 3071, "\u0120explore": 3072, "\u0120hyd": 3073, "ium": 3074, "porate": 3075, "\u0120cooling": 3076, "\u0120uses": 3077, "\u0120position": 3078, "\u0120event": 3079, "\u0120physical": 3080, "\u0120languages": 3081, "iques": 3082, "\u0120tues": 3083, "abit": 3084, "\u0120tuesday": 3085, "ound": 3086, "\u0120pact": 3087, "\u0120along": 3088, "\u0120articles": 3089, "\u0120reduced": 3090, "\u0120administrations": 3091, "\u0120gatekeepers": 3092, "\u0120burden": 3093, "aria": 3094, "\u0120assessments": 3095, "\u0120achieved": 3096, "\u0120websites": 3097, "\u0120mobile": 3098, "\u0120professional": 3099, "\u0120substanti": 3100, "\u0120links": 3101, "\u0120fit": 3102, "\u0120now": 3103, "\u0120another": 3104, "\u0120responses": 3105, "\u0120features": 3106, "general": 3107, "being": 3108, "\u0120transparen": 3109, "\u0120ambition": 3110, "gers": 3111, "\u0120equal": 3112, "\u0120concept": 3113, "\u0120few": 3114, "sitions": 3115, "\u0120conform": 3116, "\u0120rapid": 3117, "\u0120descri": 3118, "region": 3119, "15": 3120, "\u0120il": 3121, "\u0120hous": 3122, "ately": 3123, "\u0120datab": 3124, "\u012046": 3125, "\u0120frameworks": 3126, "\u0120transparency": 3127, "\u0120ai": 3128, "eline": 3129, "\u0120sout": 3130, "\u0120interoper": 3131, "\u0120technological": 3132, "ias": 3133, "\u0120conservation": 3134, "book": 3135, "\u0120rob": 3136, "\u0120blue": 3137, "\u0120dialogue": 3138, "\u0120accompan": 3139, "vis": 3140, "tis": 3141, "istic": 3142, "\u0120rank": 3143, "\u0120specif": 3144, "\u0120five": 3145, "\u0120competitive": 3146, "\u0120croati": 3147, "17": 3148, "fin": 3149, "ania": 3150, "\u0120mid": 3151, "ores": 3152, "\u0120web": 3153, "\u0120equity": 3154, "\u0120achieving": 3155, "\u0120structural": 3156, "\u0120scenario": 3157, "__": 3158, "\u0120might": 3159, "\u0120unemployment": 3160, "\u0120expertise": 3161, "\u0120territor": 3162, "\u0120den": 3163, "\u0120tradition": 3164, "\u0120manner": 3165, "\u0120members": 3166, "des": 3167, "\u0120revision": 3168, "\u0120basic": 3169, "\u0120procedures": 3170, "\u0120eligible": 3171, "\u0120housing": 3172, "aid": 3173, "\u0120sug": 3174, "\u0120spent": 3175, "\u0120sea": 3176, "\u0120supports": 3177, "\u0120producers": 3178, "\u0120haz": 3179, "\u0120contributing": 3180, "\u0120leading": 3181, "\u0120trust": 3182, "\u0120caus": 3183, "\u0120virtual": 3184, "\u0120border": 3185, "\u0120regist": 3186, "\u0120developments": 3187, "\u0120planet": 3188, "\u0120funda": 3189, "orders": 3190, "\u0120shared": 3191, "\u0120dynamic": 3192, "down": 3193, "na": 3194, "\u0120text": 3195, "\u012049": 3196, "\u0120offers": 3197, "\u0120participating": 3198, "\u0120cloud": 3199, "\u0120payment": 3200, "\u0120details": 3201, "\u0120manufacture": 3202, "\u0120commercial": 3203, "\u0120force": 3204, "ffic": 3205, "akes": 3206, "\u0120log": 3207, "\u0120maintain": 3208, "\u0120participate": 3209, "\u0120rom": 3210, "resp": 3211, "\u0120suppli": 3212, "sibilities": 3213, "\u0120situ": 3214, "\u0120nutri": 3215, "14": 3216, "\u0120asia": 3217, "ests": 3218, "anish": 3219, "iles": 3220, "\u0120vision": 3221, "\u0120propose": 3222, "\u0120afford": 3223, "\u0120instrument": 3224, "\u0120treatment": 3225, "\u0120der": 3226, "\u012044": 3227, "\u0120offered": 3228, "\u0120emerging": 3229, "18": 3230, "sdg": 3231, "eter": 3232, "\u0120answ": 3233, "\u0120attention": 3234, "\u0120establishing": 3235, "\u0120problems": 3236, "\u0120footprint": 3237, "\u0120mac": 3238, "ars": 3239, "\u0120usage": 3240, "\u012080": 3241, "\u0120benefici": 3242, "\u0120early": 3243, "\u0120perce": 3244, "\u0120protect": 3245, "\u0120figures": 3246, "\u0120engage": 3247, "\u0120borders": 3248, "assif": 3249, "\u012043": 3250, "\u0120changing": 3251, "\u0120operation": 3252, "\u0120cru": 3253, "\u0120competences": 3254, "\u0120communications": 3255, "\u0120here": 3256, "\u0120gen": 3257, "\u0120reflect": 3258, "\u0120balance": 3259, "\u0120hydro": 3260, "\u0120robust": 3261, "\u0120intensive": 3262, "\u0120spati": 3263, "\u0120yet": 3264, "\u0120times": 3265, "\u0120hotel": 3266, "\u0120empowerment": 3267, "\u0120temporary": 3268, "io": 3269, "orti": 3270, "\u0120carried": 3271, "sp": 3272, "\u0120dur": 3273, "itter": 3274, "stream": 3275, "\u0120util": 3276, "\u0120suit": 3277, "\u0120adjust": 3278, "vide": 3279, "\u0120price": 3280, "ventions": 3281, "\u0120pattern": 3282, "\u0120sloven": 3283, "\u0120analyse": 3284, "\u0120bulgaria": 3285, "\u0120either": 3286, "ecd": 3287, "\u0120rather": 3288, "osed": 3289, "range": 3290, "\u0120forecast": 3291, "\u0120portal": 3292, "\u0120findings": 3293, "eries": 3294, "\u0120mis": 3295, "\u0120fork": 3296, "\u0120exam": 3297, "\u0120deleg": 3298, "\u0120eco": 3299, "\u012090": 3300, "\u0120youth": 3301, "\u0120inventions": 3302, "\u0120inequ": 3303, "\u0120mig": 3304, "arter": 3305, "\u0120workforce": 3306, "\u0120transitions": 3307, "\u012052": 3308, "\u0120transf": 3309, "\u0120valid": 3310, "\u0120remote": 3311, "erences": 3312, "\u0120hospitality": 3313, "off": 3314, "\u0120oc": 3315, "\u0120gh": 3316, "\u0120acts": 3317, "\u0120resolution": 3318, "\u0120jrc": 3319, "ermost": 3320, "\u0120surveill": 3321, "\u0120considering": 3322, "\u0120install": 3323, "\u0120detailed": 3324, "\u0120\"": 3325, "\u0120get": 3326, "\u0120managed": 3327, "\u0120adoption": 3328, "\u0120latest": 3329, "\u0120submit": 3330, "verse": 3331, "\u0120debt": 3332, "\u0120sk": 3333, "\u0120edition": 3334, "\u012048": 3335, "13": 3336, "ape": 3337, "rim": 3338, "\u0120tem": 3339, "ones": 3340, "alent": 3341, "\u0120stage": 3342, "\u0120incor": 3343, "ored": 3344, "\u012053": 3345, "\u0120consorti": 3346, "\u0120useful": 3347, "\u0120swed": 3348, "eur": 3349, "ool": 3350, "\u0120insigh": 3351, "\u0120far": 3352, "arily": 3353, "raft": 3354, "\u0120aggreg": 3355, "\u0120outermost": 3356, "\u012075": 3357, "\u0120strengthening": 3358, "\u0120question": 3359, "\u0120occu": 3360, "ract": 3361, "\u0120orig": 3362, "\u0120direc": 3363, "\u0120fundamental": 3364, "bers": 3365, "face": 3366, "ming": 3367, "\u0120fall": 3368, "\u0120traffic": 3369, "\u0120obtain": 3370, "\u0120effectiveness": 3371, "tificial": 3372, "\u0120majority": 3373, "\u0120flows": 3374, "25": 3375, "\u0120pdf": 3376, "\u0120mand": 3377, "uted": 3378, "\u0120arrange": 3379, "\u0120processing": 3380, "\u0120opportunity": 3381, "ruary": 3382, "\u0120surveillance": 3383, "rs": 3384, "\u0120abs": 3385, "\u0120beh": 3386, "\u0120provider": 3387, "\u0120record": 3388, "\u0120reli": 3389, "\u0120modern": 3390, "\u0120collect": 3391, "\u0120ground": 3392, "\u0120establishments": 3393, "\u0120taxation": 3394, "\u0120flag": 3395, "\u0120geographical": 3396, "gment": 3397, "val": 3398, "\u0120award": 3399, "\u0120forward": 3400, "\u0120chec": 3401, "\u0120growing": 3402, "\u0120restoration": 3403, "generation": 3404, "\u0120conduct": 3405, "\u0120neutrality": 3406, "\u0120august": 3407, "sem": 3408, "\u0120%": 3409, "\u0120economies": 3410, "coming": 3411, "eep": 3412, "\u0120manufacturing": 3413, "\u0120flood": 3414, "\u0120traditional": 3415, "24": 3416, "makers": 3417, "\u0120artificial": 3418, "emicals": 3419, "\u0120institution": 3420, "\u0120quantit": 3421, "\u0120february": 3422, "most": 3423, "oring": 3424, "\u0120hu": 3425, "ulate": 3426, "orth": 3427, "oss": 3428, "\u0120indicator": 3429, "\u0120governments": 3430, "commer": 3431, "\u0120visitors": 3432, "\u0120leadership": 3433, "ares": 3434, "sect": 3435, "\u0120--": 3436, "\u0120host": 3437, "\u0120produced": 3438, "\u0120internet": 3439, "\u0120participants": 3440, "\u0120indirect": 3441, "\u0120harmonised": 3442, "\u0120drought": 3443, "\u0120nations": 3444, "\u0120hung": 3445, "\u0120stock": 3446, "\u0120cop": 3447, "\u012054": 3448, "\u012056": 3449, "\u0120transm": 3450, "\u0120cannot": 3451, "neut": 3452, "\u0120affect": 3453, "\u0120mechanism": 3454, "\u0120reasons": 3455, "\u0120origin": 3456, "\u0120dri": 3457, "\u0120half": 3458, "ublic": 3459, "\u0120relating": 3460, "\u0120modes": 3461, "\u0120travellers": 3462, "tified": 3463, "\u0120cambodia": 3464, "enced": 3465, "\u0120hour": 3466, "\u0120intensity": 3467, "\u0120interventions": 3468, "\u0120created": 3469, "tourism": 3470, "\u0120minist": 3471, "bio": 3472, "\u0120sites": 3473, "\u0120involvement": 3474, "food": 3475, "sk": 3476, "\u0120stim": 3477, "\u0120interview": 3478, "\u0120sectoral": 3479, "\u0120baseline": 3480, "etherlands": 3481, "\u0120automo": 3482, "\u0120cambodias": 3483, "\u0120frequ": 3484, "\u0120connectivity": 3485, "racy": 3486, "\u0120pill": 3487, "\u0120light": 3488, "\u0120parti": 3489, "\u0120sets": 3490, "\u0120societ": 3491, "\u0120simpl": 3492, "\u0120questions": 3493, "ition": 3494, "\u0120capt": 3495, "tioned": 3496, "\u0120map": 3497, "\u0120plant": 3498, "\u0120compl": 3499, "ify": 3500, "\u0120assets": 3501, "\u0120cycle": 3502, "\u0120hotels": 3503, "\u0120update": 3504, "\u0120czech": 3505, "ek": 3506, "national": 3507, "anian": 3508, "\u0120mission": 3509, "aint": 3510, "\u0120chemicals": 3511, "\u0120dissem": 3512, "\u0120improvement": 3513, "\u0120longer": 3514, "\u0120volunt": 3515, "\u0120broader": 3516, "\u0120description": 3517, "\u0120suppliers": 3518, "\u0120crucial": 3519, "\u0120tsa": 3520, "\u0120thre": 3521, "esion": 3522, "\u0120dam": 3523, "\u0120missions": 3524, "\u0120reuse": 3525, "\u0120authority": 3526, "ology": 3527, "\u0120draw": 3528, "mark": 3529, "erc": 3530, "ott": 3531, "\u0120actual": 3532, "\u0120directorate": 3533, "\u0120launched": 3534, "\u0120ghg": 3535, "\u0120acad": 3536, "\u0120regular": 3537, "\u0120keep": 3538, "\u0120manag": 3539, "\u0120publication": 3540, "\u0120overview": 3541, "\u0120solid": 3542, "\u0120contracts": 3543, "lines": 3544, "rete": 3545, "itory": 3546, "\u0120const": 3547, "\u012057": 3548, "\u0120prepar": 3549, "\u0120automated": 3550, "sels": 3551, "\u0120hubs": 3552, "21": 3553, "mis": 3554, "\u0120pan": 3555, "\u0120fr": 3556, "ece": 3557, "vere": 3558, "\u0120give": 3559, "\u0120once": 3560, "\u0120prevention": 3561, "\u0120booking": 3562, "\u0120enhanced": 3563, "\u0120choices": 3564, "\u0120declar": 3565, "\u0120components": 3566, "\u0120macro": 3567, "\u0120societal": 3568, "inion": 3569, "ona": 3570, "ison": 3571, "\u0120repe": 3572, "\u0120cohesion": 3573, "\u0120difficult": 3574, "\u0120paper": 3575, "commerce": 3576, "\u0120ple": 3577, "\u0120fer": 3578, "\u0120name": 3579, "\u0120parts": 3580, "ump": 3581, "\u0120vacc": 3582, "adapt": 3583, "\u0120opinion": 3584, "\u0120carry": 3585, "\u0120directives": 3586, "fi": 3587, "\u0120nl": 3588, "\u0120hist": 3589, "ourg": 3590, "vance": 3591, "\u0120az": 3592, "\u0120occ": 3593, "\u0120worker": 3594, "\u0120separ": 3595, "\u0120trading": 3596, "\u0120samp": 3597, "\u0120operations": 3598, "\u0120association": 3599, "\u0120latvi": 3600, "\u0120wider": 3601, "\u0120netherlands": 3602, "igure": 3603, "\u0120child": 3604, "\u0120throughout": 3605, "\u0120track": 3606, "\u0120behavioural": 3607, "\u0120patterns": 3608, "fund": 3609, "ata": 3610, "\u0120(%)": 3611, "\u0120concrete": 3612, "\u0120advice": 3613, "\u0120mobil": 3614, "\u0120highlighted": 3615, "\u0120differences": 3616, "\u0120meaning": 3617, "know": 3618, "ship": 3619, "\u0120rg": 3620, "\u0120displ": 3621, "\u0120highly": 3622, "\u0120relevance": 3623, "\u0120remains": 3624, "inking": 3625, "\u0120infrastructures": 3626, "\u0120surveys": 3627, "\u0120corporate": 3628, "\u0120identifying": 3629, "ropa": 3630, "\u0120insights": 3631, "bn": 3632, "ged": 3633, "vak": 3634, "\u0120vo": 3635, "\u0120spread": 3636, "\u0120generated": 3637, "\u0120emb": 3638, "\u0120typ": 3639, "\u0120performing": 3640, "\u0120feas": 3641, "\u0120competent": 3642, "paragraph": 3643, "\u0120emergency": 3644, "\u0120appe": 3645, "\u0120consortium": 3646, "ai": 3647, "dom": 3648, "figure": 3649, "\u0120commissions": 3650, "\u012058": 3651, "\u0120agri": 3652, "europa": 3653, "\u0120subparagraph": 3654, "\u0120collected": 3655, "\u0120perspective": 3656, "\u0120unions": 3657, "\u0120expert": 3658, "\u0120defence": 3659, "\u0120integrate": 3660, "rupt": 3661, "\u0120clusters": 3662, "\u0120listed": 3663, "lif": 3664, "\u0120school": 3665, "\u0120individuals": 3666, "\u0120passengers": 3667, "ithu": 3668, "\u0120chann": 3669, "tification": 3670, "\u0120foreign": 3671, "\u0120observation": 3672, "\u0120outputs": 3673, "\u0120diversif": 3674, "\u0120conformity": 3675, "\u0120spatial": 3676, "found": 3677, "gu": 3678, "tes": 3679, "\u0120disability": 3680, "\u0120mainstream": 3681, "\u0120slovak": 3682, "\u0120precari": 3683, "\u0120rent": 3684, "ression": 3685, "\u0120amending": 3686, "\u0120board": 3687, "\u0120thematic": 3688, "\u0120packaging": 3689, "\u0120accelerate": 3690, "\u0120university": 3691, "\u0120ill": 3692, "\u0120aqu": 3693, "\u0120airc": 3694, "\u0120past": 3695, "\u0120ee": 3696, "iting": 3697, "\u0120convention": 3698, "\u0120van": 3699, "adline": 3700, "dep": 3701, "\u0120owners": 3702, "\u0120fisheries": 3703, "xemb": 3704, "ratic": 3705, "\u0120almost": 3706, "apan": 3707, "\u0120decline": 3708, "\u0120decarbon": 3709, "\u0120quick": 3710, "\u0120robo": 3711, "\u0120forestry": 3712, "\u0120enhancing": 3713, "\u0120holid": 3714, "\u0120entire": 3715, "\u0120entities": 3716, "\u0120america": 3717, "\u0120interoperability": 3718, ".)": 3719, "06": 3720, "pol": 3721, "ton": 3722, "\u0120fa": 3723, "ises": 3724, "\u0120lithu": 3725, "emical": 3726, "\u0120adver": 3727, "\u0120param": 3728, "\u0120art": 3729, "\u0120innovations": 3730, "haus": 3731, "\u0120visitor": 3732, "lock": 3733, "\u0120problem": 3734, "\u0120tackle": 3735, "92": 3736, "ious": 3737, "\u0120vide": 3738, "\u0120makers": 3739, "urn": 3740, "\u0120code": 3741, "\u0120anim": 3742, "ides": 3743, "\u012061": 3744, "\u0120generally": 3745, "\u0120weak": 3746, "\u0120eston": 3747, "\u0120observed": 3748, "\u0120earth": 3749, "\u0120uncertainty": 3750, "\u0120storage": 3751, "\u0120extreme": 3752, "\u0120flagship": 3753, "ira": 3754, "\u0120base": 3755, "\u0120wat": 3756, "ems": 3757, "\u0120deep": 3758, "\u0120unit": 3759, "\u0120classif": 3760, "\u0120arch": 3761, "\u0120great": 3762, "\u0120environmentally": 3763, "\u0120identification": 3764, "\u0120largest": 3765, "\u0120extended": 3766, "\u0120representatives": 3767, "\u0120payments": 3768, "\u0120resulting": 3769, "\u0120series": 3770, "\u0120demonstrate": 3771, "\u0120precarious": 3772, "97": 3773, "ening": 3774, "\u0120oj": 3775, "\u0120habit": 3776, "pped": 3777, "\u0120unf": 3778, "\u0120clim": 3779, "\u0120manage": 3780, "\u0120operator": 3781, "\u0120repl": 3782, "\u0120iii": 3783, "\u0120engine": 3784, "avour": 3785, "\u0120relatively": 3786, "\u0120shift": 3787, "xembourg": 3788, "96": 3789, "po": 3790, "reed": 3791, "\u0120camp": 3792, "\u0120canary": 3793, "unced": 3794, "\u0120undertakings": 3795, "aim": 3796, "benef": 3797, "nic": 3798, "spec": 3799, "\u0120oecd": 3800, "let": 3801, "\u0120lt": 3802, "\u0120vhic": 3803, "grad": 3804, "\u0120greece": 3805, "\u0120dise": 3806, "\u0120scal": 3807, "\u0120location": 3808, "\u0120facts": 3809, "\u0120raising": 3810, "biodiv": 3811, "\u0120collaborate": 3812, "\u0120choice": 3813, "\u0120delegated": 3814, "eff": 3815, "\u0120wind": 3816, "\u0120har": 3817, "\u0120rr": 3818, "titud": 3819, "\u0120responsibility": 3820, "\u0120designed": 3821, "\u0120techniques": 3822, "28": 3823, "jo": 3824, "\u0120fam": 3825, "\u0120bat": 3826, "\u0120reform": 3827, "\u0120anno": 3828, "\u0120computing": 3829, "\u0120japan": 3830, "\u012064": 3831, "\u0120rise": 3832, "\u0120practical": 3833, "\u0120increasingly": 3834, "\u0120luxembourg": 3835, "\u0120aircraft": 3836, "cre": 3837, "eration": 3838, "\u0120dans": 3839, "atell": 3840, "iring": 3841, "\u0120implic": 3842, "\u012059": 3843, "\u0120followed": 3844, "\u0120guide": 3845, "\u0120goal": 3846, "\u0120raw": 3847, "\u0120profici": 3848, "\u0120representative": 3849, "\u0120combination": 3850, "\u0120arrangements": 3851, "por": 3852, "\u0120satell": 3853, "\u0120eth": 3854, "\u0120bra": 3855, "\u0120wave": 3856, "\u0120conclusion": 3857, "\u0120acqu": 3858, "onomy": 3859, "\u0120sex": 3860, "\u0120aged": 3861, "\u0120built": 3862, "\u0120advance": 3863, "\u0120effectively": 3864, "\u0120plastics": 3865, "\u0120certific": 3866, "\u0120computer": 3867, "\u0120database": 3868, "bur": 3869, "\u0120....": 3870, "\u0120tail": 3871, "\u0120dg": 3872, "\u0120sufficient": 3873, "\u0120select": 3874, "\u0120expect": 3875, "\u0120upon": 3876, "\u0120pathways": 3877, "\u0120portugal": 3878, "\u0120vhicules": 3879, "30": 3880, "gium": 3881, "\u0120pen": 3882, "omes": 3883, "\u0120stress": 3884, "\u0120europ": 3885, "\u0120ecc": 3886, "reshold": 3887, "\u012062": 3888, "\u0120starting": 3889, "\u0120facilitating": 3890, "\u0120advisory": 3891, "\u0120democratic": 3892, "ciplinary": 3893, "\u0120specifically": 3894, "ossil": 3895, "\u0120pillar": 3896, "pd": 3897, "\u0120brow": 3898, "\u0120reality": 3899, "\u0120prox": 3900, "aced": 3901, "\u0120exerc": 3902, "\u0120perm": 3903, "\u0120loans": 3904, "\u0120mainly": 3905, "\u0120exception": 3906, "\u0120connected": 3907, "\u0120discussion": 3908, "gorith": 3909, "\u0120categor": 3910, "\u0120independent": 3911, "\u0120literature": 3912, "\u0120situations": 3913, "\u0120transfer": 3914, "%.": 3915, "back": 3916, "how": 3917, "tm": 3918, "\u0120threshold": 3919, "\u0120sl": 3920, "\u0120forum": 3921, "\u0120ones": 3922, "\u0120algorith": 3923, "\u0120until": 3924, "\u0120greencomp": 3925, "\u0120book": 3926, "\u0120equiv": 3927, "\u0120swd": 3928, "\u0120confid": 3929, "\u0120delivery": 3930, "\u0120complete": 3931, "\u0120occup": 3932, "\u0120please": 3933, "specific": 3934, "23": 3935, "ctions": 3936, "gre": 3937, "\u0120cc": 3938, "action": 3939, "\u0120led": 3940, "lying": 3941, "\u0120near": 3942, "\u012063": 3943, "\u0120quarter": 3944, "\u0120protected": 3945, "\u0120factor": 3946, "respon": 3947, "\u0120temper": 3948, "\u0120declaration": 3949, "target": 3950, "\u0120crop": 3951, "\u0120fossil": 3952, "\u0120ecological": 3953, "\u0120looking": 3954, "\u0120systematic": 3955, "\u0120subsid": 3956, "\u012001": 3957, "\u0120variables": 3958, "\u0120offering": 3959, "\u0120mentioned": 3960, "\u0120explain": 3961, "\u0120testing": 3962, "ground": 3963, "pite": 3964, "\u0120sens": 3965, "ects": 3966, "\u0120plus": 3967, "\u0120agro": 3968, "\u0120loan": 3969, "\u0120amb": 3970, "\u0120generate": 3971, "\u0120assessed": 3972, "\u0120objectif": 3973, "\u0120fulf": 3974, "\u0120trip": 3975, "scale": 3976, "\u0120movement": 3977, "\u0120assumptions": 3978, "\u0120flexibility": 3979, "\u0120speed": 3980, "\u0120south": 3981, "\u0120slow": 3982, "\u0120despite": 3983, "\u0120entry": 3984, "\u0120syn": 3985, "\u0120received": 3986, "\u0120department": 3987, "\u0120azores": 3988, "nes": 3989, "\u0120then": 3990, "\u0120cat": 3991, "\u0120day": 3992, "\u0120lump": 3993, "compl": 3994, "\u0120circum": 3995, "\u0120conducted": 3996, "skilling": 3997, "%).": 3998, "40": 3999, "\u0120ria": 4000, "\u0120produce": 4001, "lou": 4002, "logical": 4003, "\u0120sure": 4004, "\u0120investeu": 4005, "\u0120analyses": 4006, "\u0120facilities": 4007, "\u0120improvements": 4008, "\u0120stronger": 4009, "\u0120swit": 4010, "\u0120mitigate": 4011, "\u0120consequences": 4012, "\u0120hydrogen": 4013, "\u0120inequalities": 4014, "az": 4015, "\u0120si": 4016, "\u0120san": 4017, "\u0120my": 4018, "\u0120advant": 4019, "\u0120finally": 4020, "\u0120express": 4021, "\u0120decent": 4022, "\u0120concerns": 4023, "\u0120strongly": 4024, "\u0120steps": 4025, "\u0120prepared": 4026, "neutral": 4027, "\u0120satellite": 4028, "ds": 4029, "mo": 4030, "rup": 4031, "zer": 4032, "\u0120shown": 4033, "\u0120rating": 4034, "\u0120aimed": 4035, "\u0120capacities": 4036, "\u0120renewables": 4037, "governance": 4038, "bg": 4039, "circ": 4040, "fr": 4041, "priv": 4042, "\u0120............": 4043, "engen": 4044, "\u0120exec": 4045, "\u0120willing": 4046, "\u0120king": 4047, "\u0120planned": 4048, "\u0120multim": 4049, "\u0120allows": 4050, "\u0120transparent": 4051, "\u0120decrease": 4052, "\u0120quantitative": 4053, "\u0120equivalent": 4054, "ret": 4055, "ath": 4056, "\u0120break": 4057, "\u0120mix": 4058, "\u0120wr": 4059, "acific": 4060, "\u0120datas": 4061, "\u0120digiti": 4062, "\u0120investors": 4063, "\u0120educational": 4064, "\u0120delay": 4065, "\u0120measurement": 4066, "\u0120tasks": 4067, "\u0120background": 4068, "\u0120sample": 4069, "\u0120implications": 4070, "ls": 4071, "\u0120welf": 4072, "\u0120lay": 4073, "egu": 4074, "\u0120performed": 4075, "\u0120possibility": 4076, "\u0120learn": 4077, "\u0120presents": 4078, "\u0120methodologies": 4079, "cont": 4080, "\u0120welfare": 4081, "gin": 4082, "\u0120ic": 4083, "\u0120conver": 4084, "\u0120outbound": 4085, "\u0120look": 4086, "\u0120systemic": 4087, "\u0120schengen": 4088, "\u0120seek": 4089, "disciplinary": 4090, "\u0120substantial": 4091, "\u0120territorial": 4092, "\u0120hazard": 4093, "\u0120affordable": 4094, "\u0120answers": 4095, "\u0120institutional": 4096, "\u0120capture": 4097, "%),": 4098, "aur": 4099, "\u0120paid": 4100, "\u0120dut": 4101, "\u0120done": 4102, "ita": 4103, "\u0120weighted": 4104, "\u0120bound": 4105, "\u0120mapping": 4106, "\u0120commitments": 4107, "\u0120conference": 4108, "\u0120playing": 4109, "\u0120runion": 4110, "russels": 4111, "sector": 4112, "dle": 4113, "\u0120today": 4114, "\u0120mil": 4115, "\u0120gl": 4116, "\u0120voc": 4117, "\u0120une": 4118, "\u012094": 4119, "\u0120requirement": 4120, "\u0120larger": 4121, "\u0120centres": 4122, "\u0120determine": 4123, "\u0120devices": 4124, "\u0120alignment": 4125, "\u0120martini": 4126, "\u0120revenues": 4127, "private": 4128, "\u0120multimod": 4129, "31": 4130, "\u0120........": 4131, "\u0120east": 4132, "owered": 4133, "\u0120informed": 4134, "\u0120amend": 4135, "\u0120subsequ": 4136, "\u0120refers": 4137, "\u0120projections": 4138, "\u0120rati": 4139, "\u0120applying": 4140, "\u0120landsc": 4141, "\u0120easily": 4142, "\u0120migration": 4143, "64": 4144, "carbon": 4145, "\u0120tic": 4146, "ont": 4147, "\u0120bg": 4148, "\u0120ben": 4149, "\u0120nf": 4150, "\u0120stream": 4151, "\u0120coverage": 4152, "unic": 4153, "\u0120vat": 4154, "\u0120did": 4155, "\u0120disaster": 4156, "\u0120refer": 4157, "\u0120fairness": 4158, "\u0120meeting": 4159, "\u0120receive": 4160, "\u0120pathway": 4161, "\u0120easy": 4162, "\u0120evaluate": 4163, "\u0120dissemination": 4164, "adapted": 4165, "\u0120kingdom": 4166, "ba": 4167, "hu": 4168, "ters": 4169, "\u0120bott": 4170, "oms": 4171, "\u0120places": 4172, "\u012066": 4173, "\u012095": 4174, "ateral": 4175, "\u0120applicants": 4176, "\u0120safegu": 4177, "\u0120combined": 4178, "\u0120updated": 4179, "\u0120comparison": 4180, "\u0120voluntary": 4181, "\u0120batter": 4182, "ceed": 4183, "\u0120cogeneration": 4184, "entially": 4185, "aily": 4186, "\u0120partner": 4187, "\u0120establishment": 4188, "\u0120twin": 4189, "\u0120corona": 4190, "\u0120commitment": 4191, "\u0120connect": 4192, "\u0120observations": 4193, "\u0120introduced": 4194, "\u0120territory": 4195, "\u0120hours": 4196, "\u0120categories": 4197, "break": 4198, "\u0120ng": 4199, "ulties": 4200, "ization": 4201, "\u0120increases": 4202, "\u0120secure": 4203, "ca": 4204, "ck": 4205, "roduce": 4206, "\u0120brussels": 4207, "eters": 4208, "virus": 4209, "quid": 4210, "echnolo": 4211, "\u0120disrup": 4212, "tify": 4213, "\u0120worldwide": 4214, "\u0120sciences": 4215, "iana": 4216, "\u0120consideration": 4217, "\u0120clos": 4218, "\u0120madeira": 4219, "\u0120alternatives": 4220, "\u0120choose": 4221, "\u0120highlight": 4222, "\u0120belgium": 4223, "\u0120difficulties": 4224, "\u0120ranking": 4225, "\u0120nutrition": 4226, "76": 4227, "bre": 4228, "eties": 4229, "\u0120daily": 4230, "\u0120accur": 4231, "\u0120productivity": 4232, "\u0120decade": 4233, "\u012069": 4234, "\u0120policymakers": 4235, "\u0120evolution": 4236, "\u0120version": 4237, "\u0120institute": 4238, "\u0120ships": 4239, "\u0120reinfor": 4240, "\u0120respectively": 4241, "\u0120display": 4242, "\u0120video": 4243, "\u0120rrf": 4244, "\u0120martinique": 4245, "72": 4246, "aw": 4247, "hr": 4248, "\u0120cance": 4249, "\u0120friendly": 4250, "ister": 4251, "\u0120entit": 4252, "\u0120beverage": 4253, "\u0120whose": 4254, "\u0120interpre": 4255, "\u0120fragment": 4256, "\u0120helping": 4257, "\u0120distric": 4258, "\u0120views": 4259, "\u0120contractual": 4260, "62": 4261, "cal": 4262, "jud": 4263, "right": 4264, "ulations": 4265, "\u0120stay": 4266, "otte": 4267, "\u0120works": 4268, "\u0120researchers": 4269, "\u0120clearly": 4270, "\u0120fostering": 4271, "\u0120beneficiaries": 4272, "\u0120suitable": 4273, "\u0120mandatory": 4274, "circbio": 4275, "29": 4276, "32": 4277, "pay": 4278, "\u0120ur": 4279, "\u0120ri": 4280, "\u0120saint": 4281, "\u0120pacific": 4282, "\u0120favour": 4283, "\u0120don": 4284, "itt": 4285, "\u0120attitud": 4286, "\u0120recital": 4287, "\u0120textiles": 4288, "\u0120suggest": 4289, "\u0120behind": 4290, "\u0120nfbs": 4291, "aign": 4292, "care": 4293, "\u0120dr": 4294, "sidi": 4295, "\u0120transl": 4296, "\u0120outbreak": 4297, "\u0120prejud": 4298, "hern": 4299, "\u0120twitter": 4300, "\u0120allowing": 4301, "\u0120secondary": 4302, "\u0120difference": 4303, "\u0120facebook": 4304, "\u0120calculated": 4305, "\u0120sensi": 4306, "\u0120accompanying": 4307, "\u0120campaign": 4308, "hood": 4309, "pts": 4310, "emission": 4311, "\u0120paris": 4312, "\u0120never": 4313, "\u0120compens": 4314, "\u0120spanish": 4315, "\u0120subsidi": 4316, "\u0120focusing": 4317, "\u0120profile": 4318, "\u0120flights": 4319, "conn": 4320, "stances": 4321, "\u0120fertil": 4322, "95": 4323, "friendly": 4324, "inate": 4325, "\u0120days": 4326, "stac": 4327, "\u0120deg": 4328, "\u0120shares": 4329, "\u0120measuring": 4330, "\u0120lock": 4331, "\u0120mayotte": 4332, "\u0120ide": 4333, "\u0120conclud": 4334, "\u0120smaller": 4335, "\u0120functions": 4336, "\u0120restaur": 4337, "\u0120return": 4338, "\u0120bulgarian": 4339, "\u0120continued": 4340, "\u0120coordinated": 4341, "life": 4342, "\u0120circumstances": 4343, "55": 4344, "has": 4345, "\u0120sem": 4346, "\u0120bill": 4347, "\u0120coun": 4348, "\u0120agents": 4349, "\u0120option": 4350, "\u0120formal": 4351, "\u0120positions": 4352, "self": 4353, "\u0120workshops": 4354, "\u0120portugues": 4355, "\u0120tenders": 4356, "\u0120check": 4357, "\u0120repealing": 4358, "\u0120histor": 4359, "\u0120milest": 4360, "\u0120bau": 4361, "\u0120biom": 4362, "\u0120head": 4363, "\u0120guade": 4364, "\u0120accounting": 4365, "such": 4366, "\u0120depending": 4367, "\u0120body": 4368, "\u0120copy": 4369, "\u0120archit": 4370, "loupe": 4371, "\u0120dutch": 4372, "\u0120portuguese": 4373, "35": 4374, "\u0120fed": 4375, "\u0120obstac": 4376, "\u0120guiana": 4377, "\u0120solution": 4378, "\u0120republic": 4379, "\u0120insu": 4380, "\u0120taxes": 4381, "\u0120controls": 4382, "\u0120........................": 4383, "\u0120............................": 4384, "\u0120blind": 4385, "\u0120covering": 4386, "\u0120italian": 4387, "\u0120sdgs": 4388, "\u0120textile": 4389, "\u0120croatia": 4390, "\u0120duration": 4391, "\u0120coronavirus": 4392, "\u0120prejudice": 4393, "sation": 4394, "ule": 4395, "inated": 4396, "\u0120da": 4397, "unwto": 4398, "\u0120immedi": 4399, "\u0120environments": 4400, "\u012068": 4401, "\u0120economics": 4402, "\u0120faced": 4403, "ogen": 4404, "roportion": 4405, "\u0120presence": 4406, "\u0120definitions": 4407, "\u0120widely": 4408, "\u0120disproportion": 4409, "\u0120advisors": 4410, "\u0120justice": 4411, "\u0120preparation": 4412, "\u0120announced": 4413, "\u0120temperature": 4414, "\u0120degree": 4415, "05": 4416, "nl": 4417, "tw": 4418, "utive": 4419, "\u0120aer": 4420, "oming": 4421, "\u0120contra": 4422, "\u0120claim": 4423, "\u0120constit": 4424, "\u0120informal": 4425, "\u0120box": 4426, "\u0120authors": 4427, "\u0120integrating": 4428, "\u0120highlights": 4429, "\u0120fishing": 4430, "\u0120nuts": 4431, "\u0120court": 4432, "\u0120ministry": 4433, "\u0120occur": 4434, "%,": 4435, "eec": 4436, "ots": 4437, "\u0120mach": 4438, "estock": 4439, "erent": 4440, "\u012093": 4441, "\u0120subs": 4442, "\u0120valu": 4443, "\u0120cred": 4444, "\u0120operate": 4445, "\u0120extensive": 4446, "\u0120correct": 4447, "\u0120standardisation": 4448, "\u0120dispute": 4449, "\u0120caused": 4450, "\u0120parameters": 4451, "\u0120bauhaus": 4452, "22": 4453, "year": 4454, "\u0120fail": 4455, "etary": 4456, "\u0120exclud": 4457, "\u0120vary": 4458, "\u0120introduce": 4459, "\u0120networking": 4460, "\u0120experienced": 4461, "\u0120delivering": 4462, "\u0120summer": 4463, "\u0120livestock": 4464, "\u0120norm": 4465, "\u0120dynamics": 4466, "\u0120damage": 4467, "\u0120animal": 4468, "\u0120ambiti": 4469, "\u0120multimodal": 4470, "\u0120district": 4471, "vency": 4472, "\u0120cut": 4473, "\u0120makes": 4474, "\u0120red": 4475, "\u0120proceed": 4476, "\u0120eurofound": 4477, "char": 4478, "\u0120pric": 4479, "\u0120party": 4480, "\u0120biot": 4481, "ired": 4482, "\u012071": 4483, "\u0120define": 4484, "\u0120concent": 4485, "\u0120profit": 4486, "\u0120strengths": 4487, "\u0120opening": 4488, "\u0120aux": 4489, "\u0120crops": 4490, "\u0120concepts": 4491, "\u0120predic": 4492, "\u0120maximum": 4493, "compliance": 4494, "\u0120guadeloupe": 4495, "26": 4496, "ault": 4497, "ked": 4498, "lined": 4499, "nel": 4500, "inding": 4501, "\u0120mad": 4502, "\u0120gain": 4503, "\u0120contex": 4504, "rometer": 4505, "\u0120inten": 4506, "\u012098": 4507, "\u0120join": 4508, "\u0120facing": 4509, "\u0120live": 4510, "\u0120estimate": 4511, "\u0120except": 4512, "\u0120draft": 4513, "\u0120prepare": 4514, "\u0120predict": 4515, "\u0120prospects": 4516, "\u0120vocational": 4517, "ients": 4518, "sch": 4519, "tour": 4520, "we": 4521, "erse": 4522, "ighb": 4523, "\u0120jud": 4524, "\u0120print": 4525, "\u0120going": 4526, "\u0120phase": 4527, "\u0120strengthened": 4528, "\u0120match": 4529, "\u0120newslet": 4530, "\u0120freight": 4531, "\u0120property": 4532, "\u0120middle": 4533, "\u0120stimulate": 4534, "\u0120children": 4535, "\u0120ticket": 4536, "efficient": 4537, "mt": 4538, "va": 4539, "\u0120iv": 4540, "\u0120fem": 4541, "ism": 4542, "ane": 4543, "\u0120drop": 4544, "ecurity": 4545, "\u0120adap": 4546, "\u0120neighb": 4547, "\u0120diverse": 4548, "\u012087": 4549, "\u0120liquid": 4550, "\u0120affecting": 4551, "\u0120verification": 4552, "ographic": 4553, "\u0120reaching": 4554, "\u0120feedback": 4555, "\u0120tele": 4556, "\u0120unfair": 4557, "tml": 4558, "date": 4559, "lt": 4560, "mul": 4561, "water": 4562, "\u0120side": 4563, "ndc": 4564, "\u0120hr": 4565, "look": 4566, "ula": 4567, "igation": 4568, "\u0120later": 4569, "\u0120envis": 4570, "\u0120managing": 4571, "\u0120contributes": 4572, "\u0120specified": 4573, "climate": 4574, "\u0120verif": 4575, "\u0120democracy": 4576, "\u0120drive": 4577, "\u0120channels": 4578, "\u0120habitats": 4579, "\u0120proficiency": 4580, "\u0120bench": 4581, "\u0120credit": 4582, "\u0120ambitious": 4583, "44": 4584, "da": 4585, "sl": 4586, "\u0120ia": 4587, "\u0120aust": 4588, "\u0120pas": 4589, "\u0120mt": 4590, "\u0120she": 4591, "\u0120spending": 4592, "\u0120evol": 4593, "\u0120globally": 4594, "prus": 4595, "\u0120hardware": 4596, "\u0120waters": 4597, "\u0120confidence": 4598, "87": 4599, "fu": 4600, "gory": 4601, "\u0120ire": 4602, "\u0120fast": 4603, "\u0120ment": 4604, "rix": 4605, "\u0120chemical": 4606, "\u0120invited": 4607, "\u012099": 4608, "\u012072": 4609, "\u012081": 4610, "\u0120repair": 4611, "\u0120biological": 4612, "\u0120ready": 4613, "\u0120recognised": 4614, "\u0120attractions": 4615, "\u0120incorpor": 4616, "46": 4617, "ded": 4618, "link": 4619, "wise": 4620, "\u0120tables": 4621, "\u0120fire": 4622, "\u0120nav": 4623, "actions": 4624, "\u0120emphas": 4625, "\u012074": 4626, "\u0120roles": 4627, "\u012082": 4628, "\u012085": 4629, "\u0120protecting": 4630, "\u0120initial": 4631, "\u0120insp": 4632, "\u0120variety": 4633, "\u0120transformative": 4634, "sustain": 4635, "\u0120fields": 4636, "\u0120similarly": 4637, "\u0120neutral": 4638, "\u0120martin": 4639, "\u0120ilo": 4640, "\u0120denmark": 4641, "\u0120feasibility": 4642, "\u0120ratio": 4643, "\u0120landscape": 4644, "\u0120contexts": 4645, "03": 4646, "88": 4647, "\u0120thinking": 4648, "\u0120block": 4649, "asm": 4650, "oll": 4651, "\u0120suppl": 4652, "\u0120arts": 4653, "sibly": 4654, "\u0120doi": 4655, "\u012079": 4656, "\u0120horizontal": 4657, "\u0120release": 4658, "\u0120located": 4659, "\u0120adapted": 4660, "\u0120potentially": 4661, "\u0120focused": 4662, "\u0120representation": 4663, "\u0120pollut": 4664, "\u0120citizen": 4665, "\u0120undertaken": 4666, "\u0120interaction": 4667, "\u0120transmission": 4668, "45": 4669, "ik": 4670, "tra": 4671, "\u0120pestic": 4672, "\u0120mut": 4673, "\u0120nt": 4674, "\u0120noted": 4675, "\u0120outlook": 4676, "\u012078": 4677, "\u0120healthcare": 4678, "\u0120extend": 4679, "\u0120remo": 4680, "\u0120periods": 4681, "\u0120encouraging": 4682, "iii": 4683, "\u0120putting": 4684, "selves": 4685, "\u0120explan": 4686, "\u0120audi": 4687, "\u0120tackling": 4688, "\u0120reinforce": 4689, "\u0120namely": 4690, "\u0120typically": 4691, "effective": 4692, "\u0120tailored": 4693, "\u0120penal": 4694, "\u0120safeguard": 4695, "\u0120biomass": 4696, "58": 4697, "65": 4698, "uc": 4699, "\u0120%)": 4700, "\u0120ced": 4701, "\u0120interface": 4702, "\u0120expos": 4703, "\u0120organised": 4704, "\u0120turn": 4705, "\u0120interests": 4706, "\u0120calculation": 4707, "\u0120professionals": 4708, "\u0120analytics": 4709, "\u0120inputs": 4710, "\u0120pressure": 4711, "\u0120malta": 4712, "\u0120maximise": 4713, "\u0120revenue": 4714, "\u0120partially": 4715, "\u0120constra": 4716, "\u0120adverti": 4717, "\u0120fulfil": 4718, "\u0120adaptive": 4719, "\u0120austria": 4720, "orne": 4721, "ront": 4722, "\u0120otherwise": 4723, "agn": 4724, "\u012086": 4725, "\u0120indicate": 4726, "\u0120personnel": 4727, "\u0120themselves": 4728, "\u0120amongst": 4729, "\u0120startups": 4730, "\u0120crises": 4731, "\u0120matrix": 4732, "\u0120disclo": 4733, "\u0120relationships": 4734, "\u0120interactive": 4735, "\u0120consistent": 4736, "\u0120managers": 4737, "\u0120copyright": 4738, "\u0120obstacles": 4739, "\u0120neighbour": 4740, "jrc": 4741, "vest": 4742, "xic": 4743, "\u0120ban": 4744, "\u0120binding": 4745, "ilst": 4746, "\u0120prob": 4747, "\u0120come": 4748, "\u0120why": 4749, "\u0120clar": 4750, "stral": 4751, "\u0120discipl": 4752, "\u0120que": 4753, "\u0120thereby": 4754, "\u0120raise": 4755, "\u0120exceed": 4756, "\u0120charge": 4757, "\u0120attract": 4758, "fficiently": 4759, "\u0120residential": 4760, "\u0120empowering": 4761, "\u0120dmos": 4762, "\u0120gradu": 4763, "\u0120croatian": 4764, "\u0120conclusions": 4765, "\u0120ireland": 4766, "\u0120advertising": 4767, "73": 4768, "eed": 4769, "lim": 4770, "\u0120;": 4771, "\u0120inh": 4772, "\u0120mot": 4773, "\u0120(-": 4774, "ticle": 4775, "\u0120image": 4776, "\u0120poland": 4777, "\u0120socially": 4778, "\u012067": 4779, "\u012076": 4780, "\u012077": 4781, "\u0120insol": 4782, "\u0120societies": 4783, "\u0120aiming": 4784, "\u0120trig": 4785, "ruption": 4786, "\u0120driven": 4787, "\u0120....................": 4788, "\u0120registered": 4789, "\u0120proceedings": 4790, "sm": 4791, "\u0120round": 4792, "strial": 4793, "\u0120construct": 4794, "\u0120suff": 4795, "\u0120lv": 4796, "rie": 4797, "\u0120vers": 4798, "\u0120intervention": 4799, "\u0120empowered": 4800, "\u0120upskilling": 4801, "\u0120satis": 4802, "ords": 4803, "\u0120whereas": 4804, "\u0120default": 4805, "\u0120held": 4806, "nesses": 4807, "\u0120airports": 4808, "\u0120visual": 4809, "\u0120started": 4810, "\u0120involving": 4811, "\u0120players": 4812, "\u0120matter": 4813, "\u0120closely": 4814, "\u0120ptd": 4815, "regions": 4816, "\u0120sweden": 4817, "\u0120swedish": 4818, "\u0120hungary": 4819, "\u0120automotive": 4820, "\u0120threats": 4821, "\u0120willingness": 4822, "\u0120madrid": 4823, "\u0120disciplines": 4824, "\u0120satisf": 4825, "fol": 4826, "ield": 4827, "long": 4828, "med": 4829, "servic": 4830, "ann": 4831, "ancial": 4832, "omic": 4833, "\u0120sup": 4834, "\u0120deadline": 4835, "ades": 4836, "\u0120polish": 4837, "\u0120interconn": 4838, "\u0120agreed": 4839, "\u0120perman": 4840, "\u0120greek": 4841, "efop": 4842, "\u0120numbers": 4843, "\u0120identi": 4844, "\u0120focuses": 4845, "\u0120cyprus": 4846, "\u0120dependent": 4847, "\u0120discussed": 4848, "\u0120team": 4849, "csd": 4850, "\u0120qualit": 4851, "\u0120slovenian": 4852, "\u0120solidarity": 4853, "\u0120decarbonisation": 4854, "\u0120robotics": 4855, "nicus": 4856, "\u0120subsidies": 4857, "\u0120expressed": 4858, "\u0120ngos": 4859, "\u0120architect": 4860, "\u0120newsletter": 4861, "42": 4862, "93": 4863, "lv": 4864, "\u0120ms": 4865, "stage": 4866, "\u0120gross": 4867, "\u0120enjo": 4868, "\u0120always": 4869, "osing": 4870, "\u0120contents": 4871, "\u0120kind": 4872, "\u0120novel": 4873, "\u0120airport": 4874, "\u0120determined": 4875, "\u0120category": 4876, "\u0120flexible": 4877, "\u0120gene": 4878, "\u0120thresholds": 4879, "\u0120executive": 4880, "multi": 4881, "set": 4882, "\u0120though": 4883, "\u0120ps": 4884, "\u0120gar": 4885, "\u0120exclusion": 4886, "\u0120rus": 4887, "\u0120placed": 4888, "\u0120reskill": 4889, "\u0120clients": 4890, "\u0120seen": 4891, "\u0120severe": 4892, "\u0120upcoming": 4893, "\u0120doub": 4894, "\u012073": 4895, "\u0120approx": 4896, "\u0120extra": 4897, "\u0120component": 4898, "regional": 4899, "\u0120separate": 4900, "\u0120advantage": 4901, "\u0120contrast": 4902, "\u0120exposure": 4903, ".),": 4904, "69": 4905, "75": 4906, "can": 4907, "gent": 4908, "mic": 4909, "nish": 4910, "tran": 4911, "\u0120nar": 4912, "ulated": 4913, "osph": 4914, "\u0120compris": 4915, "\u0120contest": 4916, "\u0120units": 4917, "\u0120finland": 4918, "\u0120underst": 4919, "\u0120plants": 4920, "\u012089": 4921, "\u0120acting": 4922, "\u0120possibilities": 4923, "\u0120reasonable": 4924, "\u0120bankrupt": 4925, "\u0120revised": 4926, "financial": 4927, "rimination": 4928, "\u0120academ": 4929, "\u0120rglement": 4930, "cr": 4931, "jected": 4932, "ustr": 4933, "\u0120crow": 4934, "\u0120stages": 4935, "\u0120covers": 4936, "\u0120reserv": 4937, "\u0120buy": 4938, "\u012083": 4939, "\u012084": 4940, "\u0120overn": 4941, "\u0120specifications": 4942, "\u0120labelling": 4943, "\u0120experimental": 4944, "\u0120remov": 4945, "\u0120fix": 4946, "\u0120learners": 4947, "\u0120becoming": 4948, "\u0120attrib": 4949, "\u0120complementary": 4950, "design": 4951, "\u0120logistics": 4952, "\u0120illustr": 4953, "\u0120weaknesses": 4954, "creation": 4955, "\u0120exercise": 4956, "\u0120objectifs": 4957, "\u0120digitisation": 4958, "echnology": 4959, "\u0120attitudes": 4960, "\u0120lockdown": 4961, "\u0120cedefop": 4962, "data": 4963, "men": 4964, "son": 4965, "\u0120brought": 4966, "\u0120mor": 4967, "\u0120reve": 4968, "aculture": 4969, "\u0120whilst": 4970, "\u0120adr": 4971, "\u0120itself": 4972, "\u0120usually": 4973, "\u0120intended": 4974, "\u0120recently": 4975, "\u0120requiring": 4976, "\u0120roll": 4977, "ously": 4978, "\u0120engaged": 4979, "\u0120largely": 4980, "\u0120showed": 4981, "aves": 4982, "\u0120tfeu": 4983, "\u0120austral": 4984, "\u0120vehicle": 4985, "\u0120decreased": 4986, "\u0120unique": 4987, "\u0120preferences": 4988, "\u0120romania": 4989, "\u0120reforms": 4990, "\u0120proxim": 4991, "\u0120pricing": 4992, "\u0120therm": 4993, "\u0120sn": 4994, "lec": 4995, "etric": 4996, "\u0120infring": 4997, "rence": 4998, "\u0120possibly": 4999, "\u0120accounted": 5000, "\u0120shortages": 5001, "\u0120represented": 5002, "\u0120actively": 5003, "\u0120coordinate": 5004, "\u0120romanian": 5005, "\u0120examine": 5006, "\u0120understood": 5007, "68": 5008, "70": 5009, "80": 5010, "bl": 5011, "br": 5012, "driv": 5013, "hi": 5014, "\u0120cari": 5015, "\u0120danish": 5016, "\u0120ber": 5017, "acing": 5018, "union": 5019, "\u0120shap": 5020, "\u0120sound": 5021, "ading": 5022, "\u0120finnish": 5023, "\u0120decide": 5024, "\u0120presid": 5025, "\u0120secret": 5026, "ocks": 5027, "\u0120termin": 5028, "\u0120engines": 5029, "\u0120adverse": 5030, "\u0120issu": 5031, "\u0120readiness": 5032, "\u0120balanced": 5033, "\u0120african": 5034, "\u0120purchasing": 5035, "\u0120classification": 5036, "\u0120boundaries": 5037, "asmus": 5038, "\u0120motor": 5039, "38": 5040, "57": 5041, "ga": 5042, "tech": 5043, "\u0120fight": 5044, "\u0120want": 5045, "\u0120nbs": 5046, "olid": 5047, "this": 5048, "\u0120items": 5049, "\u0120underp": 5050, "\u0120qui": 5051, "unction": 5052, "\u0120................................................": 5053, "prises": 5054, "airs": 5055, "\u0120statement": 5056, "\u0120administration": 5057, "\u0120intermediaries": 5058, "\u0120treaty": 5059, "\u0120justified": 5060, "\u0120slovenia": 5061, "\u0120mainstreaming": 5062, "\u0120aquaculture": 5063, "\u0120estonian": 5064, "\u0120browsing": 5065, "\u0120disproportionate": 5066, "\u0120female": 5067, "\u0120insolvency": 5068, "\u0120qualitative": 5069, "34": 5070, "63": 5071, "erve": 5072, "omin": 5073, "\u0120coper": 5074, "\u0120exem": 5075, "\u0120spring": 5076, "\u0120recru": 5077, "\u0120greener": 5078, "ifications": 5079, "\u0120weather": 5080, "\u0120indicated": 5081, "\u0120reductions": 5082, "\u0120cooperate": 5083, "\u0120considerations": 5084, "\u0120medical": 5085, "\u0120holistic": 5086, "\u0120organizations": 5087, "\u0120dispos": 5088, "\u0120communicate": 5089, "\u0120boosting": 5090, "\u0120preventing": 5091, "\u0120classes": 5092, "\u0120dimensions": 5093, "\u0120investigation": 5094, "\u0120hungarian": 5095, "\u0120simplified": 5096, "\u0120latvian": 5097, "\u0120copernicus": 5098, "gn": 5099, "ior": 5100, "mon": 5101, "sme": 5102, "tition": 5103, "\u0120sil": 5104, "\u0120fis": 5105, "\u0120fil": 5106, "enter": 5107, "erving": 5108, "\u0120intel": 5109, "\u0120programs": 5110, "\u0120peak": 5111, "\u0120participatory": 5112, "\u0120format": 5113, "\u0120laws": 5114, "\u0120patent": 5115, "\u0120granted": 5116, "\u0120connection": 5117, "\u0120lessons": 5118, "\u0120lives": 5119, "\u0120contracting": 5120, "\u0120maltes": 5121, "____": 5122, "\u0120sugges": 5123, "unicip": 5124, "\u0120insufficient": 5125, "\u0120maltese": 5126, "61": 5127, "83": 5128, "bu": 5129, "ead": 5130, "fit": 5131, "ano": 5132, "arning": 5133, "\u0120grid": 5134, "\u0120comes": 5135, "\u0120enables": 5136, "users": 5137, "umption": 5138, "\u0120consolid": 5139, "\u0120yield": 5140, "\u0120investing": 5141, "\u0120targeting": 5142, "\u0120instead": 5143, "\u0120elim": 5144, "\u0120transposition": 5145, "\u0120serious": 5146, "\u0120metric": 5147, "\u0120bringing": 5148, "\u0120erasmus": 5149, "depend": 5150, "benefit": 5151, "\u0120proximity": 5152, "04": 5153, "app": 5154, "ders": 5155, "sv": 5156, "\u0120takes": 5157, "\u0120old": 5158, "sities": 5159, "\u0120susp": 5160, "elle": 5161, "\u0120juris": 5162, "box": 5163, "\u0120ports": 5164, "\u0120serve": 5165, "\u0120freed": 5166, "\u0120audit": 5167, "\u0120seasonality": 5168, "\u0120allocation": 5169, "\u0120literacy": 5170, "\u0120territories": 5171, "\u0120beneficiary": 5172, "\u0120automob": 5173, "\u0120lithuanian": 5174, "\u0120writ": 5175, "\u0120counter": 5176, "sustainable": 5177, "\u0120enjoy": 5178, "66": 5179, "91": 5180, "ctic": 5181, "cultural": 5182, "effici": 5183, "grow": 5184, "lap": 5185, "sour": 5186, "inform": 5187, "\u0120six": 5188, "\u0120municip": 5189, "\u0120hence": 5190, "ney": 5191, "\u0120requests": 5192, "ames": 5193, "\u0120employers": 5194, "\u012088": 5195, "\u0120condition": 5196, "\u0120peer": 5197, "\u0120mostly": 5198, "\u0120consultations": 5199, "\u0120cybers": 5200, "\u0120methodological": 5201, "\u0120interested": 5202, "\u0120primarily": 5203, "\u0120prosper": 5204, "offs": 5205, "responding": 5206, ")(": 5207, "71": 5208, "\u0120:": 5209, "\u0120ak": 5210, "ert": 5211, "\u0120dk": 5212, "sts": 5213, "\u0120projected": 5214, "\u0120euroba": 5215, "\u0120export": 5216, "respective": 5217, "\u0120challenging": 5218, "\u0120limits": 5219, "\u0120latter": 5220, "\u0120specialisation": 5221, "\u0120demonstration": 5222, "\u0120demonstrated": 5223, "\u0120commerce": 5224, "\u0120complexity": 5225, "\u0120obtained": 5226, "\u0120diseases": 5227, "\u0120disruptions": 5228, "two": 5229, "41": 5230, "74": 5231, "94": 5232, "bbe": 5233, "eurs": 5234, "ho": 5235, "ipping": 5236, "ym": 5237, "\u0120*": 5238, "\u0120ndc": 5239, "\u0120say": 5240, "\u0120ol": 5241, "\u0120ets": 5242, "\u0120coming": 5243, "resents": 5244, "\u0120transactions": 5245, "\u0120................................................................................................": 5246, "\u0120represents": 5247, "inese": 5248, "\u0120transformations": 5249, "\u0120structures": 5250, "\u0120dependencies": 5251, "\u0120linkedin": 5252, "\u0120comparable": 5253, "\u0120proportionate": 5254, "person": 5255, "\u0120recognition": 5256, "\u0120interactions": 5257, "\u0120augment": 5258, "\u0120holidays": 5259, "\u0120window": 5260, "\u0120family": 5261, "\u0120expectations": 5262, "\u0120nearly": 5263, "\u0120batteries": 5264, "\u0120interpret": 5265, "\u0120campaigns": 5266, "trans": 5267, "\u0120caribbe": 5268, "\u0120cybersecurity": 5269, "\u0120eurobarometer": 5270, "36": 5271, "84": 5272, "part": 5273, "with": 5274, "\u0120wood": 5275, "\u0120star": 5276, "\u0120exports": 5277, "\u0120yes": 5278, "\u0120motiv": 5279, "\u0120prem": 5280, "\u012092": 5281, "\u012097": 5282, "\u0120organise": 5283, "lectual": 5284, "\u0120offices": 5285, "\u0120defining": 5286, "\u0120helps": 5287, "\u0120existence": 5288, "\u0120trl": 5289, "\u0120observatory": 5290, "\u0120reached": 5291, "\u0120cleaner": 5292, "\u0120applies": 5293, "\u0120recycled": 5294, "\u0120audits": 5295, "\u0120electronics": 5296, "\u0120hazards": 5297, "\u0120reliable": 5298, "\u0120academic": 5299, "\u0120restaurants": 5300, "\u0120substit": 5301, "driven": 5302, "\u0120intellectual": 5303, "\u0120written": 5304, "\u0120caribbean": 5305, "48": 5306, "cess": 5307, "vo": 5308, "theless": 5309, "chain": 5310, "\u0120vs": 5311, "\u0120seven": 5312, "\u0120ko": 5313, "place": 5314, "\u0120designing": 5315, "\u0120remun": 5316, "\u0120simple": 5317, "\u0120portfol": 5318, "\u0120popular": 5319, "\u0120regardless": 5320, "\u0120automation": 5321, "\u0120coherent": 5322, "clusive": 5323, "\u0120installation": 5324, "\u0120agroec": 5325, "\u0120nevertheless": 5326, "\u0120architecture": 5327, "\u0120underpin": 5328, "81": 5329, "85": 5330, "90": 5331, "dic": 5332, "dec": 5333, "fall": 5334, "\u0120ssh": 5335, "\u0120win": 5336, "\u0120rely": 5337, "\u0120gir": 5338, "\u0120gather": 5339, "\u0120lan": 5340, "\u0120degrad": 5341, "\u0120rang": 5342, "rants": 5343, "\u0120unless": 5344, "\u0120recre": 5345, "\u0120relate": 5346, "\u0120heav": 5347, "\u0120autonomy": 5348, "\u0120travelling": 5349, "\u0120practition": 5350, "\u0120meetings": 5351, "\u0120latin": 5352, "\u0120functional": 5353, "\u0120recorded": 5354, "\u0120reliability": 5355, "fuels": 5356, "\u0120superv": 5357, "\u0120permanent": 5358, "54": 5359, "59": 5360, "78": 5361, "\u0120ie": 5362, "income": 5363, "energy": 5364, "isure": 5365, "\u0120dro": 5366, "\u0120bed": 5367, "\u0120mom": 5368, "ols": 5369, "esty": 5370, "\u0120nego": 5371, "\u0120diets": 5372, "resh": 5373, "\u0120intra": 5374, "\u0120extension": 5375, "\u0120viol": 5376, "ogle": 5377, "\u0120recommended": 5378, "skilled": 5379, "\u0120purchase": 5380, "\u0120threat": 5381, "\u0120panel": 5382, "\u0120holiday": 5383, "\u0120bottom": 5384, "\u0120cancell": 5385, "\u0120biotechnology": 5386, "\u0120thermal": 5387, "\u0120infringe": 5388, "\u0120jurisdic": 5389, "\u0120negoti": 5390, "37": 5391, "67": 5392, "ery": 5393, "\u0120cas": 5394, "\u0120cum": 5395, "\u0120too": 5396, "\u0120bri": 5397, "stock": 5398, "olute": 5399, "\u0120len": 5400, "\u0120enough": 5401, "versities": 5402, "\u0120chinese": 5403, "\u0120contam": 5404, "ada": 5405, "\u0120client": 5406, "ips": 5407, "ops": 5408, "\u0120transnational": 5409, "\u0120overcome": 5410, "\u0120fraud": 5411, "\u0120indices": 5412, "\u0120responsibilities": 5413, "\u0120formats": 5414, "\u0120corresponding": 5415, "\u0120visits": 5416, "\u0120restore": 5417, "\u0120documentation": 5418, "\u0120forests": 5419, "\u0120exploring": 5420, "\u0120remaining": 5421, "democ": 5422, "\u0120slight": 5423, "\u0120immediate": 5424, "\u0120snap": 5425, "39": 5426, "ean": 5427, "ulative": 5428, "\u0120litter": 5429, "elong": 5430, "osen": 5431, "\u0120leisure": 5432, "\u0120skilled": 5433, "\u0120wellbeing": 5434, "\u0120thereof": 5435, "\u0120info": 5436, "\u0120thanks": 5437, "\u0120equally": 5438, "\u0120keyw": 5439, "\u0120authorising": 5440, "\u0120lowest": 5441, "\u0120additionally": 5442, "\u0120students": 5443, "\u0120airlines": 5444, "\u0120lifesty": 5445, "\u0120lifelong": 5446, "\u0120closed": 5447, "\u0120summar": 5448, "\u0120flight": 5449, "compass": 5450, "\u0120comparative": 5451, "commun": 5452, "\u0120structured": 5453, "\u0120irrespective": 5454, "\u0120course": 5455, "\u0120attractive": 5456, "\u0120slovakia": 5457, "\u0120factshe": 5458, "\u0120braz": 5459, "burse": 5460, "\u0120discussions": 5461, "\u0120pesticides": 5462, "\u0120overnight": 5463, "enterprises": 5464, "53": 5465, "82": 5466, "86": 5467, "bus": 5468, "ief": 5469, "lan": 5470, "reach": 5471, "itted": 5472, "\u0120mb": 5473, "\u0120wage": 5474, "\u0120north": 5475, "\u0120()": 5476, "rant": 5477, "\u0120digitalise": 5478, "lication": 5479, "\u0120train": 5480, "\u0120scre": 5481, "\u0120poor": 5482, "intensive": 5483, "ondon": 5484, "\u0120toolbox": 5485, "\u0120mainten": 5486, "\u0120prioriti": 5487, "\u0120confir": 5488, "\u0120scores": 5489, "\u0120guarantees": 5490, "\u0120avoiding": 5491, "access": 5492, "\u0120databases": 5493, "\u0120registration": 5494, "\u0120aggregate": 5495, "\u0120absolute": 5496, "\u0120latvia": 5497, "\u0120europen": 5498, "zerland": 5499, "\u0120fixed": 5500, "\u0120older": 5501, "\u0120practitioners": 5502, "\u0120snapsh": 5503, "hing": 5504, "ze": 5505, "restrial": 5506, "erous": 5507, "\u0120elabor": 5508, "ana": 5509, "ented": 5510, "\u0120ga": 5511, "\u0120coal": 5512, "quality": 5513, "\u0120impose": 5514, "\u012096": 5515, "\u0120affairs": 5516, "\u0120director": 5517, "\u0120measured": 5518, "\u0120);": 5519, "ospace": 5520, "\u0120accelerating": 5521, "\u0120easier": 5522, "\u0120optimal": 5523, "\u0120accompanied": 5524, "\u0120hosts": 5525, "\u0120lithuania": 5526, "\u0120acquis": 5527, "\u0120aerospace": 5528, "\u0120liquidity": 5529, "\u0120mutual": 5530, "\u0120disposal": 5531, ".).": 5532, "33": 5533, "56": 5534, "cur": 5535, "fs": 5536, "lit": 5537, "rd": 5538, "\u0120csa": 5539, "iss": 5540, "isual": 5541, "anges": 5542, "\u0120wes": 5543, "\u0120reim": 5544, "\u0120acknow": 5545, "\u0120leverage": 5546, "\u0120register": 5547, "\u0120supplement": 5548, "\u0120notes": 5549, "\u0120scaling": 5550, "\u0120approved": 5551, "ariat": 5552, "\u0120persist": 5553, "\u0120reflected": 5554, "\u0120capabilities": 5555, "\u0120forese": 5556, "\u0120allowed": 5557, "\u0120representing": 5558, "location": 5559, "\u0120geo": 5560, "\u0120earning": 5561, "\u0120minimise": 5562, "\u0120terrestrial": 5563, "\u0120limitations": 5564, "ovisual": 5565, "\u0120seasonal": 5566, "\u0120preferred": 5567, "\u0120rental": 5568, "\u0120compensation": 5569, "\u0120envisaged": 5570, "\u0120reskilling": 5571, "hand": 5572, "\u0120ul": 5573, "\u0120cash": 5574, "\u0120faster": 5575, "\u0120wild": 5576, "ics": 5577, "ception": 5578, "\u0120encompass": 5579, "ticip": 5580, "\u0120shar": 5581, "\u0120atm": 5582, "\u0120kb": 5583, "\u0120kore": 5584, "\u0120arctic": 5585, "ube": 5586, "\u0120underlying": 5587, "iving": 5588, "\u0120empir": 5589, "\u0120programming": 5590, "\u0120financed": 5591, "\u0120analysing": 5592, "\u0120known": 5593, "\u0120engaging": 5594, "\u0120experiment": 5595, "\u0120budgets": 5596, "\u0120taxpay": 5597, "\u0120connecting": 5598, "\u0120monthly": 5599, "\u0120erdf": 5600, "\u0120connections": 5601, "\u0120allocated": 5602, "\u0120fragmentation": 5603, "\u0120historical": 5604, "\u0120fiscal": 5605, "\u0120remuneration": 5606, "democracy": 5607, "\u0120cs": 5608, "\u0120bn": 5609, "\u0120late": 5610, "\u0120litt": 5611, "\u0120cours": 5612, "oty": 5613, "\u0120europeans": 5614, "\u0120lob": 5615, "\u0120scop": 5616, "\u0120rooms": 5617, "\u0120pool": 5618, "\u0120transportation": 5619, "\u0120firm": 5620, "\u0120varied": 5621, "angible": 5622, "\u0120reviews": 5623, "\u0120driving": 5624, "\u0120differenti": 5625, "\u0120discuss": 5626, "\u0120graph": 5627, "\u0120universities": 5628, "\u0120driver": 5629, "\u0120voice": 5630, "\u0120disease": 5631, "\u0120certificate": 5632, "\u0120river": 5633, "\u0120donnes": 5634, "\u0120audiovisual": 5635, "service": 5636, "annual": 5637, "\u0120moment": 5638, "\u0120maintenance": 5639, "east": 5640, "mb": 5641, "\u0120$": 5642, "\u0120sufficiently": 5643, "\u0120orient": 5644, "cip": 5645, "\u0120unpre": 5646, "\u0120invent": 5647, "\u0120outlined": 5648, "\u0120protoc": 5649, "\u0120foresee": 5650, "\u0120themes": 5651, "\u0120behaviours": 5652, "\u0120introducing": 5653, "\u0120exploitation": 5654, "cons": 5655, "\u0120discrimination": 5656, "\u0120containing": 5657, "\u0120maintaining": 5658, "\u0120frequently": 5659, "\u0120complain": 5660, "\u0120constant": 5661, "\u0120macroeconomic": 5662, "\u0120switch": 5663, "\u0120milestones": 5664, "\u0120blockchain": 5665, "lects": 5666, "efficiency": 5667, "\u0120augmented": 5668, "47": 5669, "77": 5670, "79": 5671, "count": 5672, "from": 5673, "iers": 5674, "ych": 5675, "inants": 5676, "\u0120wages": 5677, "active": 5678, "\u0120stem": 5679, "\u0120vent": 5680, "\u0120sew": 5681, "izing": 5682, "\u0120upgra": 5683, "\u0120policymaking": 5684, "\u0120perspec": 5685, "\u0120reflects": 5686, "\u0120cars": 5687, "\u0120futures": 5688, "cedented": 5689, "\u0120pharm": 5690, "\u0120achievement": 5691, "\u0120packages": 5692, "\u0120certainty": 5693, "\u0120receip": 5694, "\u0120norms": 5695, "\u0120submitted": 5696, "\u0120embed": 5697, "\u0120algorithmic": 5698, "\u0120ccis": 5699, "\u0120switzerland": 5700, "\u0120navigation": 5701, "\u0120trigger": 5702, "\u0120versus": 5703, "\u0120shaping": 5704, "\u0120western": 5705, "\u0120ultim": 5706, "\u0120unprecedented": 5707, "cap": 5708, "cles": 5709, "ma": 5710, "public": 5711, "\u0120density": 5712, "\u0120br": 5713, "\u0120wa": 5714, "\u0120warm": 5715, "tically": 5716, "\u0120atomic": 5717, "\u0120usa": 5718, "\u0120spci": 5719, "\u0120interact": 5720, "\u0120weight": 5721, "\u0120yearly": 5722, "\u0120surface": 5723, "\u0120raised": 5724, "\u0120affects": 5725, "\u0120pollin": 5726, "local": 5727, "\u0120automatic": 5728, "\u0120brings": 5729, "\u0120belie": 5730, "swd": 5731, "\u0120manufacturers": 5732, "\u0120modernisation": 5733, "\u0120estonia": 5734, "\u0120excludes": 5735, "\u0120constraints": 5736, "\u0120empirical": 5737, "\u0120taxpayers": 5738, "agram": 5739, "tf": 5740, "table": 5741, "uro": 5742, "\u0120theme": 5743, "\u0120pa": 5744, "\u0120pal": 5745, "\u0120flu": 5746, "\u0120mas": 5747, "\u0120wel": 5748, "asion": 5749, "\u0120london": 5750, "\u0120enfor": 5751, "\u0120appren": 5752, "\u0120split": 5753, "cling": 5754, "\u0120solar": 5755, "onds": 5756, "\u0120demographic": 5757, "\u0120biofuels": 5758, "\u0120curric": 5759, "\u0120xx": 5760, "\u0120variation": 5761, "\u0120committed": 5762, "\u0120explored": 5763, "market": 5764, "\u0120preparing": 5765, "\u0120evaluated": 5766, "\u0120southern": 5767, "bnb": 5768, "polic": 5769, "\u0120breakdown": 5770, "\u0120dataset": 5771, "\u0120subsequent": 5772, "\u0120normal": 5773, "\u0120secretariat": 5774, "49": 5775, "52": 5776, "borne": 5777, "ij": 5778, "ourism": 5779, "sec": 5780, "\u0120session": 5781, "orrow": 5782, "\u0120eic": 5783, "ansion": 5784, "\u0120took": 5785, "\u0120ba": 5786, "\u0120mati": 5787, "\u0120lic": 5788, "geo": 5789, "cid": 5790, "\u0120admis": 5791, "ressive": 5792, "\u0120attain": 5793, "owers": 5794, "\u0120expansion": 5795, "\u0120buff": 5796, "\u0120noise": 5797, "\u0120guest": 5798, "\u0120sched": 5799, "\u0120india": 5800, "\u0120visibility": 5801, "\u0120showing": 5802, "\u0120preservation": 5803, "\u0120norway": 5804, "\u0120substances": 5805, "\u0120foundation": 5806, "\u0120investigate": 5807, "\u0120behalf": 5808, "\u0120eccch": 5809, "\u0120reinforcing": 5810, "buil": 5811, "\u0120automobiles": 5812, "\u0120portfolio": 5813, "\u0120girls": 5814, "\u0120degradation": 5815, "\u0120snapshot": 5816, "\u0120apprentices": 5817, "\u0120admissibility": 5818, "bes": 5819, "do": 5820, "la": 5821, "net": 5822, "oo": 5823, "sen": 5824, "ester": 5825, "\u0120pi": 5826, "\u0120pict": 5827, "\u0120fresh": 5828, "\u0120drough": 5829, "\u0120brid": 5830, "\u0120mining": 5831, "ilateral": 5832, "\u0120shape": 5833, "opoll": 5834, "\u0120identifies": 5835, "\u0120extrac": 5836, "\u0120combine": 5837, "\u0120jointly": 5838, "\u0120publishing": 5839, "covid": 5840, "\u0120coherence": 5841, "\u0120abroad": 5842, "disc": 5843, "\u0120absence": 5844, "funding": 5845, "\u0120ethical": 5846, "\u0120europa": 5847, "\u0120sensors": 5848, "\u0120pollutants": 5849, "\u0120perspectives": 5850, "\u0120droughts": 5851, "cor": 5852, "fts": 5853, "gi": 5854, "gence": 5855, "pandemic": 5856, "produc": 5857, "\u0120{": 5858, "tile": 5859, "\u0120inbound": 5860, "\u0120ei": 5861, "\u0120nace": 5862, "\u0120vital": 5863, "\u0120interf": 5864, "asters": 5865, "\u0120proposition": 5866, "elled": 5867, "\u0120generations": 5868, "\u012002": 5869, "heritage": 5870, "lier": 5871, "\u0120considerable": 5872, "\u0120surveyed": 5873, "\u0120depends": 5874, "\u0120retrie": 5875, "\u0120intermediate": 5876, "\u0120determining": 5877, "\u0120discover": 5878, "\u0120running": 5879, "\u0120proportionality": 5880, "\u0120completed": 5881, "\u0120univers": 5882, "\u0120eea": 5883, "\u0120selecting": 5884, "\u0120explained": 5885, "\u0120subsequently": 5886, "\u0120fertilis": 5887, "\u0120concluded": 5888, "\u0120valuable": 5889, "\u0120inhabit": 5890, "\u0120cumulative": 5891, "\u0120little": 5892, "\u0120matire": 5893, "\u0120apprenticeship": 5894, "opollution": 5895, "()": 5896, ".;": 5897, "key": 5898, "tt": 5899, "uk": 5900, "vin": 5901, "\u0120lunion": 5902, "utor": 5903, "\u0120ali": 5904, "\u0120shocks": 5905, "\u0120lever": 5906, "\u0120vf": 5907, "\u0120chosen": 5908, "\u0120divid": 5909, "resili": 5910, "\u0120apps": 5911, "\u0120economically": 5912, "\u0120expression": 5913, "ouch": 5914, "\u0120notification": 5915, "\u0120refund": 5916, "times": 5917, "\u0120commonly": 5918, "\u0120excell": 5919, "\u0120transforming": 5920, "\u0120conflic": 5921, "\u0120certified": 5922, "\u0120tested": 5923, "\u0120steel": 5924, "\u0120career": 5925, "head": 5926, "\u0120substantially": 5927, "\u0120fewer": 5928, "\u0120missing": 5929, "\u0120diversification": 5930, "benefits": 5931, "\u0120sensitive": 5932, "\u0120incorporated": 5933, "\u0120penalties": 5934, "\u0120neighbourhood": 5935, "43": 5936, "89": 5937, "\u0120cell": 5938, "\u0120bro": 5939, "ica": 5940, "\u0120names": 5941, "\u0120hal": 5942, "\u0120gro": 5943, "\u0120gear": 5944, "licit": 5945, "\u0120consent": 5946, "\u0120decades": 5947, "\u0120relig": 5948, "\u0120doing": 5949, "aceu": 5950, "ensus": 5951, "\u0120survi": 5952, "\u0120authorised": 5953, "\u0120promotes": 5954, "\u0120promoted": 5955, "\u0120schol": 5956, "\u0120designation": 5957, "\u0120airbnb": 5958, "\u0120simulation": 5959, "\u0120corresp": 5960, "\u0120dealing": 5961, "\u0120requested": 5962, "clear": 5963, "mann": 5964, "\u0120uniform": 5965, "governmental": 5966, "\u0120perceptions": 5967, "\u0120validation": 5968, "\u0120aggregated": 5969, "funded": 5970, "\u0120conventional": 5971, "\u0120precariousness": 5972, "\u0120double": 5973, "\u0120slightly": 5974, ")/": 5975, "51": 5976, "jeu": 5977, "wor": 5978, "erb": 5979, "encing": 5980, "\u0120ox": 5981, "alle": 5982, "\u0120fle": 5983, "istive": 5984, "\u0120element": 5985, "\u0120reus": 5986, "ille": 5987, "\u0120hit": 5988, "rive": 5989, "\u0120codes": 5990, "ode": 5991, "through": 5992, "\u0120margin": 5993, "\u0120york": 5994, "\u0120haul": 5995, "\u0120assistive": 5996, "\u012091": 5997, "\u0120publicly": 5998, "\u0120save": 5999, "\u0120nov": 6000, "\u0120rising": 6001, "\u0120remed": 6002, "iterran": 6003, "\u0120phot": 6004, "\u0120dependence": 6005, "\u0120paragraphe": 6006, "\u0120presumption": 6007, "\u0120owned": 6008, "aux": 6009, "\u0120incentiv": 6010, "\u0120accordingly": 6011, "\u0120rapidly": 6012, "\u0120interoperable": 6013, "\u0120manufacturer": 6014, "\u0120derived": 6015, "\u0120grounds": 6016, "\u0120stimul": 6017, "\u0120feasible": 6018, "depth": 6019, "\u0120.......": 6020, "green": 6021, "\u0120subsidiaries": 6022, "\u0120ideas": 6023, "\u0120claims": 6024, "\u0120issued": 6025, "personal": 6026, "accessed": 6027, "\u0120earnings": 6028, "\u0120atmosph": 6029, "\u0120pharmaceu": 6030, "mail": 6031, "\u0120pron": 6032, "atch": 6033, "ingu": 6034, "\u0120mer": 6035, "\u0120alone": 6036, "\u0120parc": 6037, "\u0120contains": 6038, "\u0120arising": 6039, "\u0120argu": 6040, "\u0120happ": 6041, "\u0120capita": 6042, "\u0120traveller": 6043, "\u0120annexes": 6044, "\u0120adopting": 6045, "\u0120leads": 6046, "\u0120delivered": 6047, "\u0120domains": 6048, "\u0120renovations": 6049, "\u0120distributed": 6050, "\u0120mitigating": 6051, "\u0120matters": 6052, "\u0120previously": 6053, "\u0120predomin": 6054, "\u0120teach": 6055, "\u0120sense": 6056, "\u0120extremes": 6057, "\u0120appear": 6058, "\u0120climatic": 6059, "\u0120engineering": 6060, "\u0120approximate": 6061, "\u0120narrow": 6062, "\u0120suggests": 6063, "\u0120akis": 6064, "\u0120violence": 6065, "business": 6066, "\u0120korea": 6067, "building": 6068, "aving": 6069, "rich": 6070, "zen": 6071, "\u0120ren": 6072, "ury": 6073, "\u0120ncsd": 6074, "\u0120his": 6075, "\u0120forces": 6076, "asive": 6077, "sian": 6078, "\u0120activ": 6079, "rafts": 6080, "\u0120alle": 6081, "\u0120incur": 6082, "\u0120rule": 6083, "\u0120reservation": 6084, "advant": 6085, "\u0120marking": 6086, "\u0120kp": 6087, "\u0120producer": 6088, "\u0120recording": 6089, "\u0120money": 6090, "\u0120sett": 6091, "\u0120budgetary": 6092, "\u0120distin": 6093, "\u0120correl": 6094, "\u0120called": 6095, "\u0120annum": 6096, "\u0120considers": 6097, "\u0120paragraphs": 6098, "\u0120distributional": 6099, "\u0120journey": 6100, "\u0120everyone": 6101, "\u0120contained": 6102, "\u0120falling": 6103, "\u0120manager": 6104, "\u0120ownership": 6105, "\u0120quickly": 6106, "\u0120datasets": 6107, "\u0120ntg": 6108, "\u0120psych": 6109, "\u0120factsheet": 6110, "world": 6111, "iterranean": 6112, "jan": 6113, "lateral": 6114, "ui": 6115, "\u0120things": 6116, "\u0120eip": 6117, "\u0120dash": 6118, "\u0120touch": 6119, "\u0120react": 6120, "iling": 6121, "\u0120stable": 6122, "\u0120assi": 6123, "\u0120coup": 6124, "\u0120imm": 6125, "\u0120imposed": 6126, "\u0120vac": 6127, "\u0120compare": 6128, "\u0120comparing": 6129, "\u0120uncr": 6130, "\u0120usual": 6131, "\u0120prelim": 6132, "\u0120disasters": 6133, "\u0120innovate": 6134, "\u0120greening": 6135, "\u0120week": 6136, "\u0120subsc": 6137, "\u0120locations": 6138, "\u0120worlds": 6139, "\u0120minor": 6140, "\u0120phone": 6141, "ugg": 6142, "\u0120giving": 6143, "\u0120dependency": 6144, "\u0120barrier": 6145, "\u0120entrepreneur": 6146, "\u0120residence": 6147, "\u0120sumps": 6148, "\u0120fourth": 6149, "\u0120belong": 6150, "thetic": 6151, "\u0120perceived": 6152, "\u0120inequality": 6153, "\u0120installations": 6154, "\u0120records": 6155, "\u0120interviews": 6156, "\u0120maps": 6157, "\u0120preparedness": 6158, "\u0120eastern": 6159, "\u0120billing": 6160, "\u0120recruit": 6161, "\u0120agroecology": 6162, "\u0120keywords": 6163, "lantic": 6164, "\u0120sharp": 6165, "\u0120courses": 6166, "\u0120receipts": 6167, "gain": 6168, "td": 6169, "\u0120tit": 6170, "\u0120away": 6171, "inent": 6172, "rep": 6173, "\u0120cand": 6174, "\u0120inland": 6175, "ark": 6176, "\u0120stra": 6177, "odes": 6178, "\u0120alter": 6179, "\u0120touristic": 6180, "\u0120cham": 6181, "ift": 6182, "endix": 6183, "\u0120exposed": 6184, "ght": 6185, "\u0120disadvant": 6186, "\u0120refu": 6187, "\u0120references": 6188, "\u0120monit": 6189, "\u0120ensured": 6190, "\u0120accessing": 6191, "\u0120advances": 6192, "\u0120mind": 6193, "\u0120organisational": 6194, "\u0120vulnerabilities": 6195, "\u0120facilitated": 6196, "\u0120mediterranean": 6197, "\u0120feedstock": 6198, "\u0120properties": 6199, "\u0120optimise": 6200, "\u0120alongside": 6201, "\u0120indirectly": 6202, "\u0120regularly": 6203, "\u0120scales": 6204, "\u0120amendment": 6205, "\u0120entity": 6206, "\u0120banks": 6207, "\u0120freedom": 6208, "bursement": 6209, "\u0120picture": 6210, "08": 6211, "horizon": 6212, "lin": 6213, "mod": 6214, "site": 6215, "yl": 6216, "\u0120tce": 6217, "ena": 6218, "enn": 6219, "itch": 6220, "\u0120wal": 6221, "uled": 6222, "\u0120gr": 6223, "oli": 6224, "oles": 6225, "\u0120begin": 6226, "\u0120anticip": 6227, "\u0120left": 6228, "\u0120sovere": 6229, "\u0120varies": 6230, "berg": 6231, "\u0120sequ": 6232, "\u0120trace": 6233, "\u0120grew": 6234, "\u0120dischar": 6235, "\u0120disruption": 6236, "\u0120amended": 6237, "\u0120routes": 6238, "\u0120capability": 6239, "like": 6240, "\u0120simulations": 6241, "\u0120estimation": 6242, "\u0120shortfall": 6243, "\u0120domain": 6244, "\u0120functionality": 6245, "\u0120flash": 6246, "\u0120exploit": 6247, "\u0120socioeconomic": 6248, "pancy": 6249, "\u0120geographic": 6250, "\u0120youtube": 6251, "\u0120papers": 6252, "\u0120sensitivity": 6253, "\u0120feder": 6254, "\u0120interconnected": 6255, "\u0120buyers": 6256, "\u0120candid": 6257, "hn": 6258, "\u0120sell": 6259, "ened": 6260, "\u0120ou": 6261, "\u0120front": 6262, "\u0120ep": 6263, "itarian": 6264, "\u0120mess": 6265, "\u0120nul": 6266, "\u0120nort": 6267, "\u0120uber": 6268, "ime": 6269, "abel": 6270, "\u0120leave": 6271, "\u0120leaving": 6272, "\u0120neb": 6273, "umn": 6274, "\u0120accred": 6275, "\u0120seam": 6276, "\u0120agent": 6277, "\u0120explicit": 6278, "\u0120moving": 6279, "\u0120notify": 6280, "ewater": 6281, "\u0120numerous": 6282, "\u0120signed": 6283, "sharing": 6284, "\u0120describe": 6285, "\u0120customs": 6286, "\u0120behavior": 6287, "\u0120remained": 6288, "\u0120calculate": 6289, "\u0120emergence": 6290, "\u0120device": 6291, "\u0120suitability": 6292, "rimin": 6293, "value": 6294, "\u0120vaccination": 6295, "\u0120schools": 6296, "\u0120aquatic": 6297, "zeropollution": 6298, "\u0120accurate": 6299, "\u0120benchmar": 6300, "\u0120iams": 6301, "\u0120identity": 6302, "\u0120terminals": 6303, "\u0120metrics": 6304, "\u0120complaints": 6305, "policy": 6306, "\u0120uncrpd": 6307, "\u0120preliminary": 6308, "cri": 6309, "dm": 6310, "fiques": 6311, "high": 6312, "sub": 6313, "uine": 6314, "indu": 6315, "environ": 6316, "\u0120cge": 6317, "\u0120edi": 6318, "\u0120html": 6319, "\u0120forth": 6320, "igen": 6321, "\u0120alia": 6322, "\u0120exists": 6323, "\u0120dead": 6324, "eres": 6325, "\u0120vouch": 6326, "duct": 6327, "\u0120ecol": 6328, "\u0120regener": 6329, "\u0120unp": 6330, "\u0120polar": 6331, "\u0120sustainably": 6332, "aste": 6333, "\u0120asset": 6334, "\u0120follows": 6335, "\u0120creates": 6336, "\u0120unionhow": 6337, "\u0120purs": 6338, "\u0120timely": 6339, "\u0120feature": 6340, "\u0120populations": 6341, "\u0120continent": 6342, "\u0120charging": 6343, "\u0120clustering": 6344, "\u0120exchanges": 6345, "\u0120harmful": 6346, "\u0120limiting": 6347, "\u0120carrier": 6348, "\u0120evaluating": 6349, "\u0120computers": 6350, "\u0120skip": 6351, "\u0120incorporate": 6352, "\u0120awarded": 6353, "\u0120urgent": 6354, "\u0120favourable": 6355, "\u0120supplied": 6356, "\u0120explanation": 6357, "\u0120contestability": 6358, "\u0120jurisdiction": 6359, "\u0120spcifiques": 6360, "\u0120curricula": 6361, "\u0120seamless": 6362, "bal": 6363, "lled": 6364, "law": 6365, "ws": 6366, "\u0120+": 6367, "rective": 6368, "\u0120sont": 6369, "\u0120file": 6370, "\u0120ease": 6371, "article": 6372, "\u0120homes": 6373, "chemical": 6374, "\u0120sou": 6375, "\u0120sole": 6376, "\u0120resol": 6377, "\u0120producing": 6378, "\u0120modal": 6379, "\u0120quest": 6380, "\u0120differ": 6381, "\u0120entail": 6382, "\u0120ensures": 6383, "arters": 6384, "\u0120monetary": 6385, "\u0120imports": 6386, "\u0120labs": 6387, "\u0120detection": 6388, "useum": 6389, "\u0120taxonomy": 6390, "\u0120demands": 6391, "\u0120bargain": 6392, "\u0120swift": 6393, "\u0120veget": 6394, "\u0120restriction": 6395, "\u0120belief": 6396, "\u0120intelligent": 6397, "\u0120settings": 6398, "legal": 6399, "\u0120ambitions": 6400, "\u0120continuous": 6401, "\u0120retailers": 6402, "sight": 6403, "\u0120americas": 6404, "\u0120consequently": 6405, "where": 6406, "\u0120conceptual": 6407, "sdgs": 6408, "\u0120transmitted": 6409, "\u0120vaccine": 6410, "\u0120meaningful": 6411, "\u0120algorithms": 6412, "\u0120occupational": 6413, "\u0120synthetic": 6414, "sectoral": 6415, "ogene": 6416, "\u0120verifier": 6417, "multiple": 6418, "\u0120ranging": 6419, "country": 6420, "\u0120retrieved": 6421, "flow": 6422, "html": 6423, "ycle": 6424, "orient": 6425, "\u0120powers": 6426, "aled": 6427, "\u0120fill": 6428, "\u0120mass": 6429, "raw": 6430, "sey": 6431, "\u0120colo": 6432, "\u0120exemp": 6433, "\u0120exclusive": 6434, "\u0120sho": 6435, "oting": 6436, "\u0120rich": 6437, "\u0120ves": 6438, "\u0120compati": 6439, "\u0120composition": 6440, "\u0120appendix": 6441, "ends": 6442, "\u0120consensus": 6443, "\u0120newly": 6444, "\u0120mode": 6445, "\u0120scar": 6446, "\u0120proposes": 6447, "\u0120................................................................": 6448, "\u0120addresses": 6449, "develop": 6450, "\u0120washing": 6451, "\u0120lik": 6452, "\u0120sometimes": 6453, "\u0120twins": 6454, "\u0120virus": 6455, "\u0120characterised": 6456, "\u0120positioning": 6457, "\u0120causes": 6458, "\u0120genuine": 6459, "\u0120complaint": 6460, "\u0120opinions": 6461, "\u0120streams": 6462, "\u0120translate": 6463, "\u0120constitute": 6464, "\u0120evolving": 6465, "\u0120removals": 6466, "\u0120president": 6467, "\u0120venture": 6468, "\u0120ultimately": 6469, "\u0120approximately": 6470, "represent": 6471, "igenous": 6472, "aut": 6473, "dens": 6474, "rated": 6475, "text": 6476, "yen": 6477, "\u0120tips": 6478, "inars": 6479, "\u0120ef": 6480, "\u0120ele": 6481, "\u0120warning": 6482, "abil": 6483, "\u0120resist": 6484, "\u0120compost": 6485, "anda": 6486, "\u0120digitally": 6487, "ultane": 6488, "\u0120ham": 6489, "\u0120underm": 6490, "\u0120heart": 6491, "\u0120invested": 6492, "\u0120financi": 6493, "\u0120travelers": 6494, "\u0120inspec": 6495, "\u0120internationally": 6496, "\u0120labor": 6497, "plas": 6498, "\u0120participated": 6499, "\u0120variable": 6500, "\u0120simultane": 6501, "short": 6502, "lingual": 6503, "\u0120earlier": 6504, "\u0120holding": 6505, "\u0120enabled": 6506, "\u0120revise": 6507, "\u0120dmissions": 6508, "\u0120aligned": 6509, "\u0120courts": 6510, "\u0120expanding": 6511, "\u0120purchases": 6512, "\u0120independence": 6513, "\u0120adjusted": 6514, "\u0120adjustment": 6515, "racted": 6516, "\u0120quantity": 6517, "\u0120frequency": 6518, "\u0120history": 6519, "\u0120mobilise": 6520, "\u0120brand": 6521, "\u0120sexual": 6522, "\u0120reinforced": 6523, "\u0120tickets": 6524, "\u0120crowd": 6525, "\u0120australia": 6526, "dependent": 6527, "hoods": 6528, "\u0120lifestyles": 6529, "communities": 6530, "\u0120brazil": 6531, "\u0120marginal": 6532, "\u0120incurred": 6533, "\u0120pursue": 6534, "ao": 6535, "bas": 6536, "bia": 6537, "cut": 6538, "lar": 6539, "mid": 6540, "\u0120ion": 6541, "\u0120think": 6542, "\u0120selling": 6543, "\u0120opp": 6544, "tional": 6545, "\u0120eight": 6546, "ancy": 6547, "eds": 6548, "\u0120bes": 6549, "\u0120magn": 6550, "ections": 6551, "\u0120(%": 6552, "sitive": 6553, "aco": 6554, "\u0120stability": 6555, "\u0120asp": 6556, "\u0120cope": 6557, "\u0120anti": 6558, "\u0120neither": 6559, "\u0120conserv": 6560, "\u0120canada": 6561, "\u0120prs": 6562, "\u0120disput": 6563, "cycle": 6564, "\u0120indigenous": 6565, "\u0120contributed": 6566, "\u0120analysed": 6567, "\u0120wastewater": 6568, "\u0120timing": 6569, "\u0120beneficial": 6570, "\u0120multilingual": 6571, "\u0120profiles": 6572, "\u0120corrid": 6573, "\u0120guides": 6574, "\u0120instagram": 6575, "\u0120microenterprises": 6576, "\u0120gives": 6577, "\u0120cycles": 6578, "\u0120humanities": 6579, "\u0120broadly": 6580, "\u0120oceans": 6581, "\u0120quantification": 6582, "\u0120influenced": 6583, "\u0120collectively": 6584, "\u0120acceptance": 6585, "\u0120qualified": 6586, "\u0120qualifications": 6587, "\u0120replace": 6588, "\u0120permit": 6589, "\u0120bookings": 6590, "\u0120laying": 6591, "\u0120headqu": 6592, "\u0120concentration": 6593, "\u0120constructeurs": 6594, "transform": 6595, "riminatory": 6596, "\u0120washington": 6597, "\u0120disputes": 6598, "elect": 6599, "fe": 6600, "ipped": 6601, "pa": 6602, "sbs": 6603, "tr": 6604, "wc": 6605, "\u0120ahead": 6606, "\u0120sv": 6607, "\u0120pus": 6608, "\u0120museum": 6609, "\u0120proven": 6610, "uls": 6611, "siven": 6612, "\u0120lag": 6613, "\u0120lines": 6614, "\u0120exac": 6615, "ante": 6616, "\u0120productive": 6617, "aggreg": 6618, "\u0120relies": 6619, "\u0120changed": 6620, "\u0120indicating": 6621, "\u0120guests": 6622, "\u0120industri": 6623, "enses": 6624, "places": 6625, "\u0120variations": 6626, "\u0120basin": 6627, "\u0120lifec": 6628, "\u0120excel": 6629, "\u0120continues": 6630, "\u0120involves": 6631, "locking": 6632, "ography": 6633, "\u0120restrict": 6634, "\u0120updates": 6635, "\u0120biggest": 6636, "\u0120adequately": 6637, "\u0120temporal": 6638, "\u0120harmonisation": 6639, "\u0120ukra": 6640, "\u0120mandate": 6641, "sectors": 6642, "ckin": 6643, "\u0120closer": 6644, "\u0120semester": 6645, "\u0120academia": 6646, "growth": 6647, "\u0120interpretation": 6648, "\u0120brief": 6649, "\u0120warming": 6650, "\u0120forthcoming": 6651, "siveness": 6652, "cost": 6653, "dr": 6654, "doc": 6655, "gments": 6656, "lies": 6657, "\u0120aver": 6658, "\u0120breed": 6659, "chelle": 6660, "\u0120island": 6661, "cia": 6662, "\u0120incomes": 6663, "\u0120interlink": 6664, "iche": 6665, "jectif": 6666, "\u0120saw": 6667, "\u0120employer": 6668, "\u0120indicates": 6669, "\u0120google": 6670, "\u0120accessed": 6671, "\u0120helped": 6672, "\u0120designated": 6673, "\u0120multilateral": 6674, "\u0120distance": 6675, "\u0120corner": 6676, "standard": 6677, "\u0120startup": 6678, "\u0120renewed": 6679, "\u0120...": 6680, "\u0120specialist": 6681, "\u0120ageing": 6682, "\u0120consistency": 6683, "\u0120occupancy": 6684, "\u0120channel": 6685, "\u0120greatest": 6686, "\u0120milestone": 6687, "\u0120benchmark": 6688, "\u0120geneva": 6689, "\u0120...................................................": 6690, "\u0120believe": 6691, "\u0120enforcing": 6692, "\u0120religious": 6693, "\u0120scholar": 6694, "allel": 6695, "\u0120chamber": 6696, "\u0120exacerb": 6697, "ckinsey": 6698, "\u0120tree": 6699, "onduct": 6700, "resid": 6701, "entic": 6702, "\u0120cult": 6703, "\u0120cjeu": 6704, "ani": 6705, "\u0120worth": 6706, "ara": 6707, "ley": 6708, "stake": 6709, "\u0120nit": 6710, "utors": 6711, "ured": 6712, "thes": 6713, "thing": 6714, "china": 6715, "\u0120white": 6716, "\u0120parallel": 6717, "duction": 6718, "\u0120worked": 6719, "ifying": 6720, "\u0120appli": 6721, "\u0120ju": 6722, "\u0120seas": 6723, "\u0120seems": 6724, "\u0120ke": 6725, "ives": 6726, "\u0120lost": 6727, "\u0120reco": 6728, "\u0120partly": 6729, "agri": 6730, "\u0120proposing": 6731, "\u0120establishes": 6732, "emiconduct": 6733, "\u0120extending": 6734, "\u0120foresight": 6735, "lling": 6736, "standing": 6737, "\u0120linking": 6738, "index": 6739, "\u0120specialised": 6740, "\u0120respecting": 6741, "\u0120updating": 6742, "\u0120analytical": 6743, "\u0120heatw": 6744, "\u0120containers": 6745, "\u0120debate": 6746, "\u0120edge": 6747, "\u0120uncertainties": 6748, "\u0120quarterly": 6749, "\u0120machine": 6750, "source": 6751, "\u0120coupled": 6752, "\u0120bargaining": 6753, "\u0120shopping": 6754, "fer": 6755, "ham": 6756, "smes": 6757, "women": 6758, "waste": 6759, "ya": 6760, "\u0120awards": 6761, "ortive": 6762, "\u0120cad": 6763, "\u0120pace": 6764, "itable": 6765, "\u0120nud": 6766, "\u0120nou": 6767, "\u0120nive": 6768, "\u0120hin": 6769, "\u0120heter": 6770, "\u0120gal": 6771, "\u0120gains": 6772, "\u0120asked": 6773, "tsa": 6774, "eland": 6775, "otourism": 6776, "\u0120incom": 6777, "\u0120unclear": 6778, "\u0120digcomp": 6779, "\u0120intercultural": 6780, "soft": 6781, "open": 6782, "\u0120strugg": 6783, "\u0120indeed": 6784, "\u0120repos": 6785, "\u0120visible": 6786, "\u0120understandable": 6787, "medium": 6788, "\u0120presentation": 6789, "\u0120conferences": 6790, "\u0120ipol": 6791, "\u0120resident": 6792, "\u0120progressive": 6793, "\u0120foresters": 6794, "\u0120accelerated": 6795, "\u0120expenditures": 6796, "\u0120cement": 6797, "\u0120senior": 6798, "\u0120ranked": 6799, "\u0120planetary": 6800, "\u0120reflecting": 6801, "neutrality": 6802, "\u0120drawing": 6803, "\u0120carrying": 6804, "\u0120separately": 6805, "\u0120tracking": 6806, "\u0120greatly": 6807, "\u0120habitat": 6808, "\u0120certificates": 6809, "\u0120proxy": 6810, "\u0120ccri": 6811, "\u0120systematically": 6812, "\u0120conversion": 6813, "\u0120fragmented": 6814, "\u0120mental": 6815, "\u0120cancellation": 6816, "\u0120reimbursement": 6817, "\u0120allevi": 6818, "\u0120deadlines": 6819, "base": 6820, "def": 6821, "fo": 6822, "ker": 6823, "nace": 6824, "\u0120pes": 6825, "\u0120eif": 6826, "itud": 6827, "\u0120rebound": 6828, "leu": 6829, "ilo": 6830, "imp": 6831, "sea": 6832, "\u0120alb": 6833, "\u0120shops": 6834, "\u0120parks": 6835, "\u0120let": 6836, "\u0120levers": 6837, "\u0120plays": 6838, "\u0120vill": 6839, "\u0120vast": 6840, "duced": 6841, "\u0120econ": 6842, "\u0120ecotourism": 6843, "\u0120clarity": 6844, "\u0120digitalised": 6845, "\u0120inters": 6846, "\u0120recon": 6847, "\u0120dispar": 6848, "\u0120room": 6849, "\u0120overlap": 6850, "\u0120equipped": 6851, "\u0120repay": 6852, "\u0120waterborne": 6853, "\u0120larticle": 6854, "\u0120advancing": 6855, "\u0120peoples": 6856, "\u0120distingu": 6857, "\u0120affili": 6858, "\u0120necessarily": 6859, "\u0120competencies": 6860, "\u0120true": 6861, "\u0120facilitates": 6862, "\u0120cycling": 6863, "\u0120domin": 6864, "\u0120combus": 6865, "\u0120preserving": 6866, "\u0120turkey": 6867, "\u0120ipcc": 6868, "\u0120menu": 6869, "\u0120politics": 6870, "\u0120pilots": 6871, "\u0120complemented": 6872, "\u0120carriers": 6873, "\u0120evaluations": 6874, "urismo": 6875, "project": 6876, "\u0120calculations": 6877, "\u0120movements": 6878, "\u0120irr": 6879, "\u0120attractiveness": 6880, "who": 6881, "\u0120perception": 6882, "\u0120checks": 6883, "\u0120frequent": 6884, "\u0120simplify": 6885, "miss": 6886, "knows": 6887, "\u0120scaleu": 6888, "\u0120ethnic": 6889, "\u0120catal": 6890, "\u0120iceland": 6891, "\u0120battery": 6892, "\u0120accuracy": 6893, "\u0120federation": 6894, "xico": 6895, "\u0120consolidated": 6896, "\u0120casc": 6897, "\u0120orientation": 6898, "\u0120extraction": 6899, "\u0120inhabitants": 6900, "\u0120distinguish": 6901, "bid": 6902, "ez": 6903, "gue": 6904, "iable": 6905, "ns": 6906, "uments": 6907, "invest": 6908, "rend": 6909, "\u0120sport": 6910, "\u0120eib": 6911, "\u0120wil": 6912, "\u0120wet": 6913, "\u0120nine": 6914, "\u0120proof": 6915, "\u0120lg": 6916, "\u0120stated": 6917, "vier": 6918, "osis": 6919, "ads": 6920, "\u0120workplace": 6921, "\u0120sustained": 6922, "ditions": 6923, "ribe": 6924, "ueleu": 6925, "\u0120assemb": 6926, "\u0120innovators": 6927, "\u0120valor": 6928, "\u0120locally": 6929, "\u0120email": 6930, "\u0120offici": 6931, "\u0120sold": 6932, "\u0120reproduc": 6933, "\u0120termination": 6934, "\u0120statements": 6935, "\u0120cooperative": 6936, "\u0120formation": 6937, "\u0120scienti": 6938, "\u0120obligated": 6939, "\u0120learned": 6940, "pread": 6941, "\u0120annually": 6942, "\u0120combining": 6943, "\u0120capitalise": 6944, "\u0120cleaning": 6945, "\u0120meters": 6946, "\u0120incentive": 6947, "\u0120cambodian": 6948, "\u0120enablers": 6949, "\u0120positively": 6950, "\u0120audio": 6951, "\u0120enhancement": 6952, "ova": 6953, "\u0120abstr": 6954, "\u0120floods": 6955, "\u0120expanded": 6956, "\u0120shifts": 6957, "\u0120affordability": 6958, "\u0120getting": 6959, "\u0120preparatory": 6960, "\u0120appears": 6961, "point": 6962, "\u0120hazardous": 6963, "\u0120excluded": 6964, "\u0120clarify": 6965, "\u0120suffered": 6966, "\u0120foreseen": 6967, "\u0120lobjectif": 6968, "\u0120embedded": 6969, "urope": 6970, "resilient": 6971, "\u0120ecolabel": 6972, "\u0120sought": 6973, "transformations": 6974, "\u0120recovered": 6975, "\u0120heterogene": 6976, "bd": 6977, "kers": 6978, "\u0120turismo": 6979, "reci": 6980, "\u0120cam": 6981, "\u0120cord": 6982, "\u0120pest": 6983, "edia": 6984, "ilies": 6985, "los": 6986, "old": 6987, "\u0120lays": 6988, "\u0120stores": 6989, "\u0120isbn": 6990, "alled": 6991, "\u0120click": 6992, "\u0120marked": 6993, "\u0120interdisciplinary": 6994, "\u0120traders": 6995, "\u0120undue": 6996, "\u0120strict": 6997, "\u0120precip": 6998, "\u0120bias": 6999, "\u0120headline": 7000, "\u0120employee": 7001, "\u0120impacted": 7002, "\u0120defines": 7003, "\u0120authentic": 7004, "\u0120rapport": 7005, "\u0120experiments": 7006, "\u0120seeking": 7007, "iances": 7008, "\u0120charter": 7009, "\u0120microplas": 7010, "\u0120linear": 7011, "\u0120meets": 7012, "\u0120builds": 7013, "ensions": 7014, "\u0120quantify": 7015, "\u0120accelerator": 7016, "\u0120successfully": 7017, "\u0120properly": 7018, "\u0120irish": 7019, "\u0120trusted": 7020, "\u0120drawn": 7021, "\u0120climat": 7022, "\u0120families": 7023, "\u0120glass": 7024, "\u0120disruptive": 7025, "\u0120judicial": 7026, "\u0120disclose": 7027, "\u0120bankruptcy": 7028, "stakeholder": 7029, "\u0120appliances": 7030, "\u0120hinder": 7031, "fort": 7032, "gdp": 7033, "iant": 7034, "met": 7035, "system": 7036, "section": 7037, "vent": 7038, "\u0120ton": 7039, "\u0120tangible": 7040, "\u0120semiconduct": 7041, "\u0120pages": 7042, "\u0120oil": 7043, "\u0120fal": 7044, "roph": 7045, "rogen": 7046, "\u0120rechar": 7047, "ster": 7048, "\u0120gpp": 7049, "ette": 7050, "\u0120super": 7051, "ema": 7052, "pper": 7053, "\u0120shock": 7054, "antly": 7055, "\u0120spend": 7056, "arent": 7057, "\u0120consists": 7058, "\u0120alliances": 7059, "\u0120capable": 7060, "\u0120costa": 7061, "\u0120esa": 7062, "titution": 7063, "\u0120labels": 7064, "plus": 7065, "\u0120objects": 7066, "\u0120extracted": 7067, "\u0120libr": 7068, "\u0120organisers": 7069, "\u0120verify": 7070, "fully": 7071, "shore": 7072, "\u0120zones": 7073, "\u0120mediation": 7074, "\u0120instructions": 7075, "\u0120minimising": 7076, "\u0120burdens": 7077, "\u0120precise": 7078, "demand": 7079, "\u0120speak": 7080, "\u0120nutrients": 7081, "\u0120templ": 7082, "\u0120keeping": 7083, "\u0120diversify": 7084, "\u0120proficient": 7085, "\u0120synergy": 7086, "\u0120sanitation": 7087, "\u0120mixed": 7088, "\u0120entitled": 7089, "\u0120bills": 7090, "\u0120rolling": 7091, "blue": 7092, "\u0120prosperity": 7093, "\u0120premium": 7094, "\u0120scoping": 7095, "\u0120eiis": 7096, "\u0120leveraging": 7097, "\u0120dashboard": 7098, "\u0120sovereign": 7099, "\u0120vouchers": 7100, "\u0120exemptions": 7101, "cutting": 7102, "\u0120combustion": 7103, "ben": 7104, "cp": 7105, "cos": 7106, "function": 7107, "gl": 7108, "here": 7109, "hof": 7110, "llo": 7111, "matic": 7112, "non": 7113, "inal": 7114, "\u0120cater": 7115, "\u0120crafts": 7116, "\u0120fine": 7117, "\u0120friend": 7118, "\u0120blo": 7119, "\u0120borrow": 7120, "\u0120retain": 7121, "imes": 7122, "\u0120comments": 7123, "viations": 7124, "emed": 7125, "\u0120envo": 7126, "raising": 7127, "eli": 7128, "\u0120shipping": 7129, "\u0120imply": 7130, "\u0120rception": 7131, "\u0120rdm": 7132, "umes": 7133, "\u0120compound": 7134, "\u0120unlike": 7135, "\u0120segment": 7136, "\u0120interpersonal": 7137, "izes": 7138, "cession": 7139, "\u0120direction": 7140, "agu": 7141, "\u0120notified": 7142, "\u0120sections": 7143, "\u0120emas": 7144, "\u0120promising": 7145, "platform": 7146, "\u0120liability": 7147, "\u0120fees": 7148, "\u0120multiannual": 7149, "\u0120closing": 7150, "\u0120encourages": 7151, "\u0120gateway": 7152, "\u0120consulting": 7153, "\u0120cyber": 7154, "\u0120combat": 7155, "\u0120humanitarian": 7156, "\u0120preserve": 7157, "\u0120undertake": 7158, "\u0120hold": 7159, "\u0120standardised": 7160, "\u0120soils": 7161, "proof": 7162, "profit": 7163, "afrd": 7164, "\u0120allocate": 7165, "\u0120apart": 7166, "\u0120conformment": 7167, "\u0120maintained": 7168, "\u0120utilita": 7169, "rupted": 7170, "\u0120animals": 7171, "\u0120fulfill": 7172, "\u0120advantages": 7173, "\u0120.........": 7174, "\u0120highlighting": 7175, "\u0120subsidiarity": 7176, "\u0120varying": 7177, "\u0120remove": 7178, "\u0120academy": 7179, "\u0120municipal": 7180, "\u0120windows": 7181, "party": 7182, "\u0120infringement": 7183, "current": 7184, "\u0120protocols": 7185, "\u0120stemming": 7186, "\u0120automatically": 7187, "\u0120buffer": 7188, "\u0120traceability": 7189, "\u0120northern": 7190, "oriented": 7191, "\u0120prsent": 7192, "aggregated": 7193, "\u0120industrials": 7194, "\u0120lifecycle": 7195, "\u0120cascading": 7196, "\u0120utilitaires": 7197, "gie": 7198, "hs": 7199, "million": 7200, "oint": 7201, "worth": 7202, "\u0120ice": 7203, "era": 7204, "ora": 7205, "organ": 7206, "espread": 7207, "\u0120ped": 7208, "\u0120pests": 7209, "alence": 7210, "att": 7211, "\u0120dp": 7212, "\u0120mort": 7213, "\u0120male": 7214, "\u0120reward": 7215, "ura": 7216, "logy": 7217, "\u0120suiv": 7218, "\u0120las": 7219, "\u0120stop": 7220, "\u0120death": 7221, "used": 7222, "ffs": 7223, "\u0120imposing": 7224, "\u0120composed": 7225, "result": 7226, "ids": 7227, "veli": 7228, "\u0120marri": 7229, "\u0120manip": 7230, "\u0120manual": 7231, "\u0120decid": 7232, "\u0120rout": 7233, "\u0120adapting": 7234, "working": 7235, "\u0120faces": 7236, "\u0120entering": 7237, "\u0120ibid": 7238, "\u0120reduces": 7239, "\u0120curren": 7240, "\u0120crunch": 7241, "\u0120liveli": 7242, "\u0120deter": 7243, "\u0120deliber": 7244, "\u0120lacking": 7245, "\u0120elder": 7246, "\u0120nextgeneration": 7247, "communic": 7248, "\u0120qualification": 7249, "\u0120negatively": 7250, "\u0120widespread": 7251, "\u0120forecasts": 7252, "\u0120collecting": 7253, "\u0120original": 7254, "\u0120harvest": 7255, "responsibilities": 7256, "\u0120closure": 7257, "\u0120emphasis": 7258, "\u0120safeguarding": 7259, "\u0120disclos": 7260, "\u0120removal": 7261, "\u0120eliminate": 7262, "\u0120recreational": 7263, "\u0120heavy": 7264, "\u0120dropped": 7265, "\u0120contaminants": 7266, "\u0120acquisition": 7267, "otypes": 7268, "\u0120pipe": 7269, "\u0120fertilisers": 7270, "\u0120correspond": 7271, "\u0120correlation": 7272, "\u0120vessels": 7273, "\u0120simultaneously": 7274, "\u0120cadre": 7275, "band": 7276, "case": 7277, "days": 7278, "glob": 7279, "hib": 7280, "ique": 7281, "lation": 7282, "made": 7283, "pal": 7284, "post": 7285, "\u0120sort": 7286, "\u0120sale": 7287, "\u0120theory": 7288, "ories": 7289, "\u0120pul": 7290, "\u0120pet": 7291, "\u0120pays": 7292, "\u0120ine": 7293, "\u0120fell": 7294, "itures": 7295, "edge": 7296, "\u0120bilateral": 7297, "\u0120mckinsey": 7298, "\u0120sud": 7299, "\u0120lgers": 7300, "\u0120cosme": 7301, "irth": 7302, "\u0120whom": 7303, "\u0120wholes": 7304, "\u0120implies": 7305, "\u0120rf": 7306, "\u0120neu": 7307, "\u0120voting": 7308, "\u0120supportive": 7309, "\u0120unlock": 7310, "\u0120unlocking": 7311, "mpl": 7312, "agencies": 7313, "\u0120modif": 7314, "\u0120quant": 7315, "\u0120generating": 7316, "exp": 7317, "\u0120specificities": 7318, "\u0120mainland": 7319, "\u0120cerom": 7320, "\u0120minister": 7321, "\u0120profits": 7322, "haul": 7323, "\u0120reviewed": 7324, "\u0120inclusiveness": 7325, "share": 7326, "\u0120criterion": 7327, "\u0120granular": 7328, "\u0120resulted": 7329, "\u0120restoring": 7330, "\u0120receiving": 7331, "\u0120stepping": 7332, "\u0120avoided": 7333, "\u0120temporarily": 7334, "\u0120blueprint": 7335, "\u0120specify": 7336, "\u0120durable": 7337, "\u0120questionna": 7338, "\u0120flooding": 7339, "\u0120ministries": 7340, "known": 7341, "\u0120voitures": 7342, "\u0120exceptional": 7343, "\u0120suggested": 7344, "\u0120machines": 7345, "\u0120penalty": 7346, "\u0120gradually": 7347, "\u0120acknowled": 7348, "\u0120experimentation": 7349, "\u0120scheduled": 7350, "discriminatory": 7351, "\u0120excellence": 7352, "\u0120distinct": 7353, "\u0120ukraine": 7354, "\u0120scientists": 7355, "\u0120precipitation": 7356, "brid": 7357, "cn": 7358, "fir": 7359, "ng": 7360, "nec": 7361, "wa": 7362, "rele": 7363, "ese": 7364, "esco": 7365, "ala": 7366, "\u0120files": 7367, "\u0120dss": 7368, "\u0120tow": 7369, "ications": 7370, "\u0120resi": 7371, "ste": 7372, "\u0120gam": 7373, "\u0120store": 7374, "\u0120beach": 7375, "\u0120deemed": 7376, "\u0120adding": 7377, "\u0120dates": 7378, "\u0120spect": 7379, "strate": 7380, "\u0120trader": 7381, "cessive": 7382, "\u0120foods": 7383, "\u0120hearing": 7384, "\u0120employing": 7385, "ousand": 7386, "\u0120wherever": 7387, "\u0120whereby": 7388, "\u0120efficiently": 7389, "\u0120partnersresult": 7390, "\u0120actually": 7391, "\u0120iot": 7392, "\u0120integrity": 7393, "\u0120indicatorsresponsibilities": 7394, "irds": 7395, "\u0120paying": 7396, "locks": 7397, "\u0120humans": 7398, "\u0120functionalities": 7399, "\u0120limitation": 7400, "after": 7401, "\u0120consequence": 7402, "which": 7403, "\u0120robustness": 7404, "\u0120validated": 7405, "\u0120submitting": 7406, "\u0120arrangement": 7407, "\u0120absor": 7408, "\u0120%),": 7409, "\u0120huge": 7410, "\u0120faire": 7411, "\u0120brows": 7412, "\u0120occupations": 7413, "\u0120alignmentlong": 7414, "\u0120amendments": 7415, "\u0120immediately": 7416, "\u0120supplies": 7417, "\u0120exceeding": 7418, "\u0120underpinning": 7419, "\u0120recreation": 7420, "\u0120europenne": 7421, "\u0120elaboration": 7422, "\u0120persistent": 7423, "second": 7424, "\u0120monitored": 7425, "\u0120elderly": 7426, "bial": 7427, "city": 7428, "ka": 7429, "lf": 7430, "nity": 7431, "ox": 7432, "zz": 7433, "\u0120.,": 7434, "\u0120ta": 7435, "\u0120tari": 7436, "erdf": 7437, "\u0120cit": 7438, "\u0120fab": 7439, "\u0120ey": 7440, "\u0120dang": 7441, "\u0120master": 7442, "\u0120wall": 7443, "\u0120restruct": 7444, "\u0120hab": 7445, "igu": 7446, "\u0120stef": 7447, "utri": 7448, "change": 7449, "ector": 7450, "\u0120imper": 7451, "itim": 7452, "perform": 7453, "\u0120unav": 7454, "\u0120unemployed": 7455, "dients": 7456, "\u0120seem": 7457, "elles": 7458, "\u0120approval": 7459, "\u0120solving": 7460, "\u0120legitim": 7461, "\u0120prominent": 7462, "assment": 7463, "\u0120viable": 7464, "\u0120seeks": 7465, "labelling": 7466, "\u0120competit": 7467, "\u0120visited": 7468, "\u0120zo": 7469, "\u0120electr": 7470, "\u0120collaborations": 7471, "\u0120barb": 7472, "\u0120presenting": 7473, "\u0120distributors": 7474, "\u0120calib": 7475, "\u0120maturity": 7476, "\u0120prevalence": 7477, "\u0120guaranteed": 7478, "eurofound": 7479, "\u0120continuing": 7480, "\u0120assumed": 7481, "\u0120shifting": 7482, "\u0120independently": 7483, "\u0120partial": 7484, "\u0120exceptionally": 7485, "\u0120decentral": 7486, "\u0120uneven": 7487, "\u0120..........": 7488, "\u0120occurrence": 7489, "\u0120bankruptcies": 7490, "\u0120berth": 7491, "informed": 7492, "\u0120heavily": 7493, "\u0120supervis": 7494, "\u0120sewage": 7495, "\u0120entrepreneurial": 7496, "\u0120breeding": 7497, "\u0120irrigation": 7498, "',": 7499, "but": 7500, "cris": 7501, "draw": 7502, "junction": 7503, "mer": 7504, "oir": 7505, "\u0120&": 7506, "\u0120talent": 7507, "\u0120tipping": 7508, "inational": 7509, "\u0120serv": 7510, "\u0120sized": 7511, "\u0120ci": 7512, "itu": 7513, "\u0120blocks": 7514, "\u0120mes": 7515, "arities": 7516, "\u0120gd": 7517, "\u0120ug": 7518, "\u0120onto": 7519, "\u0120convers": 7520, "\u0120lue": 7521, "peer": 7522, "otal": 7523, "\u0120incub": 7524, "\u0120soon": 7525, "\u0120ecodes": 7526, "aps": 7527, "adata": 7528, "\u0120accum": 7529, "istrib": 7530, "\u0120seaf": 7531, "ipher": 7532, "social": 7533, "\u0120outline": 7534, "\u0120collap": 7535, "\u0120frag": 7536, "\u0120toolk": 7537, "\u0120defici": 7538, "teneg": 7539, "\u0120provisional": 7540, "\u0120phen": 7541, "\u0120periodic": 7542, "\u0120capitals": 7543, "\u0120specialists": 7544, "\u0120serbia": 7545, "\u0120demonstrating": 7546, "\u0120adopters": 7547, "\u0120complementarity": 7548, "\u0120declined": 7549, "\u0120abbre": 7550, "\u0120handling": 7551, "\u0120handbook": 7552, "\u0120hospitals": 7553, "\u0120complying": 7554, "assification": 7555, "\u0120utilities": 7556, "\u0120forecasting": 7557, "\u0120difficulty": 7558, "\u0120robots": 7559, "\u0120entirely": 7560, "\u0120harness": 7561, "\u0120harassment": 7562, "\u0120tailor": 7563, "\u0120catch": 7564, "\u0120restaurant": 7565, "\u0120cutting": 7566, "\u0120concentrated": 7567, "\u0120predictable": 7568, "\u0120inspire": 7569, "\u0120removing": 7570, "\u0120russia": 7571, "appro": 7572, "\u0120prosperous": 7573, "\u0120length": 7574, "eastern": 7575, "\u0120foreseeable": 7576, "\u0120fleet": 7577, "\u0120predominantly": 7578, "\u0120nulle": 7579, "\u0120beliefs": 7580, "\u0120composting": 7581, "\u0120magnitud": 7582, "\u0120corridors": 7583, "\u0120push": 7584, "\u0120cordis": 7585, "\u0120microplastics": 7586, "\u0120crunchbase": 7587, "\u0120competitors": 7588, "crisis": 7589, "\u0120ecodesign": 7590, "bm": 7591, "bri": 7592, "eor": 7593, "eper": 7594, "oecd": 7595, "ounced": 7596, "rum": 7597, "tas": 7598, "\u0120tender": 7599, "inter": 7600, "ono": 7601, "eng": 7602, "\u0120duly": 7603, "\u0120todays": 7604, "icit": 7605, "omet": 7606, "\u0120ho": 7607, "\u0120hor": 7608, "\u0120conjunction": 7609, "\u0120accid": 7610, "\u0120envision": 7611, "\u0120withdraw": 7612, "\u0120excluding": 7613, "throp": 7614, "\u0120deeper": 7615, "estration": 7616, "\u0120placing": 7617, "\u0120division": 7618, "\u0120divide": 7619, "\u0120compil": 7620, "\u0120comprom": 7621, "\u0120unable": 7622, "\u0120fines": 7623, "oph": 7624, "\u0120transdisciplinary": 7625, "both": 7626, "\u0120entered": 7627, "\u0120etuc": 7628, "riving": 7629, "\u0120wealth": 7630, "\u0120monteneg": 7631, "\u0120biogeo": 7632, "\u0120timeline": 7633, "phone": 7634, "\u0120processors": 7635, "\u0120trainings": 7636, "\u0120stands": 7637, "adeus": 7638, "\u0120worst": 7639, "\u0120statistic": 7640, "\u0120shortage": 7641, "\u0120medic": 7642, "tilisation": 7643, "\u0120introduces": 7644, "\u0120calend": 7645, "\u0120intermediary": 7646, "scaling": 7647, "\u0120cape": 7648, "\u0120banking": 7649, "\u0120enabler": 7650, "\u0120duties": 7651, "institution": 7652, "\u0120pressures": 7653, "afric": 7654, "\u0120departments": 7655, "\u0120ilost": 7656, "\u0120nutrient": 7657, "\u0120misle": 7658, "\u0120delegation": 7659, "verseas": 7660, "\u0120volunte": 7661, "\u0120..............": 7662, "\u0120convergence": 7663, "\u0120redress": 7664, "\u0120ticketing": 7665, "\u0120incorporating": 7666, "\u0120australian": 7667, "\u0120presidency": 7668, "\u0120breakdowns": 7669, "odegrad": 7670, "\u0120incentivise": 7671, "\u0120pronounced": 7672, "\u0120kpis": 7673, "\u0120sequestration": 7674, "represented": 7675, "\u0120museums": 7676, "communications": 7677, "\u0120collapse": 7678, "\u0120montenegro": 7679, "cill": 7680, "grou": 7681, "poration": 7682, "rust": 7683, "report": 7684, "research": 7685, "tiary": 7686, "\u0120sent": 7687, "ortions": 7688, "\u0120ingre": 7689, "\u0120fif": 7690, "\u0120fueleu": 7691, "\u0120din": 7692, "\u0120dup": 7693, "\u0120borne": 7694, "\u0120gaz": 7695, "cel": 7696, "abled": 7697, "eliness": 7698, "\u0120exits": 7699, "\u0120excessive": 7700, "\u0120ancill": 7701, "ffen": 7702, "\u0120rduction": 7703, "orest": 7704, "results": 7705, "apes": 7706, "\u0120uns": 7707, "\u0120unesco": 7708, "antes": 7709, "\u0120meat": 7710, "ultinational": 7711, "\u0120traject": 7712, "\u0120smoo": 7713, "\u0120arise": 7714, "\u0120load": 7715, "\u0120string": 7716, "\u0120said": 7717, "\u0120credi": 7718, "\u012000": 7719, "\u0120framing": 7720, "\u0120adaptability": 7721, "\u0120protective": 7722, "\u0120esf": 7723, "\u0120replic": 7724, "\u0120crpd": 7725, "\u0120signals": 7726, "\u0120safer": 7727, "\u0120guiding": 7728, "\u0120median": 7729, "\u0120micron": 7730, "\u0120volumes": 7731, "\u0120sym": 7732, "\u0120...................": 7733, "\u0120deployed": 7734, "\u0120hybrid": 7735, "\u0120era": 7736, "\u0120railway": 7737, "\u0120departure": 7738, "ibles": 7739, "\u0120assumption": 7740, "\u0120illegal": 7741, "\u0120examination": 7742, "\u0120hourly": 7743, "\u0120ratings": 7744, "\u0120captured": 7745, "\u0120profitability": 7746, "\u0120telecommunications": 7747, "travel": 7748, "\u0120russian": 7749, "\u0120comprises": 7750, "\u0120illustrated": 7751, "hibi": 7752, "________": 7753, "\u0120auditors": 7754, "\u0120infringements": 7755, "\u0120wildlife": 7756, "\u0120divided": 7757, "\u0120belonging": 7758, "\u0120beginning": 7759, "\u0120explicitly": 7760, "\u0120compatible": 7761, "electronic": 7762, "global": 7763, "\u0120quantum": 7764, "first": 7765, "\u0120uganda": 7766, "\u0120ancillary": 7767, ".:": 7768, "aires": 7769, "cis": 7770, "eet": 7771, "ken": 7772, "main": 7773, "nos": 7774, "sol": 7775, "situ": 7776, "tre": 7777, "\u0120tal": 7778, "\u0120ted": 7779, "\u0120serving": 7780, "\u0120card": 7781, "\u0120pure": 7782, "\u0120font": 7783, "isme": 7784, "ato": 7785, "anal": 7786, "\u0120multinational": 7787, "\u0120war": 7788, "artile": 7789, "\u0120retention": 7790, "sta": 7791, "ecc": 7792, "\u0120provin": 7793, "\u0120gig": 7794, "acin": 7795, "\u0120comfort": 7796, "\u0120stays": 7797, "\u0120enlar": 7798, "rame": 7799, "\u0120oral": 7800, "\u0120parad": 7801, "\u0120diagn": 7802, "\u0120compile": 7803, "\u0120segments": 7804, "grav": 7805, "ivers": 7806, "\u0120outreach": 7807, "roughly": 7808, "\u0120avec": 7809, "\u0120offline": 7810, "\u0120applicant": 7811, "\u0120rare": 7812, "\u0120importers": 7813, "operation": 7814, "\u0120integral": 7815, "\u0120twice": 7816, "\u0120multipl": 7817, "\u0120organisms": 7818, "\u0120corrective": 7819, "biosis": 7820, "\u0120becomes": 7821, "\u0120institutes": 7822, "\u0120linkages": 7823, "plete": 7824, "\u0120describes": 7825, "\u0120contrary": 7826, "\u0120emerge": 7827, "\u0120else": 7828, "conf": 7829, "\u0120metadata": 7830, "\u0120demonstrates": 7831, "\u0120conducting": 7832, "\u0120quantif": 7833, "\u0120externalities": 7834, "\u0120decreasing": 7835, "ashion": 7836, "\u0120departing": 7837, "\u0120optimisation": 7838, "................................................................................................": 7839, "government": 7840, "\u0120membership": 7841, "\u0120supplier": 7842, "\u0120migrants": 7843, "\u0120installed": 7844, "\u0120disseminate": 7845, "\u0120typical": 7846, "\u0120diversified": 7847, "\u0120.............": 7848, "\u0120...........................": 7849, "\u0120ntos": 7850, "\u0120identities": 7851, "\u0120genetic": 7852, "\u0120approxim": 7853, "\u0120reveals": 7854, "\u0120exempt": 7855, "\u0120screening": 7856, "\u0120acknowledge": 7857, "handling": 7858, "\u0120inventory": 7859, "\u0120pollinators": 7860, "\u0120freshwater": 7861, "\u0120cells": 7862, "\u0120pharmaceutical": 7863, "\u0120psychological": 7864, "\u0120subscribe": 7865, "\u0120unpaid": 7866, "\u0120colour": 7867, "\u0120likeli": 7868, "\u0120nitrogen": 7869, "\u0120semiconductor": 7870, "\u0120livelihoods": 7871, "relevant": 7872, "\u0120restructuring": 7873, "\u0120habits": 7874, "\u0120electrical": 7875, "ipheral": 7876, "\u0120magnitude": 7877, "\u0120ingredients": 7878, "\u0120likelihood": 7879, "ios": 7880, "len": 7881, "mg": 7882, "otions": 7883, "tn": 7884, "vit": 7885, "vol": 7886, "\u0120tp": 7887, "tities": 7888, "\u0120thor": 7889, "\u0120thousand": 7890, "esf": 7891, "\u0120overseas": 7892, "\u0120fru": 7893, "isive": 7894, "\u0120df": 7895, "\u0120mus": 7896, "\u0120relying": 7897, "stop": 7898, "urp": 7899, "\u0120prove": 7900, "\u0120hier": 7901, "looking": 7902, "\u0120gover": 7903, "\u0120conom": 7904, "\u0120conse": 7905, "\u0120acron": 7906, "\u0120ord": 7907, "\u0120imbal": 7908, "november": 7909, "\u0120ven": 7910, "\u0120vice": 7911, "\u0120regimes": 7912, "\u0120suppression": 7913, "\u0120appoint": 7914, "\u0120mexico": 7915, "\u0120intergovernmental": 7916, "\u0120arab": 7917, "opa": 7918, "\u0120moder": 7919, "boards": 7920, "\u0120rollo": 7921, "\u0120entries": 7922, "\u0120indications": 7923, "exist": 7924, "\u0120surround": 7925, "\u0120additionality": 7926, "\u0120feel": 7927, "\u0120detect": 7928, "forest": 7929, "\u0120treated": 7930, "\u0120corpor": 7931, "\u0120vertical": 7932, "\u0120considerably": 7933, "\u0120regulate": 7934, "\u0120technically": 7935, "\u0120continuation": 7936, "\u0120compete": 7937, "support": 7938, "\u0120microsoft": 7939, "atories": 7940, "\u0120consultancy": 7941, "\u0120ipbes": 7942, "beit": 7943, "\u0120readily": 7944, "ridge": 7945, "\u0120quantities": 7946, "emporal": 7947, "\u0120complementing": 7948, "\u0120complementarities": 7949, "\u0120younger": 7950, "\u0120lasting": 7951, "\u0120webinars": 7952, "\u0120damages": 7953, "\u0120vaccines": 7954, "\u0120occasion": 7955, "\u0120advertis": 7956, "\u0120classified": 7957, "\u0120climati": 7958, "\u0120acquired": 7959, "\u0120intensif": 7960, "\u0120attributed": 7961, "information": 7962, "\u0120lanes": 7963, "\u0120coalition": 7964, "\u0120upgrade": 7965, "\u0120bridge": 7966, "\u0120universal": 7967, "\u0120conflict": 7968, "\u0120remedies": 7969, "\u0120stimulating": 7970, "\u0120recruitment": 7971, "\u0120disadvantaged": 7972, "\u0120vegetation": 7973, "\u0120hamper": 7974, "\u0120aspect": 7975, "\u0120incomplete": 7976, "\u0120alleviate": 7977, "\u0120assembly": 7978, "\u0120template": 7979, "\u0120disclosure": 7980, "\u0120pipeline": 7981, "\u0120wholesale": 7982, "\u0120questionnaire": 7983, "\u0120abbreviations": 7984, "institutional": 7985, "\u0120smooth": 7986, ".-": 7987, "].": 7988, "nit": 7989, "rys": 7990, "\u0120try": 7991, "inating": 7992, "independent": 7993, "ref": 7994, "requ": 7995, "tious": 7996, "\u0120thom": 7997, "\u0120thrive": 7998, "\u0120sand": 7999, "\u0120sant": 8000, "\u0120sports": 8001, "oria": 8002, "\u0120ces": 8003, "\u0120insee": 8004, "\u0120fat": 8005, "\u0120fashion": 8006, "rog": 8007, "\u0120bot": 8008, "\u0120wi": 8009, "\u0120wish": 8010, "\u0120word": 8011, "\u0120words": 8012, "\u0120waves": 8013, "ectiveness": 8014, "\u0120gi": 8015, "\u0120sus": 8016, "\u0120lending": 8017, "via": 8018, "rif": 8019, "sex": 8020, "ione": 8021, "\u0120ral": 8022, "\u0120leak": 8023, "\u0120complements": 8024, "\u0120compuls": 8025, "\u0120mark": 8026, "\u0120sep": 8027, "\u0120aggrav": 8028, "\u0120invasive": 8029, "under": 8030, "\u0120canari": 8031, "\u0120police": 8032, "\u0120decisive": 8033, "agric": 8034, "\u0120module": 8035, "\u0120biodegrad": 8036, "\u0120particul": 8037, "\u0120consuming": 8038, "\u0120nationally": 8039, "\u0120pose": 8040, "\u0120autonom": 8041, "\u0120valuation": 8042, "\u0120released": 8043, "\u0120emotion": 8044, "\u0120offset": 8045, "iedom": 8046, "\u0120equitable": 8047, "assl": 8048, "pling": 8049, "\u0120authorisation": 8050, "\u0120responding": 8051, "\u0120organiser": 8052, "\u0120delays": 8053, "\u0120former": 8054, "\u0120appropriations": 8055, "\u0120regulators": 8056, "\u0120necps": 8057, "\u0120summit": 8058, "\u0120geffen": 8059, "\u0120tertiary": 8060, "\u0120vet": 8061, "\u0120interesting": 8062, "\u0120puts": 8063, "\u0120cultured": 8064, "\u0120characteristic": 8065, "\u0120arrival": 8066, "\u0120determination": 8067, "\u0120discount": 8068, "health": 8069, "financing": 8070, "\u0120answer": 8071, "\u0120utility": 8072, "\u0120adjustments": 8073, "\u0120validate": 8074, "effectiveness": 8075, "\u0120books": 8076, "contract": 8077, "\u0120historic": 8078, "\u0120correctly": 8079, "\u0120failure": 8080, "\u0120gained": 8081, "\u0120evolve": 8082, "\u0120attracting": 8083, "\u0120kinds": 8084, "\u0120reservoir": 8085, "\u0120municipalities": 8086, "\u0120substitution": 8087, "\u0120substitute": 8088, "\u0120prioritise": 8089, "consum": 8090, "\u0120upgrading": 8091, "sensitive": 8092, "\u0120settlement": 8093, "\u0120candidate": 8094, "\u0120solely": 8095, "\u0120lgisl": 8096, "hofer": 8097, "\u0120friends": 8098, "\u0120symbiosis": 8099, "\u0120hierarch": 8100, "\u0120compulsory": 8101, "free": 8102, "farm": 8103, "gus": 8104, "ius": 8105, "kas": 8106, "mbre": 8107, "nical": 8108, "rr": 8109, "spe": 8110, "uel": 8111, "uari": 8112, "vre": 8113, "van": 8114, "yal": 8115, "\u0120roughly": 8116, "\u0120sizes": 8117, "erts": 8118, "ense": 8119, "orm": 8120, "oral": 8121, "isc": 8122, "isite": 8123, "isons": 8124, "atlantic": 8125, "\u0120tom": 8126, "\u0120mill": 8127, "\u0120mere": 8128, "\u0120wit": 8129, "uri": 8130, "\u0120nom": 8131, "\u0120promp": 8132, "\u0120proactive": 8133, "\u0120ges": 8134, "abol": 8135, "\u0120ligh": 8136, "\u0120stations": 8137, "\u0120asyl": 8138, "tica": 8139, "\u0120exclude": 8140, "cher": 8141, "oted": 8142, "\u0120rational": 8143, "\u0120rica": 8144, "ageo": 8145, "\u0120tourisms": 8146, "aper": 8147, "arer": 8148, "\u0120peripheral": 8149, "\u0120manure": 8150, "\u0120grey": 8151, "\u0120mount": 8152, "\u0120relatives": 8153, "\u0120innovating": 8154, "ssa": 8155, "\u0120caps": 8156, "\u0120applicability": 8157, "\u0120healthier": 8158, "\u0120initially": 8159, "\u0120john": 8160, "\u0120sourcing": 8161, "\u0120peers": 8162, "\u0120rain": 8163, "\u0120radi": 8164, "\u0120millions": 8165, "\u0120designate": 8166, "\u0120corruption": 8167, "\u0120phy": 8168, "\u0120publishers": 8169, "\u0120meteor": 8170, "\u0120freely": 8171, "\u0120declines": 8172, "\u0120accepted": 8173, "\u0120founded": 8174, "\u0120floor": 8175, "\u0120continuously": 8176, "\u0120journals": 8177, "\u0120dialogues": 8178, "\u0120prefer": 8179, "\u0120preference": 8180, "\u0120farms": 8181, "\u0120huws": 8182, "\u0120mobilising": 8183, "\u0120boarding": 8184, "\u0120watch": 8185, "\u0120replaced": 8186, "\u0120penet": 8187, "control": 8188, "\u0120nutritional": 8189, "\u0120cancelled": 8190, "\u0120..........................": 8191}