[PAD]
[UNK]
[CLS]
[SEP]
[MASK]
!
"
#
$
%
&
'
(
)
*
+
,
-
.
/
0
1
2
3
4
5
6
7
8
9
:
;
<
=
>
?
@
[
\
]
^
_
`
a
b
c
d
e
f
g
h
i
j
k
l
m
n
o
p
q
r
s
t
u
v
w
x
y
z
{
|
}
~
£
¥
§
©
ª
«
®
°
²
³
´
·
¹
º
»
¼
½
¾
¿
×
ß
æ
÷
ø
đ
ł
œ
˚
α
δ
ε
ζ
η
ι
κ
λ
ν
ο
а
б
г
и
к
л
р
с
ъ
௜
௧
‐
‑
–
—
‘
’
“
”
„
•
…
′
⁴
⁵
⁶
⁷
⁸
⁹
₂
€
№
↑
→
⇦
⇨
⇩
∈
∑
−
≤
≥
⋅
⌦
⌫
■
▪
►
▼
◄
●
◻
☐
☑
✓
➢
⩾
ⱱ
ﬀ
ﬁ
ﬃ
ﬅ
：
￼
𝐸
𝐹
𝐼
𝑀
𝑁
𝑃
𝑅
𝑆
𝑇
𝑈
𝑉
𝑊
𝑋
𝑎
𝑐
𝑑
𝑓
𝑔
𝑖
𝑗
𝑘
𝑙
𝑜
𝑝
𝑞
𝑟
𝑠
𝑡
𝑢
𝑣
𝑦
𝑧
𝑾
𝒆
𝒈
𝒉
𝒊
𝒕
𝒩
𝒫
𝛼
𝜀
𝜦
🍪
🡹
🡻
##d
##i
##t
##o
##n
##a
##l
##y
##u
##b
##r
##e
##k
##s
##c
##x
##1
##z
##p
##m
##v
##h
##5
##0
##4
##g
##f
##3
##8
##2
##7
##6
##9
##j
##q
##w
##𝑃
##𝑖
##´
##ß
##º
##€
##¼
##𝑡
##ﬁ
##½
##−
##𝐼
##𝑘
##𝑧
##𝜦
##𝑠
##∑
##𝑓
##𝑗
##𝑁
##ﬃ
##°
##®
##ø
##ﬅ
##𝑀
##௜
##𝑔
##𝜀
##𝐹
##𝑑
##→
##œ
##ﬀ
##²
##đ
##𝑟
##𝑜
##æ
##￼
##𝑇
##𝑎
##𝑊
##𝑈
##𝑅
##𝑉
##ъ
##л
##г
##а
##р
##с
##к
##и
##ο
##ι
##ζ
##ν
##𝒫
##𝑆
##𝒆
##𝒊
##𝒈
##𝒉
##𝒕
##𝑞
##𝑢
##𝑦
##𝛼
##ª
##η
##¾
##𝑐
##ł
##𝒩
##₂
##≥
##λ
##κ
##α
##¹
##δ
##ti
##on
th
##er
##es
the
##nd
##or
##en
##in
##al
in
##tion
and
##an
##ro
of
##at
##ed
to
##is
##ar
##it
##ur
##ic
##ing
##ec
##ation
##ent
##om
##el
##st
##il
##re
20
##le
pro
##ment
for
##ul
eu
re
##as
##ol
##et
##ve
##ac
on
##si
con
##ir
##ab
com
su
##ig
##ce
st
en
##ers
ac
##mp
##ts
##ity
##ate
##ri
##pe
##ess
##ut
as
##em
##ra
##ge
co
##pp
##od
##tin
euro
##ect
or
##id
##ly
##ev
##ith
##ort
##un
al
##ow
ex
202
##tic
with
##os
be
##oc
##th
res
##ter
##for
is
##ch
##ain
europe
##us
an
##im
##tive
##ting
sh
##ure
are
##ill
##uc
##iti
by
##ion
wh
ad
201
##op
##able
##ies
inc
comm
par
##ot
##ork
us
##sion
imp
##ud
ec
tour
##tions
that
##form
##ver
##ff
touris
ne
ch
pl
##our
##ial
##evel
cl
european
comp
##ations
this
##me
##age
##qu
##ran
tourism
##ber
##ap
##ak
##gy
reg
ind
##lo
##ission
##and
##ities
##ility
##ay
de
##ust
##tiv
##all
##vid
acc
at
##est
dat
##ad
##um
un
##erv
##ital
##ance
##duc
cont
work
##igh
##ated
app
data
supp
##uld
##onom
tran
##ear
pr
##fic
##rom
rel
incl
dig
##ore
exp
from
##ant
##ip
##ments
digital
##ere
pol
##ard
##nder
str
inter
sp
all
serv
##ence
##lic
servic
##rou
mar
sust
sustain
commission
##ational
me
will
##ors
econom
##ould
##yst
includ
##ther
##ia
int
##ystem
le
soc
des
##ember
##evelop
##enc
develop
##ates
sm
cons
not
tra
##ood
##iz
10
clim
##ative
ar
##ult
their
##ine
sect
dis
it
##ech
climate
##gra
##act
##ergy
provid
trans
sc
ha
rep
produc
energy
ass
ag
##iv
##ast
per
##ps
##oll
can
##ail
##ell
inv
##ective
support
##ov
##di
##ub
##rib
rec
under
2020
##und
##ich
##ual
##enti
services
dec
eff
out
polic
fin
##unt
more
bas
op
should
##ures
prop
member
man
mod
##ary
env
which
##io
new
##ue
emp
##olo
##gh
##ural
##ake
gre
use
mark
##so
##iron
se
environ
##anc
##loy
##ability
such
part
mo
dir
tech
##over
states
other
also
sustainable
environment
pub
##ical
food
techn
requ
have
social
##iness
##ex
##etw
level
##der
##ish
up
chan
system
av
##ular
indust
bus
ob
sk
org
plat
##erm
platform
##bility
##ie
##ach
##get
business
inform
##ric
meas
di
sector
##am
##ific
##ag
market
##ected
including
need
##els
propos
partic
##ble
##ign
he
##ater
##ese
##ase
##ist
##ene
##ry
##earch
##ong
##ener
employ
##ision
public
proj
inn
region
19
innov
2021
skill
policy
##gram
##ution
##ome
artic
strate
##ulation
high
##pr
##rough
##str
##ects
##ss
sa
smes
spec
##fer
program
##ection
plan
##ding
##bo
national
fund
transp
based
2019
et
##ely
incre
ht
##als
am
hor
##ys
appro
gener
horiz
horizon
bu
information
##apt
contrib
##ating
article
do
economic
skills
##eng
invest
we
##lement
##gies
diff
##are
##ries
green
po
proc
##ency
these
em
ro
htt
research
through
measures
bo
count
##ress
resp
pri
##ose
commun
##if
buil
##ces
no
##tives
12
avail
assess
directive
adapt
activ
add
ens
technolo
##abl
action
2023
##ack
ann
development
has
sub
##line
pre
how
loc
aut
la
##unc
##ace
val
over
##ok
200
ev
change
https
differ
transport
intern
anal
00
##ources
its
red
shall
organ
##ards
##ati
they
##eth
##ici
##omen
##iod
##ollow
follow
economy
##ential
##een
##ise
el
union
women
11
indic
##isation
cr
##ire
compan
betw
between
may
##ents
##ues
##hip
##dition
term
es
well
nat
##ile
pers
##sition
analys
##res
fra
financ
##hol
available
cre
implement
##row
relev
inf
##ross
exper
##ience
##utions
##ight
##ous
report
##iew
there
leg
coll
impro
##ons
##bs
##ever
programme
so
cap
mon
gu
dem
trav
##art
adaptation
##ord
fi
2018
sol
27
##ditions
innovation
oper
14
online
set
models
ris
##uct
##agement
regulation
rev
##alth
where
year
address
15
conditions
##ied
impact
tim
relevant
##ens
##ining
tool
##ree
##ning
##now
##ond
cost
##illion
##work
##tim
particular
specific
##bal
activities
##int
health
building
##aking
##sive
environmental
glo
tar
##arm
different
prac
applic
prot
effici
##ivers
car
related
than
est
##ory
products
local
##ners
ensure
global
##30
equ
consum
##les
frame
risk
ge
initi
##ms
##ey
num
##ee
general
jo
pe
systems
employment
non
01
ecos
top
id
framework
ecosystem
##ving
access
provide
##led
resources
##ou
ins
require
##sible
was
prom
def
##ner
into
##hold
sec
##ite
##irc
companies
decision
##tical
##tics
expected
target
##tit
know
bene
management
strategy
fig
##ultural
18
##acts
sustainability
wast
med
##pend
##cep
##ph
##fit
##ators
most
##ulture
increas
##eg
act
enter
waste
##ute
following
13
countries
##uring
main
transition
sur
destin
travel
number
##ump
analysis
16
##ety
2024
##iversity
fut
approach
one
grow
sel
agric
emission
auth
annex
grou
##to
##ource
consi
international
actions
used
abo
##itor
circ
conc
process
##amp
##overn
bio
##ower
ty
##av
financial
mul
##ian
water
ext
future
17
##ised
identi
##ink
##tain
lab
fac
consider
import
##uncil
been
##ights
govern
##tal
obj
projects
council
adv
time
partners
value
##ality
see
fur
those
##ted
technologies
sectors
training
fe
across
perform
hel
key
##ass
reduc
fir
industry
but
pres
##ans
##ises
##ven
enterpr
while
##air
##her
##urr
only
addition
eur
pot
tools
figure
author
investment
benefit
further
##ablish
sch
regional
establish
lar
pur
million
stud
##etwork
network
eng
##20
##ences
##ledge
project
resul
acces
efficiency
page
proposals
##de
##ount
##ost
##ide
chall
2030
communic
potential
##ld
##li
##pa
solutions
biod
particip
stand
stake
pos
total
det
##end
resil
knowledge
##omes
del
##ax
priv
##ited
##oper
could
workers
##sibility
covid
wor
qual
design
meth
##tern
needs
within
areas
opp
var
##own
final
##graph
peop
service
method
multi
regions
qu
examp
##ious
natural
people
educ
implementation
europa
##cc
##orting
2017
##struct
impacts
help
rem
##og
##ties
topic
##00
##ortun
funding
users
world
were
increase
opportun
sign
li
##mend
##umption
identif
##iation
when
end
production
##oun
share
tw
##iter
ach
21
doc
##tices
25
some
farm
##ules
curr
results
##atis
cer
circular
requirements
would
adop
assessment
improve
bet
source
##egr
any
about
integr
refer
gender
include
air
state
##ines
better
##eness
statis
30
##ang
industri
requir
apply
growth
infra
current
##emp
policies
##ined
protection
bud
##ern
working
cultural
##atives
shar
infrastruct
fu
af
2022
2016
practices
emissions
ww
##ade
take
foc
biodiversity
##bon
##isting
www
24
small
rest
proposal
labour
budget
surve
##ays
##ilities
accom
##emic
cor
compar
monitor
focus
##ages
consumption
agriculture
long
link
ur
costs
contribute
cooper
##wards
sing
outc
who
mobility
challeng
##ensive
soci
legal
##ban
disc
industrial
fl
provided
##ote
tre
form
saf
##out
order
education
lim
them
##ectives
cle
##fore
##onomy
docu
private
##equ
dist
##lia
##ale
platforms
review
aff
existing
parlia
estim
enterprises
iss
organis
ver
single
opportunities
##ten
parliament
##uce
good
desc
aim
##land
cent
##ges
##pri
##ext
our
##ination
using
table
59
##atory
quality
##til
call
min
##ium
##holders
22
communication
lif
important
##up
50
##yc
##11
siz
##ft
##ouse
stakeholders
lead
recover
rules
##ty
appropri
ful
direct
contribution
compe
allow
##round
however
first
example
tax
##par
challenges
towards
levels
##orts
capac
authorities
make
ph
vis
##ice
ent
cook
repres
making
pand
offer
guid
23
common
infrastructure
pandemic
28
period
performance
both
##ally
sme
low
signific
##ength
cities
underst
urban
##lish
accessibility
case
person
pop
account
go
ref
industries
businesses
model
digitalisation
large
significant
carbon
lear
prov
country
down
least
##alu
nec
##gical
##ank
##mm
##ful
inclu
ma
assoc
fr
##lig
##mes
resilience
you
regul
law
##urs
strength
competi
transform
rights
demand
mater
pat
sit
evalu
##iver
each
beh
##economy
##fication
vul
cooperation
##min
oblig
vulner
60
technical
bioeconomy
persons
supply
tr
##abor
ic
consumer
##df
##tice
cookies
aw
##ock
consumers
material
100
contin
##oss
made
regard
offic
society
##mod
land
##isl
short
##ising
among
cover
legisl
recovery
necess
benefits
29
fair
if
recom
##ectiv
dep
##red
lo
recommend
##ains
partnership
##ange
26
elect
accommod
port
sim
product
initiative
possible
understand
31
point
criter
provision
bec
##aus
means
instit
must
enc
poll
##ind
##ition
type
capacity
cl6
second
gran
##ug
due
strategies
doi
##eep
dri
terms
destinations
organisations
smart
effective
open
monitoring
##cept
december
innovative
technology
nature
promote
##ilit
bel
destination
same
schem
expl
area
ste
many
compet
objectives
criteria
##stat
commit
around
prior
deal
collabor
inst
##force
buildings
##ling
##ases
##lu
conn
invol
fact
increased
represent
age
investments
ow
##te
accommodation
two
show
study
##rac
40
indicators
describ
pay
##cip
eurostat
##ieve
years
initiatives
##enting
admin
obs
role
facilit
char
does
mic
statistics
##ants
outcomes
gap
indi
prev
##ness
governance
her
##50
unw
2015
group
prec
webs
000
##ved
##ings
##enew
renew
administ
providing
##aged
sw
ecosystems
individ
population
bar
respon
2014
necessary
##ral
enh
##ees
##ustom
observ
individual
custom
experi
additional
increasing
identify
pack
##agraph
##eld
##itiz
##ird
##read
32
survey
application
medium
func
find
context
reduce
scale
lik
associ
pdf
##ope
##ging
achieve
micro
being
prof
ii
##abilities
comple
overall
unwto
##its
present
life
##elling
standards
jobs
indicative
55
strong
35
br
##tif
strengthen
distrib
deliver
proced
##avi
oc
prin
rural
##sh
##urity
agree
citiz
ess
vol
sharing
##ibility
content
changes
autom
promo
instr
##ator
intro
scope
hum
##ets
typ
fo
required
third
##reh
appropriate
reduction
compreh
purp
##ient
ren
encour
97
bi
tur
##anced
depend
start
cris
ict
city
##one
##ounts
detail
less
ve
compli
disp
options
crisis
giv
lang
higher
effects
behavi
ra
developed
during
comprehensive
programmes
house
##ables
##lud
lack
##ether
needed
princip
aver
ear
##tis
gate
2010
coord
##itig
experience
struct
contr
described
therefore
octo
38
temp
##ron
essential
respons
instru
issues
loss
##ately
33
best
mitig
##ology
595
##rol
october
sd
34
tri
##edic
targets
##ible
##iqu
##med
comb
what
att
summ
news
langu
36
##esting
community
groups
##ints
##ices
si
##keep
##xt
clust
processes
##ently
2012
tourist
bor
concern
three
off
trade
equality
markets
##itage
##pects
risks
learning
human
sdg
##ive
compared
##ks
consult
score
maj
heritage
section
view
perc
planning
##eting
compliance
cal
##84
##aken
place
##encies
safety
##por
forest
self
major
liv
plans
annual
inclusive
renov
capital
##ativ
gatekeep
line
##ecting
trend
##enar
pass
reporting
employed
average
65
altern
supporting
function
behaviour
media
search
communities
sources
##uction
scenar
operators
minim
personal
mat
exc
fuels
##menting
emer
##ological
field
book
ret
##ably
user
citizens
percent
bl
defined
contact
cro
##vers
space
internal
certain
42
##uts
##amb
##aging
ip
way
##uary
create
##gic
resid
elig
zer
ef
ter
2011
pollution
39
2025
37
play
##yn
##ily
your
constr
paragraph
integrated
understanding
introduc
99
sever
##atic
measure
situ
document
often
cross
##repr
control
particularly
##emb
clear
household
saving
51
sci
##ason
approaches
materials
##ench
##ina
##board
schemes
##hic
2013
posi
45
without
given
les
##road
developing
44
##eu
accord
empower
##ograph
disabilities
finance
security
vehic
46
gd
sump
##ances
##lands
percentage
lower
##lementing
intermed
subm
##pec
cho
road
own
month
special
science
limited
list
mech
##aces
succ
actors
vari
passeng
success
next
fre
reach
again
##ording
plas
goods
implementing
aviation
strategic
accordance
met
##ession
providers
considered
evaluation
construction
cri
##lied
##anis
neut
build
methods
real
income
relations
defin
47
provides
##gether
##ration
government
distribution
ser
##uf
commer
legislation
41
##ough
##iev
added
fuel
##ales
entrepr
##areness
excep
size
website
unc
adopted
referred
awareness
##acy
undert
ensuring
joint
barri
##put
##ick
clean
##go
together
restric
documents
lat
studies
##ially
rece
tf
etc
##ib
stat
alread
applications
entreprene
already
men
includes
##loyment
##vention
renewable
##ware
basis
standard
obligations
oj
199
##uting
##erman
amb
regarding
terr
several
billion
hy
hot
camb
employees
zero
types
48
mechanis
desk
events
achiev
border
##aries
home
tourists
proposed
02
improving
agricultural
various
aspects
gdp
regulatory
##ather
read
publish
##sa
full
##olution
bank
socio
ques
prog
scoreboard
98
##day
##rc
renovation
07
larg
##ization
points
##acter
activity
espec
transformation
##ension
especially
jrc
company
practice
49
occ
##ufact
##uly
##gar
sl
##ilar
incen
character
german
##ering
according
oce
taken
##tification
determ
similar
broad
generation
facilitate
highl
path
turn
03
affected
##ourn
demon
selection
after
calc
conduc
poli
intell
addressed
assist
recyc
publications
extre
quan
against
mob
values
package
status
43
core
financing
reference
cambod
##ier
##ying
manufact
participation
sin
savings
bal
harm
##rid
53
jan
upd
applicable
big
conf
result
ups
wide
##ple
##elines
70
range
taking
creation
eas
hol
efficient
sized
barriers
52
56
fish
soft
57
##ics
exch
##osp
chains
entrepreneurs
##aff
civ
journ
index
responsible
##rup
linked
enforce
english
##ats
respect
62
##view
purs
networks
procedure
culture
applied
funded
accessible
resilient
very
cyc
ed
put
##pt
##forts
whether
##ffici
prepar
2009
factors
efforts
##au
accept
guidelines
procure
estimates
slo
prim
64
arri
nor
##ections
established
bod
75
##arant
haz
afric
refl
official
trends
since
wid
##eless
##unch
respond
2008
guidance
54
dra
fran
##iles
included
ital
hand
soil
site
vulnerable
power
staff
before
guarant
flow
promoting
rate
proble
enabl
china
demonstr
fost
##akers
alternative
relationship
##eler
##emical
##rative
note
##ature
funds
vulnerability
institutions
associated
jun
##ios
tas
effectiv
##till
evid
net
transpar
collection
##oid
##ortion
##reg
##mental
identified
united
domes
subs
influ
centre
below
ocean
upt
decisions
profession
90
coast
chain
recommendations
contract
procurement
july
##uss
acceler
##overty
domestic
ab
cases
ir
poverty
previous
cambodia
73
80
had
##uch
##ume
objective
mitigation
ever
##tific
uptake
au
##itation
##vem
##thers
enterprise
##tee
##10
##side
##ervation
aims
58
still
##istics
march
##ighted
french
progress
free
farming
arriv
four
sy
##ured
extern
novem
political
##ream
enable
amounts
availability
administrative
edition
##ests
mean
requires
others
active
democ
committee
november
##ins
press
adopt
continue
expend
scp
aud
bul
instruments
sales
expendit
du
recent
effect
greater
minimum
##16
advanced
purpose
face
##fici
partnerships
become
cluster
external
##ject
##tiveness
likely
##pping
resource
above
importance
scienti
successful
gas
proportion
targeted
multiple
electron
language
uk
##com
##35
heat
amount
##ified
enforcement
76
flo
tempor
pursu
amend
##ark
avoid
even
reducing
electric
response
critical
date
just
tend
##man
civil
09
ce
##urance
intellig
ap
grant
gatekeeper
66
##ause
care
via
clos
interac
apr
back
right
bey
##load
decl
hyd
january
63
##ways
evidence
coastal
inde
launch
treat
##89
chemical
remain
involve
cop
beyond
vi
##bn
##utes
enhance
pil
marine
subst
spain
notably
france
er
interest
implemented
june
ability
ors
adequ
passenger
plastic
exceptions
exchange
arrivals
94
##br
##gor
positive
##ites
##sib
instance
software
integration
statistical
undertaking
61
alli
setting
fully
##way
##shop
principles
##holder
fle
parties
modelling
continu
enti
decre
sea
improved
provisions
consultation
hydro
pp
##ves
definition
bulgar
stor
reported
67
pt
vir
found
2050
workshop
95
dev
ele
carri
selected
firms
coordination
cy
##eric
proper
job
look
##use
geograph
69
96
##21
stakeholder
agend
customers
experiences
summary
##ensity
feed
fri
neg
##ysical
##ynam
aug
##sia
organisation
##lude
eligibility
flood
able
extend
##ique
simp
##ne
##oses
every
bur
scenarios
nl
rank
insurance
currently
incentives
outcome
87
input
marketing
subject
addressing
##ward
meet
producers
diffic
topics
estimated
competitiveness
gaps
complex
submission
turnover
dedic
much
##puts
stage
complement
request
competition
losses
calcul
harmon
step
expenditure
##ertain
contain
goals
bring
agreements
trips
scientific
agenda
72
ai
im
uses
##ogn
whole
hu
max
##ism
##rought
volume
households
77
##map
##more
##eter
##ived
recogn
tack
##ave
relation
##etheless
nonetheless
68
drivers
restrictions
dim
thus
info
automo
88
agencies
organic
friend
dg
dynam
deb
recommendation
agreement
living
uncertain
journal
spati
highest
advis
office
##house
ship
92
##illing
##ash
equip
furthermore
farmers
physical
legislative
intermediation
aid
hosp
post
operating
##111
obligation
pursuant
rail
##ix
##tig
##itime
maritime
species
subsi
emerg
maxim
class
compon
comput
lex
##ually
examples
download
portug
shows
hospital
gra
concer
sites
##atively
alliance
71
forms
experts
methodology
primary
74
##den
##ned
chap
reports
agency
optim
assessments
coordin
africa
##aster
greenhouse
collective
competence
collaboration
2027
attrac
93
##ep
##greg
##fficient
dedicated
hub
##rations
##elf
##ild
having
sept
roadmap
chapter
hard
##pl
##istic
intensive
127
purposes
functioning
april
85
##anti
resolution
84
pap
run
##enge
creative
##oung
significantly
priorities
log
##ification
assessing
leaders
##going
entrepreneurship
cate
season
central
germany
independ
il
spe
young
##sing
##reak
inves
heating
actor
participating
associations
guarantee
adequate
elements
yout
##duce
##atures
move
like
months
##sp
organization
rap
rates
text
##ores
##omp
##ither
contributions
challenge
circularity
limit
foot
situation
bodies
intelligence
lt
lu
nights
test
##eline
##oling
event
because
assistance
jus
##pan
##though
recycling
extreme
diversity
##ape
##lines
rein
ongoing
clo
requesting
grants
blue
dimension
##be
although
characteristics
pilot
fit
##aling
##resp
corr
regulations
introduction
syner
cc
cz
operational
certification
equipment
september
rapid
##ensi
consequ
notice
flex
##other
##ption
##alf
18111
residents
electronic
investig
##less
##alities
unemp
predic
moreover
directly
published
79
mal
tex
##ized
supported
143
##lusion
presented
concerned
retail
dial
last
##sw
align
##ford
alloc
americ
electricity
covered
vehicles
italy
dialog
##print
creativ
healthy
preclude
hazard
78
##tise
memb
shif
outside
##bound
bg
##gen
martin
travell
iii
concerning
##ef
##ont
##utri
purch
depart
ways
##inary
##ically
position
laid
creating
commerce
mechanisms
cycle
enabling
foster
influence
creativity
81
208
expand
diver
web
prefer
##osition
##ister
star
few
calls
director
##porate
friendly
86
##apan
accounts
sectoral
der
pour
extent
issue
##ceed
facility
##tention
texti
##assi
spaces
inven
reduced
question
synergies
mid
##ists
islands
regards
articles
sout
operation
##iques
neutral
ten
##abit
reven
visit
task
##rality
another
##ancing
encouraged
dom
liter
datab
customer
promotion
principle
ambition
##ound
appropriately
inclusion
involved
virt
83
util
##cial
##oration
tradition
persp
safe
collaborative
mac
now
relative
technological
scheme
priority
substanti
japan
##arity
htm
rob
five
encourage
negative
82
pact
##itions
##ret
consist
valid
pattern
##tified
responses
scenario
vac
conservation
deployment
day
mis
comply
boost
engagement
respondents
spatial
cloud
89
makers
##iting
prices
changing
figures
privacy
neutrality
ee
##ased
suit
cooling
supports
descri
territor
transparency
pa
wind
yet
##284
##oman
intensity
location
explore
insi
reason
adapted
shared
links
professional
##just
conform
along
developments
structural
languages
effectiveness
fall
##mark
##ones
concept
##ify
prevent
9789
burden
asia
brow
tues
##iate
##of
##lies
co2
equal
frameworks
details
achieved
mobile
tuesday
##co
##arter
forec
##sitions
param
planet
revision
features
websites
administrations
##2844
97892844
caus
##ring
disrup
http
leading
dialogue
hist
##onn
##rop
hous
tsa
##eign
##ored
stock
expertise
competitive
croati
frequ
commercial
unemployment
##osed
offered
nutri
sens
accompan
trust
procedures
early
insigh
might
force
interoper
basic
publication
equity
gh
analyse
payment
declar
either
##ecd
funda
##ectivity
achieving
balance
members
robust
05
06
te
##se
confer
##akes
spent
growing
instrument
eligible
hospitality
virtual
meeting
manner
##book
contributing
dur
mig
vision
##25
answ
##orders
detailed
treatment
housing
da
map
useful
portal
offers
problems
chemicals
fer
##he
exam
times
maintain
footprint
here
##stream
samp
protect
participate
afford
emerging
hotel
borders
dam
##15
##anish
exist
reli
propose
board
2006
lands
competences
gatekeepers
debt
04
aust
##ta
##irect
sug
##tivity
attention
suppli
traff
managed
benefici
establishing
swd
democrac
##ren
##19
##ulate
usage
agri
quantit
##sibilities
mission
occup
carried
den
get
hun
rather
##af
##asons
adjust
eco
diss
aggreg
obtain
deleg
install
majority
temporary
inventions
drought
oecd
vo
##erc
profit
incor
cl2
price
considering
traditional
##eries
##itter
##uted
engage
communications
youth
led
roman
##not
##ger
record
##203
taxation
flows
nam
##gener
inequ
arran
empowerment
bulgaria
hour
##ison
institution
swed
findings
##etherlands
largest
dm
##orti
##ars
fork
cour
chec
close
##everage
processing
adoption
discuss
mt
##arily
workforce
abs
##14
##27
orig
transitions
ground
past
##hes
##ott
economies
conduct
hr
pill
##ool
datas
assets
cannot
latest
ilo
##down
##ek
##xim
##ming
##inal
##forc
deep
##enced
geographical
fundamental
imm
pan
acts
indirect
worker
consorti
artific
outputs
##ermost
policym
##ventions
sum
provider
modern
affect
earth
structure
submit
mention
questions
paper
far
iv
##alent
2002
160
surveill
strengthening
van
##ize
defence
##ectively
temper
leadership
macro
insights
arrange
artificial
na
parti
produced
outermost
modes
opportunity
longer
traffic
capt
netherlands
##bers
##ease
##edom
##ented
overview
created
airp
flag
driven
mand
##oring
##ectif
indicator
establishments
sloven
august
97892844203
ghg
9789284420384
half
##face
2035
ecc
internet
restoration
award
patterns
surveillance
##gment
forward
reasons
head
differences
objectif
remote
corporate
manufacturing
update
simpl
sev
wat
##ged
once
minist
##coming
tenders
czech
democracy
east
ple
##itory
acqu
generated
improvement
volunt
harmonised
##ba
interventions
baseline
2007
sets
series
mechanism
register
interp
weak
mainly
participants
independent
visitors
##generation
91
##dc
##uan
thres
##ourg
relating
transm
prevention
cred
raising
hotels
involvement
description
forecast
threshold
rise
##26
##ece
febr
components
february
stim
##killing
##raft
2004
actual
performing
authority
school
automated
mobil
speed
##hood
const
parts
interview
##ologies
cruc
governments
societ
connectivity
observed
booking
broader
ga
host
##most
##40
##tional
##orth
regular
manag
solid
seek
identifying
draw
launched
lv
##inion
acad
##ides
sex
displ
difficult
html
dissem
crucial
keep
##rete
reuse
##aint
infrastructures
enhanced
contracts
08
az
thre
##eland
cohes
plant
university
exclud
highlighted
vacc
suppliers
##itis
transfer
separ
projections
expert
listed
slov
looking
uncertainty
directorate
sample
opinion
highly
choices
wider
societal
give
nations
nov
child
unf
designed
track
variables
diversi
cohesion
cs
##ement
repe
generally
behavioural
ranking
hubs
travellers
##by
##urn
classi
##grad
operations
carry
remains
association
competent
payments
forestry
##ik
code
eurof
spread
art
base
directives
identification
feas
latv
categor
und
##xemb
##asing
almost
informed
weighted
##titud
surveys
explain
observation
fisheries
america
fam
tail
##17
##haus
##oles
dead
explo
trading
owners
sdgs
meaning
gl
light
pes
##ict
convention
##ira
throughout
collected
advice
enhancing
histor
##xembourg
ng
rr
sat
techniques
chann
practical
##umptions
problem
emergency
perspective
consortium
aer
##ship
##55
##arbon
##pped
near
relatively
2003
followed
relevance
##inking
quick
belg
clusters
block
confid
mentioned
foreign
##ithuan
arch
decarbon
analyses
concrete
engine
crop
automob
conformity
500
aqu
ms
##gn
today
unit
assumptions
##aily
decline
##ression
integrate
thematic
##paragraph
individuals
packaging
accelerate
appe
pillar
bat
##ault
##12
##osure
adap
ecological
robo
subparagraph
environmentally
mainstream
conclusion
##ounting
entities
camp
##ental
disability
great
analy
##avour
precar
passengers
pathways
holid
please
daily
gen
habit
vide
##ton
##13
coher
aged
canary
resulting
visitor
combination
reflect
luxembourg
bra
##ussion
manage
guide
extended
shift
slovak
facts
sensi
##ounc
##ening
anim
innovations
built
operator
amending
tackle
computer
portugal
database
declaration
airc
fire
lithuan
wave
accur
1016
output
greece
choice
plastics
dynamics
temperature
satell
col
har
##ems
coun
investors
eston
connected
determine
interoperability
flagship
cur
##gest
adver
deg
specifically
remov
demonstrate
decrease
storage
precarious
bott
files
##ratic
2000
farm2
comparison
conducted
south
eurofound
rati
##eters
##fork
computing
desp
perm
canc
upon
collect
discri
representative
literature
check
reform
algor
implic
2001
coron
entry
loans
swit
##ounced
farm2fork
algorith
eth
syn
##aim
stress
assessed
indices
##tically
quarter
goal
factor
representatives
increasingly
despite
##ots
##know
##wide
sup
exerc
##rometer
advance
collaborate
responsibility
observations
effectively
undertakings
browsing
delegated
dans
spend
cours
interc
party
performed
certific
learn
aircraft
cat
##wh
sufficient
express
decent
equiv
finally
discussion
facilitating
subsequ
hydrogen
consequences
flexibility
starting
arrangements
dut
my
pen
##ari
##reed
disaster
methodologies
raw
quantitative
break
dr
foss
ria
##linary
reality
stay
places
##onomic
protected
default
corresp
delivery
vehicules
belgium
tel
then
plus
expect
evaluate
renewables
trip
situations
advisory
paid
satellite
fossil
pac
testing
##22
produce
##encomp
agro
greencomp
skilled
generate
biodiv
democratic
subsid
azores
##18
forum
accounting
until
evolution
department
origin
##ders
##ule
##bio
exec
improvements
ill
territorial
institutional
lump
sv
##pd
##aced
##engen
emb
schengen
worldwide
fulf
offering
loan
steps
stronger
strongly
larger
movement
fertil
damage
fa
mix
rating
##na
##ups
prob
##irus
intend
advant
version
profile
prepared
transparent
vat
##ru
##eration
forese
##union
investeu
bound
valu
insp
circum
facilities
discip
aimed
##tify
combined
suitable
parameters
lay
sem
sure
##water
exemp
shown
respectively
##avirus
formal
measurement
received
facebook
inequalities
coronavirus
##ground
conver
decade
skip
refers
mitigate
subsidi
landsc
implications
mil
located
presents
substantial
answers
equivalent
cut
##ients
##28
##stac
reunion
##osting
##que
planned
increases
possibility
allows
madeira
automobiles
done
king
mc
nf
##dom
##back
##ract
##egra
willing
outbound
educational
applying
capacities
easy
##ussels
migration
affordable
hours
court
rrf
batter
pacific
##ters
##let
attitud
requirement
multim
delay
estimate
mapping
coverage
simul
complete
playing
intermedi
manufactur
tasks
background
maximum
conference
categories
did
days
welf
##24
##ria
cogeneration
##unic
integra
promot
##iana
strengths
precip
concerns
return
easily
contractual
voluntary
display
welfare
side
##oy
##sd
##23
##economic
##adel
productivity
partner
systemic
##egu
depending
hazards
voc
##icus
stream
whose
##ffer
economics
weather
consideration
##ernicus
shares
smaller
commitments
sciences
pathway
copernicus
revenues
advertis
##adelou
##dle
##aur
##60
transl
##ams
difference
safegu
centres
brussels
territory
devices
alignment
pros
entit
institute
receive
dissemination
multimod
favour
wr
concent
##hern
discl
fairness
views
updated
calculated
kingdom
precipitation
mach
##rix
##the
une
effort
##ateral
applicants
behind
connect
functions
italian
automotive
duration
bau
mor
##ler
ones
except
works
exposure
lock
establishment
twin
commitment
introduced
positions
norm
continued
martinique
video
##adeloupe
vary
compl
##ieties
2005
secondary
choose
incorpor
nt
nuts
##ulties
##otte
outb
peer
circbio
##2020
##2021
verification
transformations
alternatives
coordinated
beneficiaries
policymakers
degree
fed
##has
##erse
researchers
guadeloupe
labelling
presence
periods
workshops
difficulties
textiles
ngos
beverage
never
##utive
compens
respective
operate
ide
helping
definitions
middle
croatia
##barometer
nfbs
outbreak
drop
regist
prep
mayotte
fragment
distric
biological
summer
clearly
draft
fostering
entire
circumst
milest
ca
d1
tick
##dis
##ield
##aign
##care
##fs
##80
##jud
##ane
contra
repl
environments
measuring
prejud
twitter
matrix
reaching
1999
widely
reinforc
eea
mandatory
campaign
bauhaus
saint
##tc
##fied
##isc
proceed
paris
spanish
recital
box
restaur
focusing
##nesses
slow
textile
accompanying
san
##ii
##how
##itt
##ilst
203
repub
agents
guiana
secure
live
liqu
flights
allowing
biot
##itisation
bli
##az
##yr
##ching
join
taxes
fishing
preparation
dutch
circumstances
ced
fail
gain
##wise
##inate
concep
claim
constit
105
horizontal
solution
experienced
dependent
highlights
bulgarian
justice
predict
republic
bench
gar
mot
ori
##ugh
##uese
##elle
##etary
chin
contex
obstac
room
demograph
insu
define
biom
calculation
body
portuguese
waters
repealing
archit
integrating
prejudice
blind
sal
##son
##oming
##ili
informal
announced
authors
faced
residential
dynamic
caused
immed
ministry
weaknesses
deadline
ak
bind
fem
##des
##po
##mb
##mis
##ropor
##lying
managing
##iverse
affecting
covering
represented
livest
crops
controls
variety
similarly
interaction
feedback
confidence
ber
##osing
##look
release
option
unionhow
phase
dispropor
extremes
property
advisors
##discip
livestock
eec
pric
percep
initial
facing
focused
deploy
opening
offs
aux
denmark
namely
animal
makes
nace
##erous
##ula
104
accessed
networking
dispute
freight
standardisation
occurr
ireland
hardware
partially
children
concepts
fast
jud
##atically
##gary
##ath
potentially
drive
showed
delivering
introduce
typically
ambiti
african
hydrolo
correct
conclusions
landscape
vocational
multimodal
district
chinese
disproportion
mad
##lined
##100
##vency
##fall
##36
##29
exceed
usually
107
preven
652
fields
tfeu
##ospace
##ficiency
ships
stimulate
aerospace
habitats
ratio
prospects
prepare
contexts
##igation
##osph
neigh
outlook
specified
round
evol
globally
verif
trig
newslet
image
capture
tailored
spending
##disciplinary
neighb
tables
vers
prosp
##ourism
##ighting
repair
emphas
issu
representation
strengthened
ready
pressure
erdf
austria
credit
thresholds
unfair
diverse
kind
later
##ior
##eases
##vely
##gory
##asm
finland
envis
##ancy
heav
##prus
matter
exception
revenue
sugges
channels
liquid
binding
roll
sil
thinking
proficiency
always
shock
poland
##elled
contributes
healthcare
##aves
presid
visual
personn
citizen
relationships
registered
feasibility
adaptive
biotech
cedef
ambitious
crow
hear
que
roles
yes
##xic
inputs
why
contrac
transac
invited
organised
protecting
going
pollut
undertaken
interactions
recognised
tackling
consistent
pestic
bottom
expressed
safeguard
cedefop
eg
grid
jur
nbs
##inated
##elves
noted
indicate
transformative
explan
attractions
malta
suggest
illust
attitudes
mut
nc
nav
ssh
come
divid
approxim
poor
##aires
determined
professionals
734
sweden
motor
biomass
gather
##ls
2026
interface
arts
perman
doub
organiz
fix
mostly
possib
amongst
charge
encouraging
putting
decreased
cyprus
component
grad
category
dataset
transmission
constra
fulfil
contrast
##yright
ep
sb
##fol
##ert
thems
##ata
##etric
##ades
interests
perce
specif
114
crises
revised
held
involving
startups
raise
empowered
upskilling
reinforce
hungary
managers
historical
analytics
penal
proceedings
neighbour
themselves
bri
yield
##90
though
##ecurity
adr
intervention
investing
satis
110
insol
players
interactive
copyright
maximise
logistics
flexible
discussed
novel
obstacles
ets
gross
ps
pas
rang
river
##come
##eli
stages
clar
societies
otherwise
systematic
197
overn
whereas
aiming
experimental
started
swedish
classification
personnel
cas
say
##national
##37
##ano
greek
socially
thereby
peak
##airs
empowering
largely
croatian
nutrition
threats
robotics
subsidies
disciplines
advertising
ndc
win
##ery
compr
units
agreed
seen
##ords
extensive
attrib
1990
##fficiently
ptd
slovenian
solidarity
separate
executive
architect
madrid
biotechn
war
##burs
##ean
##erland
##itative
condition
##ired
enj
##geting
placed
##umul
contents
finn
plants
numbers
conclud
exclusion
slight
closely
austral
dmos
airports
eastern
acquis
decarbonisation
willingness
lockdown
newsletter
dk
nar
##45
##fy
inh
##asting
acting
coup
degrad
polish
spring
haul
2020a
##box
buy
125
120
medical
extra
participatory
requiring
focuses
challenging
serve
temporal
romania
airport
aquac
sensitive
algorithm
exercise
interconn
female
pricing
020
sbs
##69
##ita
proxim
##olid
shap
unl
consolid
upcoming
secret
accounted
trl
administration
vehicle
bankrup
primarily
classes
correl
investigation
examine
counter
q4
##dic
##rated
whilst
clients
climatic
known
depth
reasonable
obtained
advantage
ie
ol
rc
rus
##mination
##49
##fu
therm
##inear
covers
##ows
reserv
reglement
atm
##ading
contest
recently
underp
prem
itself
specifications
reductions
possibilities
statement
laws
becoming
finding
latter
complementary
slovenia
objectifs
academ
discrimination
possibly
mer
##39
reve
digitisation
actively
sound
additionally
engaged
format
understood
highlight
complexity
interpret
reforms
boundaries
##asmus
aquaculture
brought
danish
ko
vs
wood
##ded
##ij
##vi
##tition
##erve
construct
comes
projected
indicated
infring
considerations
qualitative
learners
shortages
simulation
six
balanced
simple
coordinate
preferences
romanian
simplified
intended
akis
ero
ue
##ai
##ead
##estri
decide
programs
engines
docs
instead
lives
purchasing
mainstreaming
intermediaries
dro
ech
mind
##king
##ca
##48
##77
##omic
she
##adv
unpr
unique
##ifications
boosting
guest
methodological
qui
cooperate
called
recommended
connection
specialisation
readiness
dimensions
malt
allocation
territories
explained
##unicip
finnish
sn
takes
##aw
too
unless
103
109
items
##ously
carib
communicate
lessons
dispos
freedom
metric
demonstrated
audi
treaty
erasmus
justified
eccch
family
estonian
insufficient
disproportionate
preventing
insolvency
fil
mov
municip
old
sen
ul
vf
want
##ds
##46
##onding
enables
cos
beg
##ada
recru
greener
2019b
latin
limits
represents
dependencies
##garian
optimal
reliable
hungarian
datasets
latvian
trigger
contracting
proximity
gear
hence
##rd
##rec
##ke
##zerland
##gu
##lev
forests
##acing
relate
empir
employers
transposition
invested
elim
monetary
targeting
select
affairs
granted
automation
veget
consultations
match
remaining
augment
preferred
literacy
reliability
beneficiary
corresponding
writ
juris
maltese
don
mom
ports
wild
##ipping
##aled
coming
sus
marg
115
comparable
offices
structures
functional
serious
audit
electronics
interested
cybers
bringing
graph
seasonality
batteries
benchmark
permanent
##elihood
enjoy
ou
##bre
##ann
##tinc
eurobarometer
shop
usa
client
198
toolbox
geo
defining
helps
##lier
urg
representing
regardless
portfol
confir
linkedin
seasonal
validation
frequency
existence
nearly
lithuanian
organizations
biotechnology
bed
cel
q3
##bi
##eurs
##ctic
##zil
##43
##ws
##enn
##stock
proof
##theless
print
diseases
requests
##onds
practition
designing
discover
owned
reached
incentiv
demonstration
substit
recognition
disruptions
maps
installation
recorded
panel
seven
academic
factshe
nevertheless
fixed
overnight
underpin
cybersecurity
hit
lic
mail
warm
##ena
enough
##osen
##tively
uns
applies
106
scre
assum
invent
transportation
financed
extension
304
##iversi
driving
observatory
recycled
audits
databases
meetings
holidays
campaigns
transactions
bankruptc
empirical
written
ls
litter
north
q1
xx
##uv
##can
##mo
##action
reskilling
india
exports
##izing
motiv
measured
organise
fraud
##ogle
exploring
structured
holistic
proportionate
limitations
##bean
holiday
expectations
agroec
restaurants
caribbean
cult
cash
kp
vent
##tes
##lan
##51
##isure
coal
##ectual
##apsh
##licit
left
leisure
##encing
101
102
approved
119
remun
pharm
popular
monthly
cleaner
intellectual
ccri
coherent
registration
architecture
thermal
130
csa
fisc
gir
lond
leverage
##omm
alone
##rants
##esty
rely
intra
autonomy
elabor
150
variation
airlines
formats
lowest
978
ipcc
documentation
viol
ccis
threat
coherence
switzerland
subsequently
subsidiaries
demographic
pesticides
unlock
fiscal
london
mag
row
##key
##cing
##47
contam
recre
diets
pool
overcome
##resh
travelling
##ense
surface
adverse
flight
lifesty
visits
pollin
responsibilities
terrestri
exchang
##bnb
purchase
frequently
team
brazil
superv
slightly
jurisdic
practitioners
terrestrial
bn
eic
edi
q2
wa
wage
##bor
##nding
##enous
##inant
##ana
nego
universi
transnational
scaling
esa
analysing
thanks
mediter
mainten
firm
students
industrials
encomp
steel
summar
guarantees
irresp
attractive
name
latvia
course
immediate
versus
negoti
mediterran
encompass
irrespective
eip
kore
linear
tit
##elong
stem
##ocol
uni
##ips
underlying
equally
keyw
remed
250
lifelong
commonly
evaluated
sumps
avoiding
derived
southern
severe
hosts
cancell
inhabit
older
ba
bro
cumul
rain
rich
##tile
##oral
stop
##erson
ask
##ung
train
123
wellbe
thereof
authorising
airbnb
restore
themes
patent
accelerating
closed
foundation
##place
aggregate
constant
slovakia
lithuania
discussions
compensation
ncsd
degradation
atmosph
mediterranean
wellbeing
donn
faster
gro
lev
mb
pict
##lit
##hib
##iss
##isual
##arian
##itted
##eced
europeen
digitalise
disease
scores
##ovisual
capabilities
2018a
##nings
futures
budgets
connections
packages
foresters
retri
variable
easier
preparing
accompanied
absol
headqu
breakdown
fragmentation
milestones
snapsh
disposal
audiovisual
moment
file
rental
wes
##75
reim
alter
##chain
##oty
impose
predom
notes
108
arctic
scop
##asters
sew
programming
esf
solar
protocol
137
selecting
2500
allowed
popul
driver
distributed
raised
##mann
macroeconomic
catal
##ariat
liquidity
mutual
neighbourhood
erosion
augmented
maintenance
cell
ei
late
##oo
##pay
##hi
##roduc
acknow
supplement
##ube
sep
153
engaging
##angible
estimation
aware
explored
connecting
minimise
##ridge
reflected
properties
allocated
ntg
envisaged
shaping
remuneration
universities
dia
drough
kb
mass
wages
##nit
##val
##38
##66
##inants
suffer
##och
shape
split
##aceu
persist
##pendix
sched
reviews
taxpay
uncertainties
tested
investigate
aggregated
excludes
exploitation
blockchain
subsequent
donnees
absolute
droughts
density
session
wel
€1
##iers
##bes
##cl
ine
sufficiently
asp
codes
##owers
europeans
##aps
outlined
116
140
cars
biofu
considerable
varied
showing
edge
reflects
voice
absence
policymaking
stimul
estonia
certificate
cutting
complain
reinforcing
rooms
secretariat
unpreced
ultim
pharmaceu
retriev
unprecedented
3d
cord
era
fight
gr
litt
mining
##lif
##yl
theme
yearly
##200
identifies
comparing
refu
refund
achievement
completed
depends
behaviours
certainty
introducing
conflic
containing
traveller
substantially
missing
maintaining
missions
diversification
conventional
accurate
fertilis
foresee
occurrence
president
constraints
algorithmic
western
cn
ment
rule
##eur
##pc
##hing
##stra
attain
univers
export
1000
disasters
scales
locations
extrac
brings
combine
receip
manufacture
norms
norway
abroad
perspectives
suitability
modernisation
submitted
engineering
embed
simulations
manufacturers
issued
navigation
double
portfolio
cumulative
mati
nort
uri
uber
##ych
##hn
##44
##era
##ansion
took
##lear
##char
neb
atomic
expansion
replic
112
money
transforming
behalf
attract
intermediate
appendix
substances
fewer
sensors
appear
curric
normal
heavy
korea
reimburs
biofuels
bill
cause
fresh
rent
##ao
##ci
inbound
##ury
##asion
stable
enforc
induc
apps
appren
repos
decades
##ief
noise
118
termin
capita
##times
preservation
visibility
committed
dependence
publishing
handling
apart
feedstock
papers
rapidly
factsheet
picture
little
apprentices
eib
hal
ox
##ka
##kins
##zen
##pol
##59
##33
##ini
##room
forth
##sian
resol
admis
##opoll
parc
ecol
chosen
explicit
##strate
generations
##arters
##enses
certified
affects
phot
zeropoll
jointly
determining
previously
intelligent
running
falling
schools
ownership
valuable
incorporated
pollutants
vegetation
girls
snapshot
admissibility
rd
tce
vital
##td
##ym
##70
##79
##ille
##ilateral
##ector
expression
distinc
proposition
schol
references
evaluating
away
customs
geographic
youtube
domain
feasible
ethical
manufacturer
claims
apprenticeship
hi
lever
r2
york
##fts
##urb
##iling
react
stability
ener
usual
basin
sequ
upgra
publicly
week
notification
rising
surv
preserv
distance
experiment
surveyed
mitigating
accordingly
proportionality
domains
records
ideas
perceptions
concluded
matiere
zeropollution
cj
div
element
##ma
##we
reus
reservation
click
compare
economically
save
etuc
doing
emo
111
##ensus
detection
##ogene
leads
##ugg
dependency
excell
variations
fourth
career
calculate
sense
adjusted
inequality
discrimin
promotes
promoted
shocks
penalties
venture
uniform
taxpayers
retrieved
300
bre
cge
gc
rad
txt
wal
##bur
##kill
##crib
##ester
##rope
##ica
convers
antic
relig
consent
happ
considers
bioge
authorised
designation
dealing
describe
earnings
functionality
journey
requested
names
accuracy
precariousness
courses
##thetic
##ught
hydrological
satisf
moving
cjeu
800
bes
blo
his
ke
rech
vou
wto
##dr
##pes
##gence
##fin
things
##istive
prox
forces
##utor
assi
##odes
##oph
regim
##umn
contains
exposed
inten
arising
assistive
canada
recording
overl
analysed
sett
annexes
presumption
varies
quest
minor
belong
paragraphe
distributional
disruption
interoperable
grounds
manager
sensitivity
preparedness
suggests
##advant
agroecology
violence
forthcoming
cf
dash
nom
nul
##lar
##bl
##ho
##63
inland
touch
##elim
eu27
##iring
stra
prelim
argu
scar
agent
manual
grew
129
benefic
advances
adopting
corpor
taxonomy
delivered
renovations
matters
residence
uncr
receiv
recycl
##comp
679
flooding
teach
incorporate
quickly
concentration
orient
crowd
perceived
psych
ranging
narrow
induced
cra
cad
eif
iams
sell
##aving
thri
##leg
##acion
##abil
imposed
composition
polar
disadvant
producer
modal
marking
innovate
annum
capability
feb
libr
sharp
budgetary
comparative
phone
vulnerabilities
facilitated
giving
paragraphs
barrier
holding
expenditures
remained
everyone
contained
landsl
installations
interviews
algorithms
probability
entity
machine
feder
approximately
##lantic
keywords
vouch
billing
cand
ease
ia
mas
sover
##link
##rel
##31
##time
##anes
##enter
##asive
stri
##ema
mode
greening
##ift
ensured
113
numerous
accessing
136
flash
limiting
organisational
front
trace
exclu
entrepreneur
amendment
virus
device
optimise
alongside
##head
indirectly
##gnos
synthetic
coupled
recruit
warming
receipts
sovereign
fell
mess
##ui
##ker
##52
##86
##99
##wn
##ened
exists
##uctions
touristic
cham
compound
regener
accred
leaving
disag
producing
employee
skilling
159
restriction
reception
progres
cycles
enabled
amended
continuous
emergence
retailers
regularly
##knows
oriented
brief
australia
buyers
metrics
begin
inhabitants
ecolab
anticip
preliminary
uncrpd
candid
lost
##nic
##ame
##rate
##ki
##wc
##erb
##itarian
##sts
##uled
##sively
island
imports
##anda
leave
dischar
repay
##elles
seam
routes
135
sometimes
cerom
demands
shortfall
bias
socioeconomic
quantification
harmful
computers
consequently
americas
positioning
causes
quantity
vaccination
verifier
explanation
interconnected
populations
complaints
hinder
fill
let
overs
pal
tree
##iber
##long
##bia
##ze
##mar
alia
##ush
white
compati
##ques
##rant
supplied
interact
##soft
emas
notify
follows
indicates
creates
revise
154
timely
washing
promin
identity
multil
signed
twins
##ycle
google
charging
compliant
clustering
calib
mete
ambitions
banks
##aux
symb
heatw
settings
conceptual
vaccine
exploit
aquatic
warning
marginal
urgent
celex
curricula
terminals
seamless
320
bos
homes
ib
##53
##62
##onduc
theory
##stand
##aco
##ids
allev
econ
atlantic
interlink
sustainably
mexic
conserv
asset
newly
employer
saw
122
182
139
travelers
participated
multip
lifec
entail
##fully
ipol
influenced
carrier
parameter
occupational
occupancy
awarded
sexual
excluded
genu
permit
quarterly
translate
favourable
constitute
specifiques
casc
contestability
interpretation
exchanges
##borne
northern
##onduct
fab
powers
sont
##ez
##gain
##88
##inars
ing
##ani
##pper
##ectors
##eva
sho
incurr
consensus
##ova
ensures
indicating
mont
extract
labels
entr
guides
ageing
swift
bargain
microenter
profiles
combining
##europe
characterised
##useum
floods
utilisation
adjustment
transmitted
excluding
opinions
channel
removals
complaint
tickets
evolving
consolidated
correlation
cosme
lifestyles
ultimately
cordis
washington
microenterpr
gpp
iot
lines
museum
nit
pages
selling
wil
wet
##da
##table
##va
think
fores
##igenous
##ude
indigenous
##allel
appli
digitally
##ultane
underm
proposes
contributed
##ifying
126
differenti
solving
149
addresses
labs
helped
corrid
evaluations
simultane
earlier
broadly
independence
purchases
history
historic
laying
mckins
streams
heart
echelle
ecolabel
multilateral
mckinsey
cet
eight
gov
gues
ju
tips
##dens
##ements
##sc
##old
##thing
##forest
##ffs
neither
unes
##iche
partly
changed
117
timing
equi
wastewater
internationally
visible
continues
simulate
excel
bookings
menu
486
quantify
pursue
cycling
acceptance
aligned
expanding
japanese
profits
mobilise
telec
replace
reinforced
constructeurs
shops
jurisdiction
beneficial
meteor
incurred
400
5g
awards
ahead
ban
breed
dss
heter
i55
semic
vess
worth
##agram
##58
##56
##gs
##inc
##edia
##ster
proven
suiv
cope
##tine
resist
parallel
##ourcing
relies
intensi
climat
systematically
proposing
121
collectively
qualified
qualifications
multiling
quar
corner
instagram
involves
startup
disputes
gives
humanities
resident
oceans
updates
upsc
abstr
ukra
closer
adequately
calculations
harmonisation
##ismo
answer
courts
mandate
glass
semester
battery
perception
acquisition
dropped
discriminatory
microenterprises
semiconduct
multilingual
dang
gene
gains
jul
##oir
##ae
##uish
##ham
##42
##32
##org
##ares
##itable
exac
##tinguish
ecot
neu
distinguish
crunch
locally
sections
mediation
138
##veness
designated
cooperative
inclusi
true
specialist
restrict
politics
biggest
reflecting
cement
indeed
ranked
containers
movements
consistency
separately
greatly
greatest
geneva
habitat
conversion
federation
milestone
prosper
academia
cascading
guests
700
cam
eaf
lf
lag
lasting
oil
pace
vast
zones
##zi
##gi
##gments
##2b
stated
incomes
##umes
unep
worked
digcomp
outre
seas
146
133
##ogen
249
linking
entries
necessarily
believe
charter
renewed
328
combus
positively
specialised
updating
extending
hazardous
conferences
checks
seeking
analytical
2031
senior
enforcing
scholar
religious
proxy
chamber
shopping
foresight
equipped
heterogene
exacerb
ecotourism
cater
gam
mental
nud
nive
ss
##lin
##ua
##ux
##ken
##57
##87
##entic
##sta
store
##utors
exits
isbn
strict
strugg
marri
sustained
reproduc
moder
seems
direction
respecting
2760
john
authentic
establishes
deter
experiments
presentation
turkey
borne
unclear
cambodian
pilots
debate
simplify
tracking
carrying
harv
ethnic
intercultural
certificates
tele
fragmented
cancellation
##strategy
preserving
cadre
bargaining
cb
ice
km
nine
##no
##ya
##base
##pal
##nds
##ortive
##ories
##ilies
##ley
rebound
susp
##une
##thes
##che
anti
impair
##ficient
econometric
dispar
productive
assemb
weight
sold
151
medic
131
134
waterborne
advancing
competit
iceland
load
understandable
facilitates
rapp
cleaning
occur
accelerated
irr
enhancement
carriers
attractiveness
planetary
frequent
nutrients
getting
original
acquired
drawing
families
deadlines
advantages
##point
asked
eiis
extraction
reimbursement
orientation
unesco
cit
ds
gal
pet
pip
vill
##iable
##oor
##yen
##41
##fp
##roph
##isor
##itch
conv
##mpl
plays
clarity
##berg
workplace
digitalised
inters
consul
consists
hamp
outd
optional
marked
specify
approval
generating
email
capable
defines
statements
reviewed
vertical
visited
competencies
complet
oct
turismo
templ
##ront
attemp
annually
accelerator
complemented
##plas
shifts
windows
forecasts
drawn
appears
adapting
switch
##ersonal
levers
protocols
scheduled
repository
rechar
disaggreg
mexico
extracted
crunchbase
bond
lays
mort
pest
pests
q5
rg
tangible
€5
##rich
##fl
##34
##67
reb
ont
##igure
alban
parks
death
unli
interdisciplinary
meets
seem
innovators
124
##unction
valor
termination
sought
impacted
010
labor
objects
##000
309
formation
recovered
modeling
learned
obligated
prioriti
paying
lacking
capitalise
meters
standardised
##ensions
incentive
quanti
preparatory
soils
enablers
audio
scientists
successfully
944
alliances
cyber
negatively
burdens
consequence
expanded
validated
disruptive
affordability
meaningful
mixed
foreseen
disclose
varying
safeguarding
clarify
premium
municipal
##ennial
title
predominant
scoping
suffered
embedded
rdm
prosperity
competitors
cm
card
fn
ho
sale
wors
##ias
##ove
##bial
##eed
##set
##cor
##gie
##fying
##71
##worth
##onia
thom
##estim
##ura
##icial
retain
reward
##active
coe
##even
beach
shipping
wholes
smith
traders
assumption
foods
rough
unions
infl
promising
grown
176
preserve
multiann
quant
verify
minister
electr
microsoft
microplas
behavior
borrow
livelihood
builds
##ruption
handbook
subscrib
irish
cef
closing
stores
properly
huge
##plus
trusted
robustness
occupations
hourly
headline
ministries
interpre
interpersonal
##dc0
undue
semi
entitled
concentrated
judicial
bankruptcy
magnit
stemming
bills
##standing
nitro
appliances
combustion
multiannual
bir
bay
ey
je
length
male
master
ped
ru
ta
wt
wall
##port
##ha
##hs
##gro
##faces
##94
##ero
##esp
toxic
##ara
proficient
##ett
conj
##ival
recon
segment
upload
190
collecting
2018b
156
costa
132
deliber
qualification
remove
likelihood
instructions
gateway
minimising
nextgeneration
governmental
extrem
presscor
vii
speak
maintained
voting
##260
keeping
diversify
animals
removal
synergy
exemptions
sanitation
rolling
suggested
academy
infringement
##ommunic
contaminants
rainfall
distinct
leveraging
dashboard
vouchers
lifecycle
telecommunic
ukraine
eafrd
quantities
presscorner
230
cape
fine
gis
hab
pays
sink
tank
wp
waves
##uk
##ced
##hr
##54
##figure
##alence
##atch
##itures
##itaires
comments
##ram
##opa
imply
implies
composed
spect
decid
manip
buffer
notified
128
elder
147
consuming
180
entering
168
faces
fees
stands
liability
statistic
century
necps
stef
barb
automatically
encourages
combat
humanitarian
functionalities
maturity
undertake
highlighting
resulted
hold
widesp
railway
blueprint
allocate
utilitaires
conformement
forecasting
##itised
correspond
subsidiarity
exceeding
emphasis
gradually
1972
russia
eliminate
assumed
##otypes
receiving
crafts
library
traceability
vessels
rapport
irrigation
consulting
predominantly
widespread
350
bilateral
vet
##ien
##tourism
##band
##pro
##mg
##02
##ora
##ala
##arch
##uls
##ulated
sud
##igu
##tinational
anc
anth
adding
imposing
deem
dates
10y
2019a
etre
subj
frag
##ousand
142
toolk
specificities
efficiently
mainland
processors
multinational
reduces
worst
##bank
phen
1007
granular
stepping
401
volumes
ipbes
variability
readily
757
avoided
closure
seaf
window
arrangement
colour
catch
##where
decentral
##barometereng
recreational
fertilisers
wtobarometereng
ibid
simultaneously
meteorological
semiconductor
inclusiveness
magnitude
ces
dup
fif
font
pul
rol
sand
tn
tp
##app
##kers
##cont
##wan
##inations
##ato
prohib
whom
uneven
supplies
supportive
interrel
recast
2020b
modif
envision
employing
195
legers
actually
entered
endors
restoring
organisms
criterion
showc
humans
books
exceptional
temporarily
continuing
storm
miss
durable
voitures
absor
partial
confidential
inspire
machines
incorporating
immedi
penalty
bankruptcies
kpmg
elaboration
unlocking
acknowled
##ochemical
persistent
conflict
experimentation
excellence
##legal
breeding
rgc
electrical
conjunction
elderly
10yfp
ble
gig
jp
las
sant
tipping
upper
zo
##itive
##net
##lom
##uel
##uay
##bc
##brid
##ruct
##con
##govern
##fe
##fort
##onsibilities
thousand
##erever
##ults
##emble
##raw
##osite
wherever
defer
##ustain
unav
pron
trader
mount
etcc
adaptability
announ
##result
141
145
whereby
152
insee
partnersresult
feature
##ounter
integrity
restruct
monitored
linkages
former
limitation
periodic
encounter
belie
indicatorsresp
prevalence
crii
1993
guaranteed
amendments
viable
##places
dominated
utilities
complying
brows
damages
delegation
deeper
submitting
blocks
disciplinary
alignmentlong
restaurant
divided
020260
rcms
wildlif
suspend
coalition
recreation
atmospheric
europeenne
quantum
deemed
immediately
etccdi
indicatorsresponsibilities
wildlife
520
bol
bot
brid
bonds
ci
cv
een
hom
kr
mes
mem
nation
push
q6
tal
ted
talent
ug
vic
##aro
##ein
##eil
##cri
##mer
##68
##itas
accep
##itim
incom
incid
parad
imper
compil
accid
##estration
rele
spill
smoo
effic
outline
##loyed
##boards
wealth
rou
##cessive
legitim
soon
148
158
157
tari
##phone
seeks
##assment
presenting
##paid
organisers
provin
continent
collaborations
distributors
metering
serbia
hybrid
demonstra
conducting
imo
independently
unemployed
shifting
departments
nutrient
sensing
volunte
difficulty
tailor
robots
harassment
ratings
##naire
ticketing
predictable
berth
offset
heavily
exceptionally
comprises
australian
underpinning
pollinators
headquarter
headquarters
sewage
pharmaceutical
explicitly
sequestration
crowdwork
entrepreneurial
prominent
museums
telecommunications
beliefs
demonstrating
bird
kil
lfs
tonn
##oul
##nity
##aire
##rely
##per
##97
##oria
withd
ang
##illary
incub
ecodes
placing
composting
##lout
unable
##ipher
string
intergovern
meat
arise
transdisciplinary
##ella
grey
##ancies
businesseurope
192
crpd
collap
timeline
181
185
##ians
trainings
detect
twice
organiser
guiding
provisional
##tifying
offline
capitals
math
terti
measurements
specialists
fueleu
1998
banking
abbre
pressures
adopters
declined
631
fleet
entirely
decreasing
complementarity
huws
hospitals
illegal
##ensively
departure
webinars
##assification
validate
misle
tender
examined
installed
profitability
dmo
captured
diversified
harness
removing
prosperous
hearing
divide
inventory
foreseeable
regimes
belonging
nulle
compatible
heatwaves
corridors
disaggregated
albania
roughly
microplastics
livelihoods
nitrogen
ancillary
##ustainable
pronounced
uganda
ecodesign
intergovernmental
600
duly
ges
hots
kar
lanes
night
om
tt
vice
€50
##oint
##eas
##egrad
##here
##esian
##ortions
##arities
##rees
204
207
retention
##ires
sts
stays
alert
comprom
defic
##adata
unpaid
suppression
interesting
sport
serving
traject
peripher
fines
##enegro
safer
autonom
redress
1111
framing
equitable
163
identities
considerably
millions
signals
integral
##adeus
241
treated
affili
shortage
describes
typical
calend
ipce
efsi
introduces
freely
1991
##plete
562
enabler
##iosis
duties
founded
##beit
utility
##ropical
examination
czechia
classified
convergence
mca
intermediary
disclosure
presidency
russian
incentivise
screening
kpis
breakdowns
cells
universal
division
beginning
montenegro
abstract
genetic
fifth
botzen
incomplete
smooth
headquartered
collapse
hotsp
bridge
fat
lis
mill
mich
n°
rica
s3
um
wi
##iere
##off
##sch
##zz
##hers
##well
##nde
##inating
town
##isons
##oma
##omet
##eliness
##ref
2040
##eta
comfort
##ige
acron
ord
exit
ant
shore
##ffen
che
compile
smet
arab
##ives
##ailand
informing
said
ensemble
nathers
caps
protective
188
median
label
worldbank
estimating
entrants
becomes
micron
000s
observational
327
deliverable
contrary
attend
siem
consultancy
emerge
metadata
##ibles
1995
cambridge
err
images
prediction
derog
migrants
supplier
vaccines
##ike
super
ntos
failure
gained
berg
deployed
illustrated
gradu
winter
reveals
infringements
auditors
aspect
freshwater
gcms
psychological
overseas
ingred
pipeline
wholesale
habits
duplic
restructuring
tertiary
dsa
esi
fash
gover
hq
hier
ix
ligh
rented
snow
try
##aa
##ben
##eet
##85
##jet
##ono
thor
prove
cong
enlar
##tina
oral
exhib
##ticals
isol
##oted
ecology
##apes
depar
relying
sports
notable
climati
module
segments
moe
upgrad
avec
indications
financier
solely
144
applicant
184
186
importers
feel
additionality
biodegrad
standing
focuss
leader
php
patents
295
290
institutes
bru
##atories
controlled
cycl
eds
demonstrates
externalities
765
optimisation
coordinator
younger
corrective
preference
questionnaire
membership
temperatures
watch
disseminate
081
correctly
passive
springer
benchmarking
acknowledge
diagnos
landslide
outreach
assembly
template
subscribe
accepted
peripheral
siemens
ingredients
fashion
departing
1a
dx
dual
eige
gi
gri
ion
merc
pose
rational
tor
tests
vr
wk
wit
word
wik
##dam
##len
##bas
##rum
##fra
tol
##ecess
##lex
##lements
##iry
suited
stations
asyl
excessive
##ocation
##ione
##ions
##opol
relatives
##antes
leak
##grav
hail
assume
peri
decis
##ishing
particul
##prints
##ssa
nationally
##abled
##atista
solve
specification
peers
surpr
surround
surplus
161
162
166
feat
##assl
authorisation
##depend
sizes
phy
entre
280
regulate
regulators
technically
261
compete
prioritiz
precise
complementing
summit
matching
exclude
black
##repres
realisation
##ibri
occasion
characteristic
determination
upskill
journals
indexes
subsectors
arrival
##ficiencies
continuation
complementarities
imbal
emerged
computational
predicted
falls
nutritional
credits
constitutes
evolve
kinds
attributed
##viations
confirmed
substitution
pollinator
remedies
stimulating
pharmaceuticals
upgrade
disadvantaged
recruitment
alleviate
anthrop
phenomen
mathema
abbreviations
hierarch
asylum
hoc
h2020
iedom
kj
ly
lists
mus
puts
sed
tutor
words
zone
€7
##uer
##cs
##mor
##fers
##wa
##tious
##ona
##ertification
##esc
##ino
inj
##urban
##ello
##astic
##etti
##abol
enrich
coach
resour
compuls
deficiencies
prassl
interreg
intr
lending
trained
aggrav
invasive
police
manure
modelled
pooling
002
demo
155
applicability
equil
geffen
entertain
164
##iann
170
delays
##ccc
remot
farms
corruption
center
221
##110
appropriations
phases
visa
refuse
regulated
310
responding
complements
attach
blank
dram
##nement
friends
attracting
dialogues
diverg
##onesia
causing
##after
adjustments
game
080
fao
faq
probably
explanatory
fulfilment
counterpar
reservoir
municipalities
substitute
screen
cultured
grass
mentoring
upgrading
blog
settlement
##hofer
thrive
candidate
##marks
symbiosis
genuine
upscaling
moderate
prioritise
interpreted
bayesian
wttc
released
affiliated
governing
tutorial
compulsory
52020
doll
n79
pra
rtd
sourcing
zh
€10
##du
##ius
##yms
##gue
##78
##61
##64
##tish
##erts
theore
inher
##isations
##isite
20a
206
promp
reop
##iration
alien
iso
shr
shelf
nex
nepal
chi
##ageo
regression
unified
apprec
appoint
prone
expenses
interim
interfer
desertification
conseil
clima
transfers
underestim
##ished
diageo
sectorial
innovating
respected
annee
cru
1500
timet
healthier
initially
187
surge
175
advoc
fires
delt
designate
ending
ceram
centred
fron
icb
accommodations
describing
combinations
handle
##regular
irregular
floor
declines
continuously
declarations
reliance
boarding
mobilising
gaz
unfccc
##titude
counting
cancelled
penet
inspection
exemption
easyjet
replaced
##ilipp
hydrologic
gathering
yields
revealed
costing
proofing
cultures
negotiations
refuelling
apprenticeships
survival
walking
satisfaction
managerial
exclusively
resistance
30955
thomas
spectrum
decentralised
mountain
announce
browser
withdraw
misleading
calendar
micronutri
##ibrium
equilibrium
entertainment
theoretical
330
52021
a3
apec
cited
fear
hil
nic
pi
sent
sanc
ven
ze
€100
##ah
##yal
##ris
##cyc
##gus
##final
##81
##95
##93
##with
tob
##ola
conting
##igor
stere
2028
adults
comme
usd
chart
composite
appar
interdepend
allergy
disburs
scaled
replies
manif
measur
diw
etats
nouv
indication
esc
improves
monaco
solv
reverse
initiated
##titution
##ception
timefra
multidisciplinary
256
airline
comparisons
discre
loop
explor
experiencing
achievements
lifetime
deliverables
earn
334
349
retro
severity
##ography
mechan
1997
determinants
balk
623
normes
officials
viii
foundations
membres
derive
prevented
durability
consortia
hosted
decarbonise
column
switching
intends
##1000
navig
rcp
triggered
cancellations
fertiliser
besides
quested
discharges
letters
wildf
##ogenic
heterogeneous
catering
niveau
suspension
inflation
birth
autonomous
counterparts
nexus
penetration
ax
dest
gases
lon
lies
omb
p2b
pione
rot
sti
tac
vc
wra
x2
##dd
##ole
##usion
##eks
##kas
##ht
##73
##°c
ths
##eres
##isp
##iswh
##urt
##ometric
##elt
reint
onwards
station
cogn
exhaus
bear
##occo
neuf
##gypt
interfaces
span
intangible
##encia
smarter
artis
sca
perf
recip
recession
basins
modules
##olog
marketplace
buying
##ileo
operated
numer
##cepti
169
processed
172
179
2100
303
##ernand
whoiswh
formula
ordering
lime
visiting
cooking
refurb
shortcom
293
became
opened
charges
precis
precision
observing
individually
microbial
strongest
thirds
consulted
booked
played
situated
publishers
paths
civitas
powered
influencing
declining
decreases
geography
eventually
investigated
utilise
consistently
descrip
sensory
insight
answering
groundwater
pillars
acquire
automobile
accurately
curves
exercises
embod
attitude
compensate
replacing
benchmarks
garben
suscepti
barometer
atmosphere
reusable
emotional
biogeochemical
accreditation
progressive
entails
struggle
reproduction
##thesis
galileo
valorisation
sudden
toolkit
seafood
rollout
incidence
legitimate
kilomet
stringent
hotspots
climatique
particulier
intrins
ombud
whoiswho
shortcomings
bran
cab
ded
dna
eit
fon
fich
hur
href
jsp
kn
niche
rose
€2
##lining
##bd
##bod
##ei
##ky
##cel
##making
##vals
##har
##ga
##65
thailand
##ered
##ention
inception
##isi
##itary
##eck
##elect
##acting
suff
stabil
enz
##gement
euros
##illed
champ
##apore
relates
commissioner
leed
##inement
disabled
transvers
scru
reput
ago
invites
underrepres
envoy
##ago
natura
finances
275
consumed
idpd
secur
medi
financially
performances
##2030
quin
quite
quarters
218
212
219
reviewing
597
225
##fta
231
235
refining
fairer
stead
printing
automatic
personalised
excess
metals
broadband
assisted
easing
hands
backed
launching
stories
calculating
recognising
speech
american
purchased
reasoned
stocks
vaccinated
colle
ratios
ethics
certifications
duty
##arias
subsidised
embrac
foresees
valuation
landscapes
idea
demography
insufficiently
grids
satisfy
freedoms
predomin
apartment
oxford
photos
breach
intention
teaching
sharply
wetlands
disparities
sinks
decided
fragile
interrelated
birds
acronyms
esif
lighth
thorough
hierarchy
music
measurable
neufs
kilometres
##electron
scrutin
450
cati
eed
eii
hall
hiring
ling
mp
mural
ns
ned
ngo
outs
pit
pwc
rm
squ
ts
tap
tai
wc
ytd
€bn
##ositions
##uments
##eys
##gre
##orm
##env
##anz
##atri
rempl
conges
euroge
ante
parlement
tours
digitised
traits
hailst
repatri
##astroph
recl
##entials
amaz
amadeus
genero
weighting
weeks
notion
autres
autumn
terminal
esms
collections
270
revers
carbur
georg
securing
imported
posed
posting
varieties
216
somewh
247
legally
discour
trees
distress
competing
allowances
accountability
goes
ici
continental
299
instances
renewal
completion
jobsee
351
361
360
capitalisation
375
clearer
choosing
crime
##google
respondent
powerpoint
evident
pursuing
tended
carefully
closures
continuity
devra
logos
investigations
predictions
traditionally
vacancies
examining
modernise
mobilisation
videos
cold
degrees
permission
cancer
checking
catastroph
versions
simulated
safeguards
predictability
deploying
pesticide
sb2021
lockdowns
koens
underpinned
unsustainable
motivation
encompasses
rentals
conversation
cfm
arguments
thriving
exclusive
suivant
outdoor
mortality
manipulation
stefano
absorb
tonnes
deltares
ceramics
fronti
manifest
amazon
somewhat
220
550
egypt
ger
gst
mol
pear
rp
sorting
tm
von
ward
woman
##data
##oting
##bm
##bro
##bis
##cities
##72
##96
##ja
##eno
##aland
##role
##atric
##ario
##arching
##rea
##asg
##acco
enact
acid
##rael
##through
##chi
##opoul
chapt
pled
europeana
compass
##quisite
indisp
contacts
prere
developers
repar
assurance
##istan
193
##ssen
planners
buff
overarching
##oks
003
elections
else
thereafter
guy
##uctu
globalisation
geoss
##ouv
165
annexe
circle
advised
furnit
##ogenous
signal
liber
whenever
accomp
cooperatives
discount
fluctu
disturb
issn
verified
223
237
proved
fru
icao
shorter
pointed
institut
turb
turistic
lesser
langid
alternatively
listening
restrictive
hypo
reading
slower
quantifying
draf
handic
influences
marche
elev
692
imf
emergencies
lta
cci
predicting
inventive
miscl
brown
fares
interviewees
famili
breakthrough
tripadv
disclaim
morocco
outbreaks
ticket
##points
verifiers
gradual
perceive
acquisitions
reservations
sheet
lifestyle
edihs
waiting
alteration
scopus
replication
emotions
assig
overlaps
minority
scarc
corporation
corporations
massive
replacement
danger
neuhofer
johnson
harvesting
recharging
borrowing
extremely
endorsed
paradig
leakage
decisive
surprising
physi
sedi
timetable
##ilippines
zealand
tobacco
mechanical
balkans
transversal
congestion
chapters
indispens
prerequisite
furniture
tripadvisor
2d
3a
bis
bund
cds
egnos
fal
hon
hunt
jt
jet
kaz
lors
listing
mise
odr
pati
rand
rub
sick
##tr
##necess
##bel
##kes
##cious
##pass
##gers
##220
##jus
##onym
##orms
##inform
inade
##ania
##eding
##reet
fora
reap
reall
compend
story
##riting
##ode
albeit
alike
##aper
indonesia
##alling
unequ
unnecess
##fications
##iating
desired
1025
arm
scal
agg
segreg
aven
##iement
##aterally
roa
noting
analyst
007
##ordinary
274
revital
revolution
##working
differently
##ouet
##toe
171
object
poss
opposed
tweet
210
240
organising
verde
firstly
electri
explains
owner
facilitation
scaleups
##avier
bib
347
trials
triple
concerne
percentages
severely
restricted
irre
avoidance
tends
simply
containment
optimising
domin
validity
accompany
dmc
immatric
panels
ministers
peseta
drinking
came
caution
garanti
blindly
judgment
illustrate
epid
coupling
extraordinary
licens
assumes
##uvre
jurisdictions
catalog
sessions
attainment
##polic
survive
##burg
assign
##ophysical
regime
intentions
scarce
landslides
accredited
marriott
medicines
deaths
premiums
fnssa
accidents
volunteers
graduates
upgraded
shrinking
timeframe
cognitive
predominately
##electronics
catid
taiwan
eurogeo
indispensable
inadequ
compendium
1er
430
789
aj
asian
bop
bang
hack
lg
lign
mr
mtoe
nd
ni
nord
os
py
ppp
pant
rar
rod
rid
sf
senti
slud
tropical
wb
wed
wmo
writing
€3
##dad
##tory
##osi
##nia
##rates
##za
##pi
##pon
##fo
##98
##jan
##energy
##inn
##inery
##att
##atre
##edited
toward
toler
tomor
##aria
##itz
eu28
##etn
##vey
onset
conven
##aba
suc
##rating
##orted
##una
exact
reskill
##chron
adult
park
##usted
unilateral
##roup
meal
trail
item
assisting
modification
modifications
send
191
194
ete
amster
weigh
organized
eli
crm
monuments
estad
waterways
173
178
communicating
##005
21st
comparability
flu
miner
minutes
238
sitem
1002
necessity
accommodate
steam
finds
deliveroo
##shore
338
3390
percenti
renovate
introductory
occurs
assistant
quantified
acceleration
abund
##brella
imag
recognized
spatially
guaranteeing
footprints
reinv
boosted
trustworth
democracies
aggregation
modernising
captures
seville
credible
transferred
diversifying
synchron
drink
fulfilling
returns
machinery
transaction
gathered
specifying
british
comprise
summarised
remedy
refuge
excellent
conversely
regenerative
discharge
parameterization
fabric
swiftly
undermine
lfsa
ministerial
uploads
nextgenerationeu
acknowledged
##lomer
ipcei
umbrella
anthropogenic
remotely
tutorials
contingency
stereotypes
##titutional
reintroduc
##ernandez
ombuds
##body
enzy
lighthouse
scrutiny
segregation
sentiment
tomorrow
amsterdam
030
ay
caf
hund
ices
koks
luc
lena
lids
mi
mir
ot
ran
ram
ssp
tro
tensions
vans
œuvre
€20
€25
##uw
##rs
##rest
##rera
##eh
##cia
##vs
##vity
##hu
##4polic
##92
##orus
##inely
##ald
inside
##roc
tot
##ariate
##urers
##ecks
##ston
##stein
##ilaterally
##iger
europar
alo
rescon
##change
##used
anonym
parking
usable
ecb
chair
compte
##quet
unedited
releases
relief
desi
notam
##echt
##ovs
##overs
marketplaces
##istrib
##struction
embr
##ife
##ifies
004
redistrib
solvency
estate
##300
circulation
extensively
qualify
designers
ende
243
focussing
singapore
formulation
formally
phosph
285
287
downstream
downsc
267
314
312
polluting
secondly
granting
exploration
steer
customised
microbi
distributions
383
337
personalized
construc
443
crimin
readers
manufactured
bigger
confinement
civic
journeys
##auti
640
reflection
proportional
pursued
looks
882
logical
disrupted
declared
teams
voy
mobilised
exploiting
brand
advertise
bottles
bottlen
agroforest
valuing
exempl
translation
write
failures
preventive
emphasised
suggestions
geared
broch
supplementary
conflicts
resolutions
satisfact
message
messages
calibration
symbol
interlinkages
genuinely
permitting
differentiated
cette
##forestation
nudging
intersection
rebut
unlike
catchment
zoono
suspended
imperative
tariffs
deficit
error
duplication
micronutrient
destr
loneliness
exhaustive
reputation
gstc
misclassification
familiar
scopusgoogle
assigned
bibli
inadequate
sludge
estadistic
hundred
##4policy
europarl
resconrec
notamment
embrace
phosphorus
agroforestry
zoonotic
2nd
cul
efta
fis
fals
fighting
jones
kat
kong
mel
ny
race
som
vitt
##tech
##tps
##oit
##la
##uari
##bres
##km
##kely
##mac
##vis
##hab
##2f
##´s
##oni
##onau
##inting
##eca
##rey
##idity
alg
##osc
##ches
anch
whe
para
impos
chile
plau
complic
##ested
##adas
##umed
unknow
##ipedia
stric
spir
economie
notwith
1080
pertain
##elli
effet
##ishment
buses
dietary
investor
locals
differential
1150
1177
##hips
esg
sole
mone
revising
##reeam
globalised
equations
insulation
benef
183
surpass
167
conclude
multic
##iants
labelled
detri
delta
liable
ended
##emporal
242
estimations
505
taxi
234
refine
maternity
patenting
352
typology
biases
roads
realistic
restricting
1996
ambient
mechanistic
determines
holders
powerful
abuse
##institutional
treatments
extends
779
recognise
715
roadmaps
justify
vacation
descript
fundament
conferred
migrant
spreading
glasg
aerts
robotic
removed
permett
stressed
stressors
corresponds
moreno
emphasise
polluter
sb2020
ranged
020220
reveal
graphs
confirm
catalyst
welcome
energie
happen
kept
federal
candidates
exacerbated
strictly
impaired
hamper
markedly
unlikely
coefficient
barbara
unavoid
cvc
trajectory
wikipedia
surrounding
featured
phenomenon
interference
exploratory
axis
intrinsic
jobseekers
acidification
instituto
##information
unnecessary
##etnam
sitemap
lenaerts
endeavour
bottlenecks
bibliometric
vittuari
unknown
notwithstanding
glasgow
alex
bon
ben
bad
bever
breeam
dio
eo
fee
g7
giz
g20
h49
h51
ions
istac
m2
mw
nurt
pun
pump
pales
ride
solo
tui
vector
west
wish
wbl
y02
##iety
##ng
##nes
##aust
##lm
##lades
##uj
##r2
##rect
##xide
##gan
##gas
##orn
##eds
##itors
##igo
sto
##rie
##ratives
coh
orbis
israel
imped
##udic
##rance
##apital
##loiement
deals
##tivation
accor
accumul
conscious
argen
##inea
dismis
scan
peru
recurr
underlined
optical
directed
directions
technique
##ager
generic
weights
weaken
elle
##ressive
therein
273
cargo
locality
inspec
189
transitional
177
knowledge4policy
delivers
designs
educators
currencies
referring
305
focal
245
comparatively
lifted
philippines
significance
transformed
263
portability
315
steering
experiential
scaleup
microelectronics
presente
brack
381
tried
combating
newsroom
365
viewed
citizenship
452
##ographic
conducive
baltic
config
holds
##rupted
edu
responded
subsector
irp
stored
storms
tackled
concerted
hardest
runoff
login
ltd
clothing
investigating
promotional
substantiated
revisions
denied
incorrect
transmit
classifications
undp
pesole
rrps
decarbonised
appeal
backgrounds
##athons
disproportionately
suggesting
silva
approximation
concluding
consolidation
correlated
drops
contamination
supervision
encompassing
##otype
diagram
resolve
energies
overlap
teachers
federated
progressively
multiplier
entrench
completely
tpwc
harnessing
gestion
cheaper
imbalances
cruise
fiches
##entioned
quintile
scarcity
unequal
hackathons
rarely
percentile
exemplary
false
benefiting
beverages
dioxide
inspections
3rd
amp
cw
cso
craft
cpc
dwell
fiche
ig
lot
lia
mcc
pf
rac
ress
rare
ses
tent
uhi
vu
vel
vend
wir
##doc
##tra
##lim
##page
##power
##mi
##vious
##05
##gering
##83
##82
##76
##anal
##rost
##artile
##rem
205
##lets
proactive
forcing
onto
##irable
comment
sun
##utory
coven
beauti
adhere
##opard
parag
##otal
##udi
complies
##quartile
accum
##umb
expensive
expense
digitalization
interquartile
spur
sustaining
leyen
secteur
transit
##olland
basf
modified
seasons
##exp
obvious
196
diffusion
royal
subnational
subcont
suburban
pret
overcoming
eva
001
terminate
espan
infection
fibres
##iversa
thank
equation
geophysical
knows
bioenergy
174
importer
purely
biodiversa
detecting
signs
214
213
257
adopts
discard
distortions
calling
501
282
regulating
truly
openness
prevalent
barcel
observes
343
scoreboards
minimize
427
390
392
397
396
510
gdpr
progression
broaden
563
professions
declare
rankings
dimin
883
posted
computed
graham
attraction
ltc
predictive
misti
paramount
9789284419
sampling
partir
partie
glance
staying
fertility
probabil
inspired
exempt
delayed
streaming
advertisers
sanitary
claimed
##mbh
occurring
hydrology
egale
gridded
neighbouring
winners
attributes
interconnections
contestable
licence
motivations
brazilian
supervis
negotiation
inhabitant
momentum
eiopa
inefficient
refunds
repositor
##rooms
differentiate
quaran
telephone
villages
completeness
attempts
recharge
cmip
jeopard
deliberative
thousands
mesures
congress
mathematical
dollar
zhang
inherent
sanctions
artistic
particulieres
underrepresented
catastrophe
##opoulos
banglades
enzymes
aloisi
spirit
unavoidable
y02p
dismiss
configur
entrenched
covenant
paraguay
barcelona
411
484
bac
band
bian
cite
dmm
earm
fits
fdr
gb
hud
h50
ign
ks
kle
lor
mur
mff
nsw
rh
s4
tic
tast
xavier
##tad
##turn
##lf
##laus
##uti
##uro
##uil
##uve
##bit
##rr
##rat
##rig
##rist
##east
##ket
##zeg
##74
##wt
##wear
infer
##isme
##arti
##icro
##ele
forced
##asc
statista
enqu
##uth
##utter
exiting
##osa
##imi
shel
parity
##otemporal
##sions
imparti
##udes
chance
chips
##aysia
depr
deaf
##ador
##adapt
unilaterally
pred
relied
spot
serves
leaves
trains
agr
ages
canad
canarias
invite
underlines
##iotic
##sof
environnement
uplif
diet
##ama
##agen
hebro
##istry
employs
differs
emir
rout
boks
enshr
subtit
autor
elastic
mayors
costly
joined
none
travelife
internationalisation
bioeast
button
potentials
schm
privile
wording
211
doct
254
urug
flux
affix
##upc
phased
291
lob
provisioning
believ
belief
unwomen
bars
responsive
324
323
profiling
biology
principal
averages
##tisation
387
essentially
369
##ambia
documented
controlling
446
freel
realised
472
serre
ambigu
terror
499
fishery
edited
slope
901
abiotic
symp
audience
##comed
amounted
interacting
viability
hydropower
harmonise
770
spatiotemporal
858
852
dominant
##health
examines
traffick
obtaining
dma
discusses
ilost
capturing
heading
displace
repeated
aeronau
engineers
stresses
fertilising
boundary
converted
displayed
streamline
translated
concentrations
garcia
architects
issuance
envisage
illustrates
mutually
reserved
unpredic
filter
began
confirms
licenses
agroecological
welcomed
halt
strive
anticipate
repayable
paludic
heatwave
bosello
interlinked
conservative
upscale
dangerous
teleworking
impairments
disparity
laboratory
burdensome
walls
statisticians
granularity
fatalities
divergent
announcement
interdependencies
solvit
retrofit
wrap
repatriation
pearson
elsewhere
fruit
reallocation
tolerance
mirr
estadistica
palestine
ressources
beautiful
probabilistic
bangladesh
earmark
hebrok
uruguay
paludiculture
750
900
aes
b2
bure
cuts
dry
dream
eat
fernandez
lighting
mec
ncc
n77
pere
q10
roc
sam
s10
xv
x3
€8
##develop
##iro
##itical
##ioration
##tw
##l0
##yp
##yer
##uire
##uffs
##recht
##eo
##eighted
##sen
##mal
##hand
##4all
##fd
##600
##tique
thy
ther
##ersion
##orys
##inar
##inter
tous
##arag
##urer
##eclar
##ela
##stuffs
209
fore
reth
##aby
##mpert
##ray
alco
extinc
resh
commod
importing
ecorys
tourmis
chief
plur
plate
##ours
regret
indoor
##andon
unint
expiry
##ardo
interinstitutional
spok
meg
lempert
develops
consume
consomm
traditions
##izes
##iving
##ivia
bases
seize
moist
transpose
etabl
etui
door
route
roof
respects
overwh
evasion
##iley
legacy
guinea
278
operable
operates
rises
1517
joining
pef
peat
011
015
013
iden
##oup
##tite
##2035
##2019
multif
215
217
255
currency
integrates
244
formulated
224
226
phil
offerings
283
strengthens
trillion
265
268
##ugal
charged
unweighted
grouped
preca
preceding
326
558
353
359
deliveries
procedural
renforce
instrumental
triennial
366
offshore
retur
429
376
situational
512
metal
realise
413
unctad
1992
sincl
widening
demonstrations
contracted
abilities
abandon
ceased
662
optimised
790
aligning
divergence
sensor
ghana
occupation
deepen
transferability
separation
spreads
explaining
appealing
counts
factories
learnt
drug
execution
faibles
##245
multimodality
normally
slowdown
priced
auxili
occurred
triggering
contraction
pollutant
explanations
psap
attribution
constructeur
eliminating
wildland
beds
bedrooms
inventors
elaborate
supervisor
edif
wait
firmly
titre
keyword
constantly
sewa
sewer
1371
catalys
ultimate
strain
receives
recyclable
entrusted
neuves
heterogeneity
gamification
niveaux
authenticity
deterioration
##flow
worse
reconstruction
subjective
victim
compiled
towns
isolation
focussed
torres
aggravated
52020dc0
nicarag
embracing
georgia
frontiers
paradigm
sediment
random
irrever
symbols
impossible
plausible
argentina
racial
enshrined
subtitles
aeronautics
mecanis
moisture
overwhel
sinclair
1bn
420
821
afor
ajust
bit
bers
bbi
cart
cups
dil
dot
eesc
felt
fimi
gs
gill
hong
hope
iter
ker
ken
kal
kit
los
mere
mism
pc
pps
rf
ramp
sg
son
sides
ties
went
wake
zon
##dn
##don
##ob
##oce
##ymm
##bted
##eb
##kiss
##150
##125
##zes
##pen
##glo
##gren
##tier
##ndc
##ori
##insi
##atom
##edonia
##arrol
##eco
##ectious
##sten
##stan
foref
forbes
reac
##asena
##olition
##acite
##siak
convey
sty
##ementioned
##emistry
##rain
##rafts
cod
##odge
eurocont
eurocities
##lys
##forces
##cher
##china
##ims
byc
##ional
incons
implying
neet
chen
christ
##ourced
##aki
indian
atyp
unjus
relax
digiti
politi
meant
desarrol
produces
##ailable
undergo
underway
outlines
basix
opt
modest
envel
moins
upcyc
transposing
hortic
##ysis
generates
rober
nouve
annals
overc
organize
##atif
ell
infectious
##ordable
setti
revis
##ensen
geopol
pean
##overnment
presumed
benefited
benefitting
benefitted
##2016
projectors
accession
communicated
poses
queries
liu
gendered
307
afin
flat
vert
tablets
228
227
229
visually
entrec
236
288
downturn
fraction
298
deploiement
loi
316
pollination
collaborating
321
profound
presentations
volati
dispersion
385
333
339
345
344
summits
residues
465
460
lowering
specialized
defini
seront
417
statutory
##ieri
521
edps
549
##tifications
tendency
ceo
careers
careful
indebted
copy
copies
substan
690
recognises
physically
aids
coordinating
hardly
fitness
fostered
tenants
virtually
profitable
watkiss
csr
undeclar
exploited
gloria
permits
mysiak
fulfilled
probabilities
seminars
integrative
displaying
registrations
slowly
##iii
gaining
obstacle
femin
1046
versa
egovernment
motorised
##fold
overnights
comprising
narratives
shaped
reserves
merger
mindset
##level
elimination
matchmaking
urgency
printed
academics
factsheets
assuming
threatened
schedules
dashboards
disadvantage
voucher
regeneration
marginalised
answered
johnston
##rophic
convient
showcase
compilation
efficacite
province
derogation
injur
##iannuel
attached
dramatically
appointed
hilton
apparent
navigate
perfect
champions
remplace
guyane
physiological
jtf
kazlaus
rubri
sickness
analysts
succeed
weighing
trustworthy
synchronised
hundreds
stricter
fundamentally
pumps
##lmupc
egalement
bianchi
##uilding
canadian
emirates
routledge
displacement
alcohol
pluriannuel
identical
mecanisme
aforementioned
mismatch
forefront
eurocontrol
inconsist
atypical
geopolitical
entrecomp
undeclared
kazlauskas
650
8th
aﬀ
bak
cork
dan
dip
epr
ft
fp
fric
gard
hof
jaco
kw
ksa
lie
mate
od
ops
pensions
r9
rul
ros
rated
rock
rigor
sab
tun
tell
zlev
##dynam
##tot
##oys
##ais
##uistic
##kel
##121
##zone
##pace
##haps
##91
##word
##nded
##nders
insof
##anufact
##anna
##urate
##enty
##ombia
##lete
reti
reass
##eted
##sim
stw
steep
##utable
##emi
##tines
##unter
2029
bees
##chang
##uses
antim
shut
adher
incumb
eca
chron
##lood
##anders
atte
##adal
unid
unexp
workplaces
suppri
digit
##ante
polym
sphere
marzi
mef
leh
consec
consisting
scor
##ivable
perhaps
invitation
opens
upstream
##ermark
##ami
##agn
##agf
##enez
amid
contribuer
prizes
008
reduire
crash
crabol
monitors
travels
##ordan
272
risak
019
selectivity
firstrate
studied
quo
educate
remanufact
253
258
301
306
comparator
centric
590
importantly
504
guided
239
284
286
downside
transformational
605
##ossary
officer
necessite
292
fairly
269
porto
connects
404
408
402
329
contextual
distributor
biore
331
332
341
348
summaries
renovating
425
428
391
374
373
456
variant
474
1994
readable
jrc12
490
assistants
balancing
preparations
##augh
acceptable
franc
subscri
904
contractors
pressing
coping
virg
everyday
maximising
optimization
centralised
likewise
footwear
ccs
diverging
neutralite
stockt
timesc
##afrost
dissu
##141
simplification
mobilize
childcare
glossary
quicker
permitted
permafrost
cancel
embark
faith
inspiration
subsidiary
streamlined
incorporation
watersh
judgement
roundtable
rolled
crowding
poorly
constrain
psos
clarifying
secretary
filters
recruited
graphic
graphical
portfolios
discovereu
groves
refuel
enforced
halting
distinction
reused
nombre
argued
libraries
compounds
compatibility
corridor
deterior
attempt
mortg
pulse
##appro
modifie
encountered
bridging
memor
derogations
biodegradable
focusses
cyclone
nouvelle
loops
wildfire
pioneer
linguistic
hailstorms
reversing
carburants
fluctuations
disturbance
disclaimer
possess
pyram
rodrig
riders
ombudsman
criminal
satisfactory
destruction
descriptor
punie
stopped
brackets
cwr
dwellings
liaison
accumulation
discarded
quarantine
dismissal
dmmos
hudson
impartial
dreams
auxiliary
unjustified
desarrollo
substantive
aﬀordable
insofar
##changed
antimicro
crabolu
firstrate5
arom
bm
bh
bach
bart
b2b
cbe
cba
dron
dani
editions
eisme
f2f
gave
gva
gmbh
hus
hiv
io
kel
kri
kun
kov
kitch
lac
lens
lina
lng
mm
mote
nuc
nurs
pure
perv
passi
rav
rams
rosen
ton
vib
vict
##oa
##las
##racts
##eq
##cu
##xx
##xon
##mil
##fr
##fund
##field
##france
##wi
##tiles
##inen
##inity
##ali
##roduce
##arse
##ito
##itain
##ecard
##omal
reanal
##astically
##etu
##ettes
##acc
##acao
ons
conces
##abet
stark
acute
##rivals
asean
covi
##ppers
##odnet
orders
##united
alph
alto
##occ
ana
##opes
##iesel
imposition
cha
chamb
plain
compost
complied
compiling
##ander
##andum
depri
##alled
unta
contenti
contemp
apple
exporting
expedia
aller
##lick
willia
intense
leasing
conserve
traine
101000
disinformation
pertin
canario
outstanding
propag
envoys
##uez
seal
seyn
sebas
height
etudes
emodnet
bought
notifications
005
eltis
elena
legume
demunter
travail
2018c
279
revok
glob
globe
prototype
pending
012
017
topography
insular
knowing
surrey
travelodge
biotic
##avers
multitude
euratom
engages
##2025
variants
quot
query
helpdes
remark
signalling
endang
endogenous
252
##angular
smallest
corsia
compares
sociology
formed
affil
minus
lift
503
506
##113
233
obliged
materialise
officially
264
electro
destination2021
explores
prioritisation
prioritised
405
406
prevail
hero
swopa
557
556
357
foo
fof
turning
behavioral
housekeep
382
362
mature
retre
421
399
371
crossing
515
440
461
successes
metabol
478
477
hygi
hyper
481
495
526
575
648
widen
drain
oceania
abms
##101
##103
##1015
768
piloting
fleets
hydrodynam
deviation
agendas
feeding
680
railways
harder
##plan
investigative
allocations
##istered
starter
validating
##co2
fergus
##heast
denom
deeply
immig
acquiring
mobilite
interviewed
draws
eurofisc
unders
##olesc
practically
problematic
genomic
branding
supermark
##while
drastically
subsidy
originally
partnering
streamlining
failed
constituting
rounds
verifiable
issuing
envisages
silc
visualisation
epbd
clarifies
conditioning
correlations
merely
##ijing
sixth
filings
1987
screens
edible
summarises
groc
eradic
##pc0
extractive
nominal
manuals
sovereignty
prominence
calibrate
dsss
nudges
ethnicity
village
outdated
beaches
eye
toxicity
tankering
tpb
bolivia
efficacy
tariff
provincial
incubators
ordinary
reopen
advocacy
discretion
numerical
refurbishment
descriptive
embodied
susceptibility
suffering
mediators
mpwt
wcms
buffers
drafted
patients
electrification
pantour
mineral
repositories
##utterstock
trafficking
unpredictable
aesthe
nicaragua
##global
bycatch
overcrow
unexpected
virgin
dissuasive
memorandum
dreamstime
antimicrobial
drones
eismea
nuclear
altogether
chambers
contentious
sebasti
helpdesk
ferguson
530
a2
ainsi
bess
batista
c3
cush
dark
ewn
fes
fey
filling
flying
fonds
gt
hat
ile
jc
lul
lod
mos
nodes
pod
pus
pick
portion
pave
pda
ry
rivers
rib
stic
sams
tab
tier
tbm
ump
vil
vise
©sh
°c
##ney
##ael
##apping
##lt
##lor
##under
##util
##bus
##rary
##ko
##ck
##case
##comes
##zburg
##mon
##met
##vent
##vms
##hun
##4s
##fos
##fact
##facts
##flood
##ontin
##alde
##itan
##urp
##ican
20th
reaction
rehab
##asp
##oli
##etail
suite
stanc
##rier
##geu
cool
alle
beijing
reserve
##forum
isa
anomal
##ucf
##itives
commons
##otel
imputed
plot
##ouris
deuts
##este
##umin
unman
unchanged
reluct
spas
marra
leurs
desirable
sms
arte
array
haer
agile
##astr
recettes
2020c
decadal
modalities
##iotis
seed
moyen
##istence
employability
1980
##utionary
strategie
ams
pointing
root
boards
bogus
adaptations
additives
valencia
internally
##aties
##ething
financiere
monopol
demolition
271
1475
revol
carra
peace
insects
defend
wasted
surfaces
tyres
student
##2022
##liqu
finalised
multilevel
educated
remit
302
248
246
treaties
formulate
593
phasing
pandemics
mah
maur
294
296
260
313
##indre
dealt
##racting
403
observe
herrera
herpen
00018
findable
completing
559
##tifiable
averaged
388
335
336
340
342
combines
368
contacted
ipo
393
378
372
379
##embre
##embles
455
441
463
realities
470
473
479
416
##ibly
483
487
readings
publishes
493
characterized
recycle
431
434
531
534
525
570
arriving
544
##102
##107
audited
cea
vietnam
614
storing
founders
geographically
everything
773
spatio
aided
maxima
downloaded
runs
piloted
malaysia
833
macedonia
disrupt
ferries
installing
##145
simplifying
##dc00
childhood
categorised
belgian
archive
couns
checkl
riahi
fertiliz
valued
simulating
translating
sala
salaries
salzburg
permanently
doubling
perceivable
narrative
docsroom
sheets
audiences
incentivising
unsu
rowe
welcomes
##clim
aspx
mentors
bloom
recher
frontex
briefing
anticipating
repayment
bosnia
resistant
quartile
lagging
games
ssps
struggling
marriage
cbd
cbam
##flows
ontology
handbooks
##portugal
2302
deciding
stefan
unavailable
arabia
exhibitions
cyclones
diagnostic
dramatic
underestimate
wildfires
descriptions
susceptible
hurric
reclassification
devrait
tm0
accomplish
lorsque
agglomer
epidemi
licensing
catalogues
lgb
refugee
microbiome
voyages
something
algae
anchored
pertaining
impede
accumulated
recurrent
subcontracting
deprec
autorites
extinction
spoken
precautionary
torresan
overwhelming
kenya
upcycling
horticulture
diplom
atteindre
consecutive
scorecard
kitchen
untapped
williams
trainees
pertinent
retreat
hygiene
undersc
aesthetics
feyen
lulucf
©shutterstock
rehabilit
stancu
unmanned
artefacts
agglomerations
511
711
915
a9
aal
aside
ampl
bic
bid
bun
bell
cin
cess
dum
dub
diesel
fond
fourn
gf
gw
gall
hl
hosting
ipr
iata
i56
jordan
kir
lca
mk
mj
mall
mie
milit
mno
n2
nº
niger
ngeu
pu
russ
sad
ssa
ut
wins
wisc
xi
xls
€4
€6
𝜀𝑊
##dem
##detail
##iated
##iant
##tton
##nc
##nius
##aid
##usi
##bg
##eins
##su
##sev
##ski
##zing
##vr
##vene
##hous
##houet
##4sd
##group
##ji
##wood
##anova
##ros
##iser
##isia
##itably
##street
##rets
prolong
fort
##ulum
##ulating
##eto
##etr
##igital
enorm
orange
##idt
##unasena
bears
##forese
##using
anx
shed
##uck
##ops
parize
impacting
chequ
plates
club
regressive
deforestation
##ads
unforese
supplementing
digitalising
strs
interchange
commissioned
mepc
arbit
##ivup
##ovina
decree
decoup
fins
empre
emplo
empowers
marks
moi
moa
moore
chang
##sson
saudi
planting
nationality
contributor
roe
routing
bouw
prime
adaptable
adds
valeur
overtourism
differing
009
00005
elsev
timber
protein
proteins
localised
initiating
insured
insecurity
1828
##phones
multiv
##iano
water4all
advise
butler
prescrib
##ansen
##venno
potter
authoritarian
regionale
##liers
delim
peoples
2102
259
farmer
fuelled
corps
flour
flanders
safely
distortion
parliaments
599
minute
509
##116
allowance
phys
phones
281
289
refined
regarded
depic
openstreet
prevents
herzeg
enhances
##tifies
distribute
comprehensively
renouv
bios
behaviors
earning
384
mitigated
triv
minimal
excise
424
422
426
513
518
##ographical
variance
410
414
sizeable
recept
hype
480
489
characterise
turned
balances
536
janssen
confron
568
567
573
625
##fficients
staffing
beforehand
subset
732
##104
meanwhile
761
critically
ceap
apres
ert
960
feedstuffs
everywhere
everybody
dedicate
posts
840
844
seasonally
illicit
texte
synerg
ccam
allocating
shifted
utilised
eeas
paquet
pafos
reasoning
causal
##books
visions
occupied
aggregating
delegations
discussing
pastoral
hrv
deepening
immense
simpler
voluntarily
weaker
repealed
nearby
appetite
brands
corona
advancements
breaks
forums
inspiring
exempted
vocal
advertiser
normative
2032
liquide
evolved
newsletters
silhouet
silvenno
crowds
heard
jurid
epc
specifique
reinforcement
1107
ranges
attributable
conditional
concludes
inholland
extrapol
bankrupt
iea
koivup
constructed
minds
1038
disposable
moved
recruiting
vegetables
matched
littering
motivate
motivated
magn
exchanged
negotiate
altered
populated
cordex
##2009
replicate
curriculum
preserved
##weigh
radio
proxies
recyclability
holdings
calibrated
32019
##aeve
camero
harvest
citations
petrole
prioritising
coefficients
pedo
rupp
capex
subjects
prohibit
deferral
routines
karunasena
ttps
deficits
lisflood
superior
acknowledgements
witness
mathematics
##escu
interregional
reopening
venues
stip
tactile
##https
precisely
steady
breaches
discourse
devraient
rpks
pledges
hypothesis
listings
##trn
garantir
nordic
reinvigor
reintroduced
cohorts
scanning
lorries
shelter
elasticity
fluxes
roofs
peatlands
renforcement
abandoned
indebtedness
feminist
rubrique
rigorous
biorefin
stocktaking
aromind
reanalysis
alphabet
seynaeve
hydrodynamic
grocery
pushing
vilnius
anomalies
military
xlsx
##ncsd
enormous
parizeau
mepc245
elsevier
openstreetmap
herzegovina
renouvel
receptac
silvennoinen
koivupuro
cameroon
petroleum
2can
2knows
3can
3knows
4can
4knows
6bn
7bn
ath
bub
cd
cry
dar
dow
die
dav
eosc
fst
gem
gev
gau
gmac
gastr
h1
hond
hpc
houet
jump
kon
kick
lin
lan
lts
lose
lbc
mun
mow
mak
nh
nab
pm
pv
peter
rs
ray
renting
slic
soph
srea
venti
wang
yar
##tas
##tail
##ox
##note
##lab
##lock
##lature
##yect
##r0
##ction
##cul
##1can
##1knows
##ping
##vhaus
##400
##gium
##german
##fi
##front
##700
##jk
##women
##→0
##tible
##eria
##esign
theories
##orary
inaction
##eden
##arks
##itto
##uren
##eces
##elant
##state
##ils
##ilium
##report
##lei
##letin
prod
proac
proli
proyect
##ulsion
eu25
congo
stating
street
##uty
asc
##raul
cole
cout
##tini
europ
europes
ally
##ticism
##osci
resort
##aines
antal
anvr
##ucks
incomp
incoming
commens
parent
parents
usability
ecu
ecfin
tourisme
##ourse
##apest
##aylor
digitalises
digitaleu
intermod
spa
spons
marin
marsh
leone
##enclature
consilium
##izations
arti
arable
scot
##pson
invo
invasion
recourse
deciles
outlets
outweigh
propositions
modify
empl
##ancers
uphold
upward
ski
sky
1937
##ssd
##boom
ameco
skills1can
greenways
rooted
boil
counted
activate
##acks
annu
006
##atial
elles
union´s
sof
mond
276
1563
15→0
timeliness
protections
prototypes
geol
geosp
initiate
##outs
insurers
secrets
wastes
##egler
transitioning
biogas
muller
extrat
1787
regionally
knowledge1knows
dela
deloit
methane
quelant
naturally
signatories
identifiable
twenty
statisti
longit
treating
forming
222
508
recovering
visant
vissch
232
2366
patch
behave
iclei
depenses
266
319
instability
##luent
charts
customise
customized
325
pdfview
555
552
brist
humidity
turk
raises
380
386
attracts
367
sier
consultant
lived
renovated
minimizing
excur
internalisation
395
394
514
454
445
442
467
lowered
meta
metro
metrop
475
sera
418
419
uncover
cleaners
mentions
ambass
reader
494
characterisation
033
438
571
572
##rupt
prima
649
fosters
influential
##109
580
auditing
bulletin
##160
pursuit
661
hydraul
substance
statistically
956
devast
962
neglig
##new
##news
870
scientifically
huaw
shipb
postpon
740
##play
illiqu
travelled
preferably
invention
paul
reasonably
dapp
aggregators
dmss
##140
ilostat
displaced
unfol
nearest
confident
exercised
converting
entitlement
disclosed
registers
districts
entirety
fastest
verifying
prospective
crowded
egal
attitudes1
dividend
specifies
satisfied
clarification
peaks
biotechnologies
premier
mergers
margins
license
inventories
##borg
broken
masse
stimulus
universally
10000
apartments
resolved
scholars
leveraged
clicking
minorities
nomenclature
nulles
straight
##aciones
polarisation
alleviation
simultaneous
provenant
intensifying
cornerst
lfst
exacerbate
ssbd
templates
rewarding
interpreting
pedestri
taj
standstill
toolkits
envisioning
deferred
talk
talents
##cript
accident
ipceis
errors
rationale
imbalance
divergences
recipient
refurbished
embodying
deduc
fonction
rmf
##anzania
manifesto
enacted
##ssenk
turbine
##belgium
scalable
avenues
revitalisation
##atrends
abundance
abundant
imagine
anonymised
brochure
multicultural
detriment
supervisory
doctors
lobb
freelancers
terrorism
earmarked
thyssenk
commodities
megatrends
victims
iterative
envelope
inconsistent
jacob
rulings
incumbents
chronic
rodriguez
kriegler
passivhaus
ramses
contemporary
affiliate
overcrowding
cushion
samsung
revolving
counselling
diplomacy
rehabilitation
aalborg
bicycle
russell
unforeseen
emprende
multivariate
pottery
silhouette
rupprecht
fstp
slice
ventil
prolifer
proyecto
incompati
commensurate
geospatial
extratropical
deloitte
quelantaro
visschers
1st
2c
584
6th
620
611
a1
ah
auction
bil
bim
bail
bif
bans
cp
cant
cass
cges
citation
dc
dw
elo
eric
eagf
fs
fms
gfu
gij
hes
hide
ij
ku
kos
lid
lad
lfu
mold
muj
mims
native
nich
oli
pain
pitch
rl
rut
rome
rents
sir
sort
ti
tc
tec
tsi
tag
tight
tied
tang
tgs
taylor
tanzania
vif
vectors
wer
wag
wick
wiley
zim
zambia
##offs
##ament
##auc
##lity
##uyen
##bv
##bul
##based
##rt
##rals
##eant
##kan
##ska
##cz
##camb
##zo
##pub
##pack
##pto
##ports
##million
##monia
##hc
##hare
##homa
##hotel
##gt
##gg
##once
thaw
##orld
##eni
inappro
anderson
##anth
##roati
##atar
##arro
##itting
##uras
##urite
##enth
##ste
##strom
##iled
##ilite
##render
##leash
forging
eut
rend
reis
really
reelles
##asi
##asb
##sio
conce
##iries
##iga
styl
##ersely
europol
##idel
##idad
alp
##owners
##ocity
##ociety
resin
resumption
##forward
##ched
anecd
##imarro
shad
shell
##iller
incitation
ecvs
ch4
chat
plos
plug
regdata
dex
##alli
##adors
unt
unreg
uninter
unleash
contacting
appra
prud
diges
interm
intervals
meals
leap
scocc
haub
reply
reperc
asseng
agility
##ovo
##ovic
##entist
decim
propri
seab
upfront
##agre
marketed
##rying
2021rest
fundra
etat
etool
ammonia
weforum
popp
roo
rok
boom
boot
nothing
assesses
activism
ensembles
pregn
oversi
overestim
redesign
elite
11a
critto
termes
collate
collectivity
guard
1535
##intourism
efficiencies
016
1369
20240
selective
##took
adversely
posadas
covid19
finalists
remai
signatures
liabilities
twg
anyone
budapest
2016a
##bone
cooperating
ordered
distances
centro
lifting
##114
gobi
mapped
demanding
obligatory
609
trucks
icapital
officers
landmark
shortly
loading
recommending
electoral
318
317
smartphones
steph
commits
committing
factual
observatories
554
358
356
typologies
bike
aversion
born
concernant
equalityintourism
blanc
cropping
residual
5194
453
intermediating
reaches
meter
crida
415
entreprises
021
publisher
989
492
slides
determin
similarities
032
435
532
524
523
528
577
nettes
chaine
735
##108
585
edition17
avoids
093
ceos
api
backbone
erp
##brate
613
devise
devised
negl
nlbm
ranks
harmonising
imaging
778
776
881
advisor
advisable
maximize
grand
747
textual
justification
ccb
consequent
allocators
815
stars
860
##assified
pacte
conformite
stockp
frequentist
david
usefulness
maintains
denote
aggregates
voie
absent
modernised
watching
azurite
classify
##iki
undo
undrr
nguyen
##137
##ussions
satellites
colombia
synthesis
exercising
advancement
myers
##180
##186
fertilisation
faire
##rupp
seman
economicsvis
translations
translates
entitlements
favouring
morator
ideal
ideally
2033
salt
feedbacks
exceeds
##osphere
emphasises
egf
approximate
motorcyc
doubled
thought
comprised
couple
degraded
##696
counterfe
##owski
merit
##ijn
echo
echeant
eliminated
margin
seriously
1985
urgently
inventor
cultour
coalitions
##470
supervised
edih
summarise
negotiating
brokers
levy
##issant
masson
welcoming
receipt
replicated
weekly
reusing
breaking
gcos
radical
religion
happens
happening
settle
null
touchpoints
regenerate
disagree
repayments
hindered
filled
bosetti
econadapt
lifecomp
wilh
undermining
undermines
abstracts
gaming
convin
hampering
worsening
thompson
deliberation
combatting
sante
santos
deferrals
routier
##perform
angels
incubation
tendering
omen
ttw
compromising
trajectories
miller
isolated
biodegradation
diagnostics
grimm
toll
featuring
phenomena
dollars
prague
prompt
appreciated
withdrawal
52021dc0
piece
disbursement
births
recipients
preciser
##haran
##203040
steadily
college
nsos
square
carburant
reparrivals
liberal
drafting
3a5
lignes
##osium
fluency
cafes
mixt
brochures
intersectional
cultivation
fischer
complicated
##austral
jeopardise
configurations
fdrs
affixed
believes
symposium
b2c
pereira
rethinking
consommation
drugs
irreversible
gsma
style
volatility
injuries
unido
remanufacturing
pyramid
kovats
pervasive
compostable
propagation
remarkable
footer
housekeeping
drainage
denomin
moyenne
fertilizers
recherche
depreciation
arbitrary
emploi
bouwer
delimitation
crowdsourcing
juridique
gauge
proactively
artists
boilers
bristol
sierra
metropol
ambassadors
huawei
shipbuilding
illiquid
straightforward
lobbying
thyssenkrupp
proliferation
gfuel
rlfs
##cambod
inappropri
uninterrupted
scoccimarro
hauben
repercussions
pregnant
remainder
economicsvisits
motorcycles
2bn
2°c
4th
5b
610
635
aus
bern
ct
cort
cum
cards
csp
census
dell
damp
drem
ees
ere
eovs
fwi
gg
gil
gmo
gouv
gco2
hire
hansen
iron
jim
kh
kg
kic
kra
ll
lit
lem
mme
mong
mits
muk
nau
nsd
neste
ore
pin
pis
peters
pjan
qi
ric
rom
s2
sri
sap
sok
sous
sourced
tj
wg
wip
wss
ware
yang
zw
zur
€9
€million
##iffer
##iades
##tur
##tration
##oute
##oying
##nos
##light
##yce
##ygen
##uy
##uff
##uaries
##bach
##rn
##run
##rust
##rue
##kens
##cr
##cf
##cut
##cast
##120
##127
##zamb
##zano
##ptions
##makers
##math
##vin
##vest
##gip
##jade
##japan
##wat
##wagen
##onen
##ondition
theatre
##orily
##enantes
inev
##rous
##isible
##isse
##inger
##omon
##stake
##ilings
##rep
##rement
##ulates
eu4
eu1000
rever
##asa
##olia
##ireland
##ceo
stood
enrol
##ateurs
##rian
asf
##eme
##rait
##getic
exited
##osures
##thmann
##terity
isef
##usal
##uscript
##imenting
shi
##ills
##ucc
##ucker
##itius
additions
##opia
parry
##udinal
ecl
ecli
tourman
cli
claus
compart
##aping
##akh
##uster
accrue
##eston
unst
controle
prenantes
relay
expects
interurban
intertw
interplay
spr
spher
sporting
marcom
marino
economique
intel
lend
1023
scra
reproduce
aging
##ivariate
perp
underline
##ualdad
##entice
##entieth
outliers
outperform
propensity
proportions
manuscript
modular
systeme
avms
##aching
dihs
##amm
##ames
##aming
1989
innovfin
##gramme
sav
2019c
amt
articleview
doors
dosio
skillset
procl
ember
12−
assessor
activated
annivers
subord
subgroup
lav
valeurs
20020
differents
interne
##atie
1175
esma
espon
##holes
infographic
experimenting
fibre
277
setu
setup
revist
specificity
protest
protects
localized
014
##phere
annexed
biobased
governed
objection
advent
seeing
schne
##ended
qualifying
##graphy
multistake
quad
helpful
##ogens
twentieth
##iteria
251
airways
budgeting
2443
budgetaires
coral
##banon
flora
distort
distancing
##alez
affir
2299
lifts
##117
cookie
refresh
refusal
maize
patri
604
607
landf
legislators
297
fairhotel
ifvms
deputy
portals
##indust
drives
openly
facto
representations
##tees
409
obsolesc
prevoit
##5060
groupdetail
customisation
surveying
microorg
355
volks
renforc
970
dispers
disposed
346
triangular
attacks
364
363
consultants
passed
passports
searches
crogip
423
ipu
efsa
377
2013a
459
449
464
462
469
definit
471
##icke
etci
menus
standardized
determinant
pathogens
aftermath
436
easa
easme
579
626
editor
procurements
width
540
543
548
546
frank
accelerators
733
edition16
760
tendencies
ceilings
intelligible
closest
adequacy
##sibly
677
696
877
complexities
calculators
calculator
724
optimistic
optimize
coordinators
841
848
842
clothes
allocator
martinez
departures
812
utilising
technologically
894
893
browse
samples
damaged
existed
046
installers
grounded
mandates
ghgs
eccp
awarding
registering
credibility
forecasted
displays
disseminating
##ika
undes
undist
rrp
blocking
archives
msmes
adaption
subparagraphs
braille
flagships
curve
ratified
##188
execute
fertilization
fait
layer
cutter
simulates
promoters
##thetical
garment
demographics
salv
judgments
107b
##asmec
visualise
visualisations
illustrations
illustrating
dividing
poorest
constrained
sb2016
1108
1970
compris
architectural
enjoying
interconnection
##itaire
consolidate
##inearity
premises
1098
filed
moves
municipality
wanted
moments
susan
enjoyed
1983
confirming
leftovers
magaz
exchanging
summarising
summarized
baum
alterations
neighbourhoods
##ochemistry
persistence
stimulated
attained
exported
embedding
photo
sequential
conversations
biogeographical
assimil
overlapping
##computing
##acional
disadvantages
masks
strives
anticipated
alleviating
semiconductors
distinguishing
vastly
##ogenboom
exacerbating
petro
laboratories
inflow
wtt
segmentation
extremist
correspondence
multinationals
##atoire
envisioned
blending
periodicity
bridges
homogene
tonnage
lisbon
michael
supercomputing
conglomer
enlarging
enlargement
bruin
prioritizing
faqs
prompted
advocate
gazelles
52021pc0
pieces
escal
colleag
outset
pitching
##green
distressed
turisticas
hypothetical
handicraft
disclaimers
surprisingly
bundes
scalability
immatricules
epidemic
licensed
catalogue
ajoute
wedge
downscaling
downscaled
wheat
wheel
detrimental
confirmation
weakened
vuuren
velocity
wirthmann
espanol
diminish
bands
klein
enquiries
ambiguous
bureauc
##abytes
etablissant
ajustement
bitstream
zoning
relaxed
politiques
tunisia
retirement
adherence
timescales
mortgage
husband
vibrant
chaque
immigrants
sebastian
festiv
alleged
deutsch
checklists
unsuitable
lgbt
n2o
sadc
ssah
cheque
decoupling
physics
trivector
confronted
ertms
synergistic
renouvelables
##germany
antalya
ecuador
digitalisesme
intermodal
mondial
longitudinal
patchwork
cornerstone
pedestrian
ahmed
elojade
gijon
mujeres
sirigu
wicked
alpine
anecdotal
dexterity
intermitt
proprietary
grimmond
##australia
##cambodia
inappropriate
nautical
nsdp
wipes
intertwined
marcomini
anniversary
schneid
multistakeholder
obsolescence
microorganis
volkswagen
2a
3e
311
5a
5°c
7a
710
850
884
889
950
9bn
aar
asi
astra
aroc
cen
cec
cay
cau
cisc
dt
dining
dair
dense
eb
ej
eer
eps
eating
fou
fung
gab
gos
gwh
gold
giann
h5
h2
hanna
itin
jon
jong
kap
kamp
lc
lut
lect
litig
mit
mile
mens
mlmupc
nin
oh
odi
ota
oster
pic
pms
paus
q22
riz
rice
santi
sna
soma
till
tand
tape
tci
tune
tadeus
trophic
wear
wine
wales
wishing
xii
yo
€15
€14
€26
€36
€90
##d7
##dim
##dou
##iopia
##tons
##obs
##nal
##nis
##nels
##naires
##a1
##uis
##uate
##uge
##bed
##bab
##bles
##ea
##eure
##kech
##sky
##cy
##cat
##cons
##code
##croati
##130
##zs
##zation
##ptive
##matic
##vac
##hl
##hor
##hus
##gique
##gne
##3rt
##800
##9696
##je
##jula
##q3
##win
##wash
##wson
##world
##ﬁning
##𝑠𝑡
##tia
##tiss
##onz
##onial
##onential
thing
##erba
##orate
##oros
##enh
##enia
##ensible
##alan
##alers
andr
##rot
##roots
##ederation
##isa
##istically
##ared
##arus
##arial
##arctic
##uri
##storms
##iliation
20the
proving
forde
##uli
##ull
euco
render
reef
reﬁning
##asno
##ascon
##olta
conventions
##igence
std
stu
stell
static
##utan
asymm
##gender
coarse
##odg
eurozone
##ida
##idal
##evision
alt
alf
alib
exogenous
##ocell
ism
##ainen
##ionnet
usda
impression
##uda
##uder
eck
##version
nee
neff
neets
chef
cl4
clin
compos
##mexic
##bert
##aport
induce
deux
##umber
unac
unite
workflows
suppress
prentice
exponential
digitalized
strasb
intercom
intergener
intervene
spo
spell
served
marie
mend
economia
economiques
##iaux
lew
leon
leavers
smr
arg
sectur
disney
##echten
haw
haasno
repaid
##aste
perennial
canali
invisible
##oven
##ovolta
recall
recapital
##icht
decembre
effluent
outlining
empty
##soever
moy
mozamb
publi
foodora
##ermen
dias
##americ
##ags
particulate
##aseet
projection
articulation
plane
nationals
amounting
approves
generator
buhoma
doceo
greenwash
roots
boon
bots
boys
prize
communiqu
nobody
activation
activating
##unctional
evap
redund
##atifs
crise
companion
esd
persu
##holm
##holding
infections
soit
souti
fiaseet
solomon
2777
2785
riso
risen
##arma
risky
joyce
peut
01aa
insec
wasman
processor
##iang
performers
authorization
##2015
posing
detected
opposition
opposite
multidim
quoted
remember
linde
308
fuj
2016b
urb
singh
discontin
distorting
organism
parliamentary
centrality
minors
##115
##112
##119
urbanisation
accountable
refin
carbone
##anka
lawful
lawfully
601
materiality
continents
fairs
recommends
262
belize
committees
facteur
representativ
407
facilitators
herr
##50bn
groupings
0001
00020
00010
swiss
322
associate
microtas
354
automate
humaines
footing
973
bien
biop
disposi
structuring
trial
whatsoever
offences
cali
calor
651
alternatifs
searching
internalising
##ynia
457
448
447
468
gdynia
nexttourism
definitive
uncons
##icka
488
025
496
slr
slp
slide
433
432
439
ballo
533
5320
707
561
565
fishermen
civile
621
slots
646
541
franca
handled
evidenced
oceanic
909
abrupt
##105
freephone
synd
edition15
##inson
auditory
bulk
##compan
ceiling
cepal
665
660
636
943
612
676
953
devoted
feeds
873
879
container
recognize
686
shipments
computation
743
749
##denmark
936
##isticated
849
logic
##spain
##bek
allocates
785
780
786
deriving
tenir
dominate
robinson
823
consisted
##liest
stockholm
nutritious
herein
afforded
047
##irectorate
##190
hunger
voices
engagements
origins
ivanova
flagged
eccs
913
transferable
tailoring
meaningfully
glac
glaz
##128
camps
camping
##131
##132
implicit
expressing
equival
television
institutionalised
probable
formalisation
##286
##quez
simulator
##oyens
vocab
disclosures
compensating
registry
proceeds
boxes
biota
fails
salis
berlin
##athy
silos
silver
egan
poorer
organizing
fulfils
epcs
sb21
brie
passion
warran
warnings
rcm
rcps
donc
cele
incentivized
ventures
elaborated
1501
teamwork
rainwater
richards
trainers
snapshots
supplemented
taxpayer
aspir
stimulates
grace
##lifying
cnect
appearance
reimbursed
halleg
oxygen
photovolta
gcm
wald
##finland
argument
mascul
strikes
briefs
anticipation
hindering
marginalized
vessel
intensified
quartiles
distinguished
inclusivity
camionnet
ssrn
km2
loads
citoyens
attempting
hoogenboom
wholesalers
tanked
seafar
modifiant
showcased
acknowledges
memory
##arov
imperatives
spillover
legitimacy
offsetting
incubator
compromise
compromised
divisions
millennial
michel
trying
enlarge
bruijn
brujula
diagnosis
occasional
lyon
lyft
coaching
grassland
grassroots
appreciate
apparently
nouvel
escos
discrep
loopholes
retroactive
bearing
numerique
securitisation
tsun
accompag
discounted
turbines
handicrafts
elevation
falascon
patient
possession
assignments
minerals
reintroduction
otto
redistribution
voyage
advertisement
advertisements
rebuttable
monetisation
permettant
alexander
eo4s
obviously
cmip5
configuration
tastes
schmidt
retrofitting
foreword
returning
returned
##ocean
digitise
roberts
nouveau
hofmann
reassess
shutdown
supprime
##aught
francis
subscription
watershed
refueleu
daniel
kellys
moteur
victoria
quotas
endangered
##hungary
reluctant
marrakech
defending
mauritius
epidemiological
bellard
dumm
anxiety
clubs
prescribed
extrapolation
reinvigorate
receptacles
gastronomy
sophisticated
##osciences
geolocation
statistiques
hydraulic
devastating
ventilation
canteen
kosovo
lidar
lfu3rt
moldova
zimbab
fundraising
gobiern
stockpiling
##2030405060
denominator
metropolitan
tjtps
##cutting
inevitably
unstable
spheres
avmsd
subordination
22999696
definitely
undistorted
colleagues
microorganisms
aarhus
ciscar
dairy
founder
itiner
litigation
ostergren
santiago
tadeusz
alibaba
##mexico
strasbourg
intergenerational
##echtenstein
haasnoot
mozambique
greenwashing
01aa75
multidimension
dispositif
camionnettes
falasconi
eo4society
zimbabwe
1−
4bn
5can
5knows
684
830
811
8bn
bd
bf
boss
bret
c2
csi
cast
css
cave
din
das
dol
dort
dyn
e0
ew
elic
eia
erem
fc
fever
fav
gn
gur
gent
gps
gets
gren
gonz
hem
him
iz
iri
ities
iyer
jha
jenv
jama
ki
klo
keen
kount
kwh
khab
kymm
kills
lp
lam
lyn
lugg
lanka
nze
ober
pn
pj
pec
pig
pak
pater
pension
pau
q7
q23
ring
rss
ross
ruled
s1
sill
sop
sie
sist
says
s95
tg
tak
tors
va
vit
vand
vous
veld
wo
wf
wars
xr
xiv
zar
zaf
ελ
€30
€200
▼b
▼m
𝑐𝑐
𝑔𝑔
𝑡𝑡
##do
##dles
##dict
##digital
##directorate
##iu
##iors
##tre
##tle
##tos
##tables
##tarian
##oire
##ns
##netherlands
##nik
##aat
##away
##lr
##list
##lav
##l00
##ye
##ued
##utives
##uous
##urope
##bra
##burn
##rine
##e7
##kking
##kmann
##serman
##self
##coll
##zed
##zok
##part
##post
##mans
##vy
##vm
##vation
##via
##584
##gene
##fect
##fish
##250
##640
##wp
##war
##𝑑𝑠𝑡
##tik
##titive
thon
thurs
##erot
##ertia
##espan
##oreline
##orhood
##enary
##enna
##invest
##alup
inertia
andre
##atte
##ed71
tout
toute
##isch
##iserv
##arning
##arite
##itot
##itations
##uration
##urgence
##ecological
##real
20of
##lepro
forge
##ulu
eum
rej
rewards
reins
##aser
##acent
##abal
sugar
##igences
##igalup
ster
stems
stagn
ensi
##pef
##uters
ash
##eman
coc
cov
cots
coding
coating
cotton
ali
exha
exxon
exigences
##ocial
resurgence
##chemical
##imited
##imler
##imeni
shoreline
##illa
adm
addi
incin
parven
parental
##ota
implements
##ffective
##ffman
plural
cl5
cler
compute
##ransp
##ako
##akis
ates
##adays
##admin
##umann
una
uniqu
unsa
unmet
##italy
contre
workpack
digitiz
dignity
##anto
polis
polski
interacts
interior
interruption
interrupted
spin
spano
spacing
mex
##iao
intent
leim
desire
##encias
notre
##izer
##izures
1020
arn
ar5
arup
argue
secteurs
scand
scoring
scams
scitot
ham
##ivent
##uba
underutil
undertook
decon
decides
basso
basket
propulsion
maniere
newer
empres
empathy
##solete
seizures
moem
techno
upm
avant
obsolete
##ieure
informations
dijk
##ificant
##press
transports
etant
etape
amen
amel
contributors
economica
roth
researched
boats
primes
nok
1200
hasht
auto
lao
valen
overly
analog
elpa
union2035
11d
1126
1136
collateral
collinearity
monday
fior
solved
impacto
impactful
##ensors
taray
practic
carn
caring
carers
018
wasserman
promise
defa
actu
surina
traveler
internationale
concise
futureeo
identitarian
laboral
facets
advising
##ansa
schanes
##2018
##ountry
communicative
##lik
deline
qualite
designations
2017b
##001
signature
signpost
liver
liechtenstein
endow
twh
certify
referenced
budge
fusion
afid
restart
corp
challenged
discounts
discounting
tremend
trekking
592
lifespan
507
directory
taxis
##parison
phr
goos
mai
maz
maff
maap
behav
##minut
602
supplying
shorten
necessit
necessaire
deple
deplete
loyal
lozano
pollen
##india
instal
instant
factory
twofold
payback
precondition
barth
completes
551
brun
britain
##she
agreeing
essen
essai
97a
974
977
biochemical
octobre
learnings
humanity
majeure
annualised
capitalising
657
656
6527
personalisation
residing
efas
yourself
991
997
999
##atica
crossroad
crosscutting
choi
listminut
metall
metocean
neutre
realize
412
stata
485
482
024
022
497
similarity
broadening
035
statuses
bali
535
538
537
confusion
confederation
resultats
easi
eased
522
564
569
enforceable
624
628
edm
eden
edat
643
647
arrived
reflective
reflections
547
905
abate
738
803
##106
588
progressing
politically
##165
##169
767
091
apis
633
cop26
viet
946
615
672
devi
elearning
##usement
##214
burn
submissions
dedication
harmony
harmonized
725
imi
771
681
685
885
888
dynamically
debates
classical
portugues
712
748
742
933
937
859
investiss
footnote
correction
782
787
iiiii
813
expands
starts
deriv
tenu
taskforce
nowadays
899
windstorms
insign
fallen
parametric
##onnect
houses
dame
dawson
daimler
ferment
ferrier
##154
##156
existantes
040
adjustable
##148
##142
##hesio
dataspace
ilosta
panama
earthobs
naiades
##bersome
interpol
912
credentials
mobilized
speeds
separated
csms
##175
##170
historically
5000
##123
##122
##129
genome
##133
##138
##136
##139
aircrafts
collecte
ethiopia
##aimed
drastic
originating
##ulee
executives
illiter
illness
mixes
inspector
circumvention
##racted
simulators
favoured
concentrate
morph
##8040
slowed
2034
liveable
##yrene
garments
bert
judge
##athers
exceeded
outlooks
rounded
roundtables
neighborhood
ncdd
epic
novelty
pasimeni
attribute
1990s
unlimited
countering
counteract
underpins
premia
kohesio
##ijan
infringed
droits
echange
##awa
film
films
donation
##ennes
discovery
incentivize
substitutes
warmer
remuner
giralde
elaborating
threaten
threatens
magic
pollinating
titled
##ungs
atmospheres
pictures
schedule
ineffective
era5
universit
##poland
sequence
diva
##web
emotion
biogeochemistry
intentional
settlements
cfp
nomads
stranded
corporates
psychology
narrower
seller
sellers
compounding
interconnectedness
conceptualisation
bosch
multiplied
thinkers
meteorology
banned
suivi
climatology
ukrain
##organ
lfse
nudge
cbas
medicine
intersecting
€500
valorise
9442009
##worthiness
retaining
birkmann
bayer
eyes
jeune
uploaded
1907
deliberations
fragility
tnage
tntot
prohibition
interrelation
modifier
showcases
absorption
confidentiality
blended
mountains
announces
browsers
bolster
routine
comfortable
exhibition
occasionally
enrichment
coaches
remoteness
inherently
appreciation
micronutrients
disbursed
disbursements
rotation
rotter
rotations
stationarity
##ologists
branc
branches
cabrera
fonts
fonder
stabilisation
underrepresent
securities
embraced
intentionally
thoroughly
nederland
disturbances
elevated
paradigms
sediments
3a3
fallout
kazakh
armenia
dominican
wednes
convenience
trailer
refugees
cafe
lucas
raniga
totals
constructing
intersectionality
katty
nurture
nurturing
ample
pfizer
vendors
wireless
supervisors
bacigalup
inference
predecess
agronomy
uplift
ambiguity
repeatedly
mirrored
s10584
reshaping
unintended
philos
8219
kerala
pcp
##donald
##oceano
reactions
reactivation
digitising
nouveaux
##rophication
fp7
teller
lehdon
crashes
bhutan
concessions
allergan
metabolites
supermarkets
c3s
lodging
sticks
##urpose
isa2
carraro
hurricanes
traineeships
fortune
flourishing
hrvats
witnessed
athens
honduras
nabers
ascertain
negligible
incompatible
auctioning
cassini
rutas
##steel
eutrophication
shaded
unregistered
apprais
digestion
semantic
moratorium
wilhite
convincing
cumbersome
dellink
jimenez
mukono
peterson
zwiers
eu4oceano
eclac
clauses
perpetu
proclaimed
revista
adventure
magazine
schneider
jongman
rizzi
##doukas
##erbaijan
intercomparison
argues
recapitalisation
calorific
nexttourismgeneration
francais
aspirations
hallegatte
seafarers
tsunami
01aa75ed71
multidimensional
ewert
gonzalez
kountouris
khabarov
kymmene
luggage
sisters
vousdoukas
zafigo
ελλ
thursday
additive
workpackage
digitization
elpais
suriname
crossroads
insignificant
inspectorates
giraldez
wednesday
bacigalupo
2is
3°c
730
720
784
820
835
921
a4
ari
aee
apar
arid
ahas
aille
aaa
buc
breg
baby
ck
cg
cia
c20
c21
dal
dge
dys
deng
dens
dred
dont
e3
e2
eac
epa
eind
epl
eba
epo
eaw
ebi
fec
fol
fati
flick
fasmec
gor
god
gter
gmm
gone
gib
gambia
h0
hop
homing
hij
holland
ipa
ky
kre
kas
khar
len
lloy
lou
lights
lass
luf
luder
mg
mop
mast
mio
mss
mines
mice
mnos
nis
nap
nets
nacional
ozone
pg
p2
pup
pix
qr
ri
rat
rig
rect
raster
rlf
siv
sake
song
sids
s110
tb
t6
tin
ting
tir
tate
tum
trib
teen
tamp
tiers
tucker
tidal
uc
v3
vest
vue
vog
veter
ws
wol
wos
wards
wans
wout
wants
x4
xiii
za
zagre
бъ
€19
##div
##iß
##iel
##tar
##oe
##oee
##ointing
##nb
##number
##atics
##linear
##yan
##uz
##uing
##utics
##uild
##rm
##rus
##riteria
##kh
##cent
##cina
##caps
##zger
##p5
##pain
##mative
##mala
##mlmupc
##vo
##vas
##vir
##vist
##vrete
##han
##hong
##hoven
##550
##03
##gal
##fir
##food
##files
##669
##jo
##wer
##wind
##wling
##wick
##weden
##𝑘𝑧
##лг
##ар
##ск
##ικ
##νικ
##ηνικ
##tilo
##ony
##ondi
##onfer
##onics
##ersive
##erlands
##esia
##ndre
##oro
##orsteel
##enir
##enne
##enburg
##enza
ini
inqu
inability
##antis
##anmar
##roy
##rosp
##edent
tow
##isphere
##itzerland
##urge
##urface
##econom
##econs
##omi
##omics
##eliotis
##elicka
##statis
##ila
##ilh
##rew
20for
ford
##ulations
##ulative
##ulse
eus
euod
eussd
rey
reed
reaff
##aso
##older
##acz
##acle
##aceted
condens
##irection
sums
suomi
stev
stance
staged
enat
ents
##atemala
##riatic
##pex
##esse
##uther
asks
##emen
coex
coerc
coval
coinc
cofund
cooee
##pps
ort
##idis
##unce
##ungen
alpes
withstand
beings
##ocations
##thansa
##thenburg
##tered
##fornia
ans
anton
##ima
##imori
shame
whist
adj
adjus
adriatic
##optim
##iesu
command
usle
impulse
ecoc
##vergne
chip
chemistry
plenary
comps
##qui
##rank
##rances
##appe
##akaki
##gyar
regain
##lov
##andie
atten
atlas
dattilo
##ado
##ados
##uma
unus
unrest
contro
workflow
pratt
preston
relance
digits
##orea
##iph
polyst
sperot
servers
##lication
servicest
mart
marag
meille
economical
intrep
lee
leur
sociaux
desks
##encer
##encina
developpe
trades
tradem
1010
arises
arca
##ulty
dism
disinc
disapp
disappe
transbound
replied
assure
assurer
##ively
##olls
##ailability
##eller
underdevelop
decomp
shoulder
modality
envsoft
##soi
sees
seych
mooc
mokan
upwards
systemes
avr
##ermans
##acher
informes
informative
##amo
##amation
##agr
##ague
##agasc
heir
1960
strategical
programmed
transposed
ameli
amusement
hori
horeca
wef
weiß
##areilh
pole
procurers
emff
roaming
researcher
boote
boule
bounce
nostra
technologique
actionable
suboptim
laval
latitude
##acey
changement
internship
shallow
ela
esr
estime
natal
persists
framed
crew
creators
collects
sosten
monte
guil
guzz
fiji
operative
risque
##enska
##enscina
differentes
applicables
carp
estuary
estuaries
risking
geological
generalized
peuv
peuge
nonlinear
ecosoc
inser
wasting
1897
acted
1315
surges
traveling
approaching
conclu
bioactive
financials
##ianna
1725
councils
performs
buttons
prescri
##urring
potable
schro
england
##208
posco
##enders
deleted
##owned
finalisation
##graphic
quasi
##004
##ortunately
signing
lietu
2121
2520
farmland
##atisation
certifying
airborne
airbus
culturally
fugi
fuzz
2022a
2022b
budgetaire
corro
linkage
flavour
formules
formalities
##outh
##liavac
estimable
centr
centers
598
596
mini
502
taxable
enters
entrant
2394
periodically
lows
gothenburg
downward
maif
magyar
frust
regulator
competitively
evaluates
tracing
##aboration
ics
aws
1001
legislations
porter
simon
##indonesia
granger
##ugareilh
belarus
stepped
collaboratively
connex
owing
owning
##tebrate
studying
administered
precious
renewals
barp
observatoire
lifetimes
promotions
##etsat
thirdly
comprehensible
##iento
renowned
biol
bibl
dispens
earliest
sdms
viewer
viewpoints
capitalised
653
personalise
bookshop
ipm
398
995
994
crossings
516
519
451
444
466
##pecific
listen
criticism
serial
commerc
unco
hyp
achievable
026
077
jrc11
491
498
characterising
039
539
janv
holistically
529
560
574
627
acceptability
641
754
responds
subsistence
subsurface
903
906
coastline
accelerates
abro
abuses
abbv
abeliotis
801
804
auw
auvergne
581
587
586
duet
##161
##164
##166
proportionally
764
763
evenly
099
668
launches
cop28
copenh
vienna
erm
942
949
673
959
devolder
carriage
looked
geographies
965
967
fried
875
723
729
tackles
683
dynamism
923
postal
714
713
719
746
932
845
847
846
runners
logo
speaking
texture
lux
jusqu
##apeutics
reinforces
blueprints
fitting
corrig
##ensitive
798
792
malti
malaria
texts
lastly
aligns
webpage
webinar
preferential
staritz
869
questionnaires
midcaps
southeast
operationnels
tasked
834
substantiate
825
consiste
misc
897
pais
##ofi
##council
miguel
migliavac
daugareilh
##159
existential
041
044
romani
romana
nama
arranged
##144
##147
##270
immersive
##262
speeding
gaia
##4060
azerbaijan
transferring
slovencina
slovenscina
unfortunately
##ikes
##ikistan
latviesu
decarbonising
batch
ecologically
mainstreamed
genoa
##eningen
2000200
reforming
dansk
myanmar
expectancy
##ulees
executed
svenska
layers
layout
exemple
formalise
converging
##239
prosum
favours
wrong
italiano
twinning
normandie
incorporates
##2021dc0
contradict
replaces
proceeding
slowing
sanofi
##azulu
contexto
salary
##falls
##3624
1071
evolutions
repairs
visualization
personnes
ambitiously
divides
motorb
possibilite
epis
sb20
neighbours
attributing
warrant
finney
inhib
unlaw
merged
##viu
##vietnam
##485
1093
caribe
seniors
ultra
latina
1152
enjoyment
usaid
1988
cela
celeb
extensions
threatening
pools
pooled
supervise
waived
remedial
brook
richer
##issance
fileadmin
supplementaires
ineffici
grasp
conflicting
northeast
##charges
replicable
reimburse
oxides
##zeneca
##ymetric
##7080
divest
reusability
radar
radiation
happiness
keys
##finance
questo
belongs
teacher
orientations
striving
messaging
1597
multipurpose
##882
wilde
undermined
suivants
intensively
intensify
distinguishes
camia
lags
oils
reproduced
reproductive
moderately
antibio
pipelines
0102030405060
fnr
fnv
microplastic
subscribers
nitrous
ruiter
1564
barbosa
##programme
subjected
catches
cestina
sandra
unevenly
endorse
blend
bleaching
gigabit
santato
zoom
formerly
meme
paradox
volunteering
tttot
hotspot
wih
antarctic
merck
mercury
rationality
surroundings
2801
28020
prioritized
attachments
reservoirs
prag
prompting
underestimated
mountainous
announcements
##ahl
escape
pioneering
tacit
intrinsically
deduct
suffers
nederlands
outsourced
pitfalls
##environ
repatriated
reclassified
reversed
georgakaki
247tail
buffet
guyana
fruits
honour
avenue
immatriculees
lignocell
mrv
ppps
exactly
trails
trustworthiness
trog
trois
##huhn
constructive
satisfactorily
algal
multicriteria
5051015
permettront
catalysts
weakening
amplifying
tenth
fdrss
rhone
agronomic
uplifted
bureau
perez
thereto
therapeutics
rethink
reshape
consommateurs
multifunctional
multifaceted
philanth
diligence
dotted
christensen
ellison
revisit
profoundly
mismatches
frictions
gardens
kwazulu
rocky
polymers
jrc123624
watersheds
kunsten
concession
deprived
heightened
revoke
revoked
electrolys
supermarket
eradication
wcmsp5
jclepro
podcast
spasova
blooms
amplified
cinema
hlpd
utmost
##etrically
32019l0
biorefineries
crypto
turkish
unfolding
dividends
dwelling
nicholls
olive
##bulgar
thawing
stylized
decimale
bootstra
centroameric
stephens
3a52021dc0
eesti
gco2eq
pjanind
quadrup
affirmative
landfill
renforcer
salvador
assimilation
festivals
astrazeneca
h5110
ninat
tandis
stellantis
clinical
leonardo
soutien
insecure
fujimori
representativeness
microtasking
bioprosp
california
balloons
campsites
richardson
photovoltaic
millennials
discrepancies
csiro
caveats
dasymetric
elicitation
hemisphere
jenvman
pakistan
pauvrete
##collaboration
thonicke
andrews
eumetsat
incineration
parvenir
unsafe
scitotenv
underutilised
amelior
nokia
defaults
depletion
neighborhoods
ukrainian
brancati
kazakhstan
philosoph
lehdonvir
hrvatski
appraisal
eu4oceanobs
01aa75ed71a1
ελληνικ
ailleurs
dengue
eindhoven
gterc
lloyd
lufthansa
luderer
wansink
zagreb
бълг
##арск
##onferencing
##statistical
euodp
reaffir
covalence
adjusting
polystyrene
sperotto
maragall
intrepid
disincen
transboundary
underdeveloped
seychelles
mokany
strategically
weißhuhn
suboptimal
lavalle
guzzetti
peuvent
peugeot
prescriptive
lietuviu
fugitive
fuzzy
biblio
abbvie
copenhagen
migliavacca
247tailorsteel
lignocellul
philanthrop
bioprospecting
lehdonvirta
ελληνικα
българск
български
050
2b
3is
4is
5c
810
9th
930
920
aa
a5
auctions
a2035
bb
bv
bin
bacter
bourg
cu
c1
cian
cpa
ceu
cdc
cfs
d4
df
drou
dord
dump
duce
dict
dodg
drew
ea
eze
fj
fly
fun
fake
fax
frid
fault
fold
fatica
gul
gol
gay
gust
gams
g47
giants
gathers
hate
hut
hill
hose
hards
hump
hernandez
ira
iran
ims
jti
jour
jeu
jensen
kin
kur
kim
kund
kron
kics
kict
kata
lund
lange
lying
losing
ml
mood
mish
mene
mpt
mitch
nu
nz
nsi
nut
nev
nick
nano
nomic
npi
nrr
ok
oz
oles
oman
ols
pd
por
pad
piv
pale
paves
pfe
portions
q12
qatar
rio
sz
sar
smp
sak
sia
scep
sights
sans
s11
stig
szeg
tv
tion
trou
tures
trough
tries
tsh
teu
ugh
vl
v4
v2
viv
vanc
vinc
venez
wu
won
wan
wing
wats
x5
xuan
zs
€21
►m
##imp
##iff
##ifer
##tage
##telling
##turb
##oors
##obility
##ny
##nelle
##napsh
##aver
##aert
##lers
##lie
##lack
##ymp
##ype
##yota
##ument
##uated
##uuri
##bic
##bil
##bay
##bard
##bell
##rer
##rud
##rism
##eve
##kop
##korea
##sy
##sula
##snapsh
##184
##135
##126
##zica
##zworth
##zstan
##md
##ml
##men
##mas
##may
##master
##vt
##vencies
##hd
##07
##4f
##4ee
##439
##gon
##fil
##fast
##flies
##fano
##flick
##fiph
##360
##2c
##2x
##jp
##juuri
##qi
##q4
##wana
##wanda
##waste
##ﬅware
##tization
##oniki
thes
thir
thess
##orge
##enod
##entional
##enaires
##inet
##inance
##alue
##alone
##alites
##aloniki
inver
inund
intit
ineg
##anine
##anitary
##anovic
##rofano
##attered
##edes
toage
toyota
##istical
##arts
##arth
##aruw
##itti
##itre
##urities
##icion
##icca
##icante
##econ
##entrism
##omo
##eling
##rears
##rethe
##reuther
20programme
forb
##ulas
##ulary
refit
##asim
##asure
##asia
##olly
##etus
##etries
##acch
onboard
##siveness
conve
##igualdad
stoc
strow
stone
stret
stacey
acores
##rij
##pez
asa
##emas
##rav
##rail
##raining
##getique
codi
couts
cogener
coacch
##identi
##orter
##unes
alk
alc
alps
alarm
alba
alerts
alumin
alicante
##owere
exert
##tick
##osic
beuc
beating
##ocop
##ocrine
##tha
##thailand
resume
rescu
##ainfo
antit
antil
##uctive
wholly
adam
##open
incur
commence
commuting
commuters
usern
impetus
##udence
##uduj
ecop
ecolog
##ffith
neill
cher
chai
chris
plc
plun
plating
compositions
##ranet
##ranational
##berra
##aphor
##akopoulos
##gyzstan
indians
##loven
##lough
##issions
##aya
degra
accent
##ader
##adim
##umar
unve
unice
unamb
contag
appet
##romobility
relatif
poly
interf
spite
spots
sparse
serviced
maria
marek
mezz
meeh
econometrically
##iative
lean
leather
leaf
lenders
desigualdad
##encsd
traite
##iza
10th
1029
ares
arrow
armed
arbeit
arrears
##graw
tranship
scott
scattered
hames
hailing
reposition
repurp
repowere
productively
asser
asses
assists
agora
agrees
##ivi
canaria
canberra
##ailing
inval
invests
##ubted
##ubius
recalled
underused
decile
decep
outlier
fintech
opa
manages
##ght
##ghan
##soy
sein
sends
segre
seeds
sezs
##ancial
partenaires
motion
platt
##ermo
##iements
informe
##rica
##rices
dive
##agers
##elson
heidel
##prudence
##struc
saharan
amr
generational
generators
article31
doit
dots
investbg
diffuse
##arez
poeta
emf
emulate
emitting
boat
boating
boeh
pride
communal
notices
1212
anna
announc
annonce
overst
evans
eviter
redep
organics
union2030
terminated
##resil
frames
infograph
collins
improv
guatemala
##ordinated
2018d
risc
revival
##iedad
timelines
##integr
taranto
estud
##301
equals
equif
equator
geother
initiation
joan
insect
secondi
1831
##phy
##eger
acta
surged
surrender
surcharges
biogen
facon
objections
furlough
feket
feader
##assemb
authorisations
schar
##osta
standalone
privately
worry
opposes
varna
quint
2017a
##ogne
##00600
endocrine
twining
##angu
##angroup
industrie
afforestation
2414
restored
accompl
corning
urges
ursula
cooperates
sociological
discern
discrete
flor
verifications
directors
phd
phi
23rd
pops
gob
refused
learner
##alued
regulska
oblige
608
trin
awa
necessaires
depos
lopez
portable
instituted
##uga
representent
agefiph
micromobility
##501
0004
administr
swat
swaps
swicca
responsibly
observers
packets
##irds
associates
distributing
princi
essc
voltage
introdu
renault
979
bikes
detailing
vein
veiller
dispon
dispositions
rae
rapex
lacks
earners
earned
##tises
389
responsable
##iquids
##xton
tradeoffs
viewpoint
calle
passport
655
minimisation
minimization
exciting
excedent
emerges
contactless
internalise
certains
certainly
terme
2011a
paragraphes
996
documentary
2013b
458
roadworthiness
metavers
mettre
metaphor
crimes
critique
476
server
##ibia
##ibich
mennis
homeowners
028
027
029
socioecological
988
987
slot
characterization
pathogenic
036
afterwards
conducts
politic
quantifiable
437
##ierung
manufactures
5319
confusing
704
709
holzworth
527
576
edin
##auer
arrive
755
758
545
frances
demonstrators
abu
uptake5
583
audible
##167
clustered
clustercollaboration
##comm
##355
769
666
##loads
634
launchers
940
947
9424
617
674
952
devront
cypef
963
966
##215
harmonious
774
772
recognizes
687
880
887
computable
downloads
grain
grazing
741
coordinates
931
857
843
papua
logged
logbooks
logistical
ilc
ltas
luz
##pana
synergetic
ccm
operationalisation
notice18
flexib
##lessons
799
malaw
americans
membre
webmaster
derives
poursu
utilized
826
consistant
misinformation
paola
paiements
##coast
causality
##ringer
stockli
declares
055
059
conferencing
##256
ferrous
sampled
hoteliers
damaging
##151
##158
##152
045
043
##193
quantitatively
occupy
occupying
deny
getty
hunting
##afford
namibia
##146
##279
##heses
economies¹
deepened
panap
moderna
earthqu
paperless
ivitas
nairo
naumann
heads
pleased
##263
garofano
##401
seekers
tracker
repeal
repeat
competentes
categorization
fami
##178
glad
pessim
aerial
##554
blocked
##124
precariedad
##134
harci
harris
ratification
synthes
supranational
certificats
expectation
##229
evolutionary
fauna
inspectors
seminar
cutler
##236
##2396
prosec
entites
ntt
nuts2
ideation
middleware
replen
slowest
liveability
##azquez
##yrgyzstan
joinup
cedro
failing
constitu
constituted
1051
gariano
salinity
occurrences
madagasc
##293
unfairly
egd
approximating
organizational
epgs
##902
insolvencies
pasos
clarified
1977
winner
degradable
proximus
shapes
consolidating
advantageous
##494
reglementation
premature
premiere
merge
revealing
woody
##ijff
snc
1099
filtration
sentin
vegetable
matches
augmentation
jurisprudence
donors
margrethe
1986
##wska
incentivizing
substituting
1062396
##uvial
##mobil
holidaymakers
culturing
pharma
violent
contaminations
korean
cumulated
ncsdndc
levies
cataly
diaz
diagn
complainant
retrieval
cnbc
rulebook
rentable
oxo
parcours
photocop
expressions
energetique
weekend
radi
happy
happened
biogeosciences
beso
blogs
keating
recordings
##blat
##hoffer
strand
strands
narrowly
crawling
sells
federadas
##related
striking
frontrun
fellow
compounded
briefly
letter
oversee
palermo
32018
multiplication
montants
entrust
dssat
i551
i553
i552
##incre
suivantes
intensities
quarrying
##oires
neuro
lagged
##linarity
harvested
telework
rebounded
hampered
retained
ruhr
##erobic
reconversion
speaks
barbados
##iguous
anthoff
decentralized
sandbox
tnac
tnhd
prohibited
prohibiting
endorsement
showcasing
ciencias
homest
mesure
pushed
provinces
volunteer
kilhoffer
angles
harnessed
smoothly
fatality
s3p
##schild
acronym
ordinance
cheung
attended
graduate
esip
lighter
exhibit
moeys
upgrades
feeling
biodegradability
bruun
griffith
wiki
decisively
prioritize
prioritization
##wait
enriched
aggravate
aggravating
52020dc00
interfering
sanction
venice
contingent
interdependent
navigating
wrappers
spanning
utilisees
branch
deductions
ficha
hurdles
knock
knijff
suffis
stabilise
quintiles
photosensitive
squared
##greece
remplaces
rpk
##jajuuri
##opoulou
pledge
reparability
turistica
physiology
honest
honey
jtm
reaping
storytelling
army
dominance
garantie
assignment
ajout
lgf
mrna
nordhaus
osram
pyth
sendai
drinks
ayanz
otas
ssp1
destructive
cultiv
melting
nyaruw
##austria
pf4ee
vending
espanola
diminishing
murphy
taste
enquiry
elasticities
privileged
lobell
terrorist
mirror
n7721
roche
commodity
unintentional
sewerage
catalyse
mereu
volatile
injurious
danubius
friction
mateescu
adhering
polymer
jrc128040
subscriptions
timescale
##141r
deteriorate
mortgages
modifiee
kelly
kunreuther
nurses
nursery
rosenblat
victor
##itaine
anaerobic
##202530
endanger
prevailing
eradicate
antimicrobials
ribasim
cooled
monopoly
monopolies
carrao
hurricane
amplify
dublin
gallina
kiruna
nigeria
##4sdgs
biosensors
mindsets
stipulates
biorefinery
darwin
mowa
parentheses
marinas
scottish
invoic
excursion
excursions
postponed
postponing
attitudes1is
tajikistan
deductible
tangibles
tgs000
werf
##czech
##publish
conceived
untested
prudential
deterministic
neglected
undoubted
mixture
mongolia
mitsopoulos
zurich
compartment
scraping
dispersed
undesirable
petrochina
homogeneous
conglomerate
bureaucratic
husbands
cautious
dtlf
fungi
giannakopoulos
kaplan
youre
andrze
asymmetries
alfieri
unaccept
suppressed
spells
lewis
moyennes
botswana
communiquees
refineries
##company
glacier
equivalents
vocabulary
1−𝜀
bfj
breton
gursoy
jamaica
kloster
pjangroup
paternity
▼m2
##investment
##abalala
coatings
exhaust
rothschild
hashtags
tarayana
actuarial
loyalty
652721
abatement
deviations
fermentation
fonderflick
underrepresentation
aaaa
dredge
eplca
vestager
vogt
veterinary
coexistence
servicestourism
developpement
trademark
disappear
amelioration
boulet
conclusive
schroter
corrobor
icsms
barpak
bioliquids
commercially
uncoordinated
luxury
brookings
antibiotics
deducted
3a52021dc0141r
quadruple
philosophical
disincentives
lignocellulosic
bourgogne
drouet
dordrecht
dodgson
ezeuduj
katajajuuri
mishra
mitchell
pivotal
pfeiffer
szeged
turespana
tshabalala
vincent
watson
zsche
##snapshot
thessaloniki
inundation
intitulee
inegalites
stochas
strowel
aluminium
rescuing
antitrust
antilles
username
unicef
unambiguous
mezzanine
transhipment
repositioning
repurposing
repowereu
heidelberg
announcing
infographics
##integration
geothermal
fekete
accomplis
principe
metaverses
malawi
nairobi
cutlery
madagascar
nyaruwata
undoubtedly
ezeuduji
1km
2g
32021
3200
5m
5th
630
689
7th
910
919
ation
a10
aram
a64
a2030
bp
b7
b9
bom
bion
bric
bred
bbc
bdn
bivariate
bwind
cors
cpr
carm
cms
ceter
cgi
cibles
dn
dp
dh
dic
dess
dong
dose
dto
drac
d35
densi
dvi
dhi
dorn
eη
ece
ebr
ehealth
fy
fro
fdi
fta
fernand
fidel
finger
fsoi
gx
gle
gase
gome
gark
gpd
g43
gssd
hs
hη
han
hed
hec
hect
hip
hov
hleg
hims
hopes
iw
ias
jr
jen
jag
james
kor
kall
kend
kemp
kios
kelle
kram
kapp
killed
krie
lm
lec
lent
lun
lff
lour
lakes
lateral
lcu
mu
mle
mist
myc
mets
mwh
mds
mamm
ness
nect
nos
nour
nak
nso
nie
nto
nik
nelson
oi
osh
oef
px
piz
pav
pone
pdr
pdu
q13
rt
roma
r93
riley
rwanda
sr
sæ
sor
sage
sons
sirc
stics
sba
sria
sfs
sara
td
tx
til
tenc
tong
tav
uis
uho
vv
vig
vim
veg
vern
vote
voss
void
vanda
vague
wen
wate
witt
wives
xvi
yu
yen
yell
yach
yam
zd
zte
€0
€11
€13
##dt
##db
##dat
##drop
##dives
##iar
##iet
##iency
##iacion
##iya
##iwan
##tom
##tel
##test
##oth
##ni
##nm
##nell
##nature
##aud
##aft
##aug
##aways
##lc
##lv
##lio
##liness
##lag
##lower
##losed
##yd
##yt
##yon
##yers
##uat
##uity
##uelles
##b7
##bing
##blo
##rence
##rell
##rise
##ew
##kt
##kl
##kering
##kema
##klin
##sdc
##col
##cott
##xp
##zan
##zwe
##zieri
##pic
##pices
##pret
##mers
##mill
##mest
##mish
##vision
##hal
##hle
##hann
##030
##446
##gel
##gem
##gane
##giann
##gagf
##fab
##fies
##fest
##fps
##feed
##311
##617
##wov
##weg
##𝑖𝑡
##𝑖𝑠
##tie
thu
thin
thro
##erver
##enment
##enmar
##enberg
##inent
##alg
init
inac
inward
ingen
inaf
##anen
##anol
##rome
##atur
##atne
##atlantic
tom
##isen
##isers
##isable
##israel
##aram
##itte
##itatively
##uram
##icz
##ecan
##ecomm
##ecka
##omob
##elor
##elman
##stour
##stov
##rez
##reets
20en
2060
2099
##lee
##lebl
##lebanon
produ
prokop
forzieri
##uling
##ulent
##ullo
##ulous
##ulco
eu23
rear
reich
reject
##asers
##olas
##etting
##etry
##ette
##etrender
##acer
##actions
##sier
##iratne
##abs
comite
comte
sund
sutton
staat
stenmar
enth
enlight
##pea
##essing
##utd
##utnik
##utomob
asoc
asking
asymp
##emie
##emakers
##rand
##raine
##rawn
##gevity
cote
##ppon
##odynam
##odows
##ectral
##idation
##evici
##eviratne
##unning
##universi
alber
alger
alumn
albas
##owing
##osz
##osis
##osene
##osocial
bee
beet
bender
beps
##oco
##ocal
##ocate
##oclim
##ths
##thal
##this
##these
resc
reside
isc
isic
islas
##chise
##chini
##chez
##check
##chiving
aned
antig
##iman
##imiento
sharma
##ucci
ads
adolesc
##opl
inca
paras
parfit
##oto
##otes
##otransp
impl
imposes
##ffre
neil
neural
chur
chose
chairs
plusi
compter
compiles
##quer
##qual
##ranking
##berger
##apy
##akumar
indus
##ayment
dean
accro
acclim
ate
##esta
##estry
##aden
unp
unic
unins
unsd
unhi
unifying
unpro
unga
univariate
##ervations
prong
pr13
##romania
relocation
expli
##ipel
##ndered
interven
spc
spare
spans
spencer
sputnik
##lical
##licity
commissions
meyer
##orse
economists
intake
intru
intranet
lege
lebanon
deserve
smtes
smtd
##izable
1050
1019
1024
arming
arkema
disin
distil
disreg
itc
transatlantic
scene
haiti
assays
assert
##ivors
perturb
peroco
inverse
undergoing
undergrad
underwater
underinvestment
2020d
2020y
##undi
effets
outward
polices
finer
finished
opting
manc
mangro
##ueur
##ologn
seg
seat
seats
sealing
segu
seizing
part1
foodstuffs
requal
requisite
socialising
##exual
upholding
avis
avalan
skil
##ieg
##iees
informatie
dih
##amon
##amdd
##agon
needing
##elsen
proposers
##ignant
hend
inno
1950
1925
policyholders
articulated
strateg
sao
programacao
plano
nationales
nationalist
transporting
2019d
etd
incremental
amy
approve
approche
approvision
genera
generous
horizo
buch
buchar
article14
doivent
economico
weiss
rope
throughput
countouris
respir
1224
1269
action15
##acknow
subsa
subdu
subpoints
prefab
lah
overri
overuse
overflows
differed
transported
##atio
##ethane
##isey
11b
11th
1119
##irez
wellness
##ouses
therefor
legumes
legumin
collab
collectives
souls
soﬅware
capgem
guess
guards
gutier
opera
14th
risques
revamp
yearbook
addressees
##worker
##intes
carl
carries
estfund
##308
##309
consumes
geomet
##eyaert
##eee
##eek
##eeps
generalised
nonwov
01bn
idsa
accessories
##ledged
##ouver
insur
promises
defense
secured
figur
1818
medit
##philippines
1313
13286
1617
concurr
conciliation
##iani
waterway
1753
##inkel
furth
furlan
feps
helix
butter
prescott
##urralde
sche
purification
##207
##206
##lix
participative
participatif
qualitatively
designating
helpers
remind
remarks
##003
liby
ends
enduring
someone
farmed
adopter
beta
anymore
anywhere
30th
industrielle
www3
longest
industrialisation
industrialised
formulas
distortive
distorted
organismes
##landklin
centennial
##ycl
##118
sizable
taxed
taxing
##parable
visas
cooks
cookstov
2310
smeap
personally
go4sdgs
refinement
necstour
maisey
lawyers
lawrence
competitions
transforms
demande
demanded
603
606
icons
materialises
continually
legislator
fairwork
ifc
ifrs
deposition
loos
sims
encry
encycl
smartphone
steh
stein
priori
connor
factoring
owen
adminis
doesn
indique
grouping
groupid
0003
0008
0006
00015
swe
swan
responsiveness
##raltar
customization
packaged
microbes
brit
bras
brune
##share
essence
renforces
971
975
972
976
biased
bioph
biophysical
dispose
raisons
principals
earfd
earchiving
temps
sdt
trimest
threefold
capitalism
654
658
659
minimised
minimises
minimally
mats
matz
croissance
ipos
efc
efg
2011ict
2011health
370
player
construed
998
vehicule
46485
mechler
metzger
builders
realizing
realisations
realiser
##ibb
standardization
hottest
023
##saudi
079
slack
slopes
037
quantifies
harming
bigano
701
705
706
fisher
softbank
578
indexing
629
cyclical
editors
642
norweg
753
759
widest
franche
franchise
powering
flowers
##regierung
upturn
contractor
abn
abord
irts
805
808
809
edition18
democra
pressrel
scientist
proportionately
floors
temporally
juste
097
cease
663
667
backdrop
632
639
##897
erga
plasticity
618
flemish
viral
698
964
968
9600
friday
floodpl
simplicity
burned
burundi
harmonization
727
img
775
886
dgs
debts
debuss
journalists
advisers
924
928
927
emergent
classic
gradi
gravity
concert
718
745
744
optimally
optimism
optimizing
septembre
logistic
speakers
##singapore
testb
fitted
corrections
cct
cciv
operationalize
797
malmo
maldives
retailing
##sweden
##switzerland
creativecomm
purchasers
818
817
2080
preferable
864
863
facilitylf
questioning
tenant
838
837
macao
macinn
macdonald
robin
misper
misunder
891
895
winds
conforme
structurally
co2eq
sensed
054
052
056
051015
060
tek
durrant
hereafter
##157
##1586
reliant
reliably
048
austrian
##taiwan
##199
occupant
occupants
##africa
ledge
##149
immerse
imminent
panic
panzica
paperwork
mandated
plead
pleasure
weakest
##261
gaug
hostess
hostelt
088
082
086
separating
unfavour
csas
repetitive
classifying
##ikk
categorisation
##177
##179
glms
histories
satur
cropwat
aquitaine
campos
campbell
brain
brande
computerised
harsh
curated
curie
curators
removes
checked
implication
synthese
stressor
intercontin
catching
breakfast
drr
drone
fossils
##22d
##224
##223
##228
##222
originates
institutionalized
svi
faro
valuations
circumv
circumvent
##281
##lette
multimedia
intermediated
intermediates
##233
prostitution
disclosing
moral
morone
morgan
locking
normlex
ntfps
capped
santini
sanitaire
sanchez
cedaw
conception
1056
motors
biomethane
salin
salmon
bindi
##design
##disciplinarity
1049
judges
##365
repairable
kindly
silent
visualizations
illustrative
mutations
doubt
constraint
1148
##905
##90100
insolvent
clarifications
casual
peaked
ndcs
##456
interconnectivity
##692
secretaria
correlate
counterfact
russi
thermi
merch
##399
sounds
kobi
akiss
erosi
sheer
##aws
seneviratne
##464
begun
gears
donner
donne
seriousness
##annex
1981
bedia
##431
practitioner
discovering
incentivised
mailing
littered
xxxx
##canner
##canada
##moe
kpi
popularity
1300
violation
contaminated
teamworking
brazilians
waag
waeyaert
summarizing
remediation
barom
broth
richness
ncsdmo
levied
reimag
1088
1086
esfi
##383
##382
persistently
##class
stimuler
##200300
refundable
attaining
universes
universite
1000100
nortena
neblab
appeared
terminology
feedstocks
halp
oxide
##591
##595
scholz
domaine
sequences
survivors
radically
walk
##burgh
satisfies
kei
settling
arguably
orientated
psychol
psychosocial
frontline
traceable
fellows
anticipatory
##nicar
shortfalls
calibrating
ibar
interlinks
mexicana
multiplying
fabulous
ingle
##european
nitrate
149b
multilateralism
juin
breeders
dssc
##incor
intensification
conversions
federationcambodia
combustible
exacerbates
##linika
struggled
marriages
moderated
deterred
suspected
suspensions
econometrics
assembled
medicinal
dsft
convection
switcher
disaggregation
rebuilding
rebuild
albany
cmt
hob
hoffman
worsen
worsens
cefof
lengthy
tapping
wallonia
##ettre
reconc
telecommunication
wp1
##ukraine
manipulative
##project
colours
dupont
pull
modifies
acknowledging
##uela
brida
homeless
nationwide
talks
releasing
efficace
withdrawn
angle
anglo
mislead
karl
mills
wielicka
antle
attending
attendance
attendants
duplicate
snowmaking
enlarged
feelings
wikis
surprise
injections
enriching
attachment
blog7
52020sc
underestimation
underestimating
cruises
withdrawals
nicolas
venue
nouvelles
timeframes
axes
longevity
tactics
reintroduce
stationary
##ologia
ombudsp
cabo
knmi
##eiro
##gaard
stabilising
champion
securite
mediator
photosyn
outsourcing
squibb
tapestry
hailstone
weightings
discourage
jobseeker
permissions
catastrophic
suivante
frontier
molina
##brovs
turistico
turisticos
bundled
##kesh
aggression
aggressive
revitalization
dominates
immatriculation
niem
nippon
##abaana
successive
fluid
imagination
reinvested
ramirez
ssp5
trout
##huis
totalling
redistribute
microbiomes
constructs
##oscience
anchor
stricts
pertains
monetise
surpassed
surpassing
descriptors
permettra
endeavours
h4910
##gan2
cohort
sesar
tentative
##trade
repositorio
cmip6
gbca
h5030
h5010
privileges
privilegie
doctoral
freelance
envisagees
samoa
##malaysia
dooren
renforcees
waiters
dilutive
kerosene
conveyed
styles
politique
robert
vertu
succeeded
baker
danube
lieu
roson
sabato
retired
lehmann
490111
deteriorated
possessing
pyramids
bmz
bartenders
rosenzwe
tonne
globetrender
insularity
gtap
gtpi
plotted
reluctance
marrakesh
underscores
underscored
bunker
fournir
i5630
i5610
mkb
mkcf
puzz
flourish
magnified
bubble
bubeck
cryosphere
sponsoring
marshall
annuelles
softer
primaute
scholarships
fonctionnement
cushioned
dcfta
mimsplus
paints
tecn
tagging
tgs00
wageningen
oversimpl
oversight
determiner
undoing
counterfeit
echoed
marginally
disagreement
52021dc0550
mixtures
auspices
ctp
gggi
pisiotis
ricardo
warehous
##turkey
outperformed
savvy
frankf
susanne
escalar
bundesregierung
lgbtqi
intermittence
cecere
gosling
kampala
lutte
lectures
paused
€908
##jewska
exponentially
diaspor
boonabaana
evapotransp
redundant
persuasion
herrero
##bekistan
glazed
egan22d
sb21rank
warranted
celebr
masculin
dummies
gobiernod
dolnicar
pigs
silliman
tgif
##brazil
##zoklinika
rejection
reinsurance
exxonmobil
uniquely
leimester
empresas
amenities
11362
signposts
tremendous
phrase
instalment
edmonds
earthobservations
morphological
bertram
universitatis
rotterdam
predecessor
perpetuate
arianna
fatima
gibraltar
hijman
kreibich
kharin
pgff
rectangular
##russian
inquiry
reynders
##aczech
##irectional
coincide
whistlebl
adjacent
unusual
dismant
decomposition
estimee
connexes
janvier
abroge
##406080
sb20change
unlawful
inefficiencies
divestments
01020304050607080
pragmatic
tacitly
##environmental
philanthropy
dumping
fjords
gulf
hardship
humpenod
iraq
jeuken
kurz
kunden
mptf
nutr
nrrps
oleson
padova
vladim
cogenerated
alkem
ecologique
degrade
unveiled
invalidity
deceptive
estudios
equifund
gobain
disponibles
excedentaires
edinburgh
abusive
luzecka
ccmts
earthquakes
pessimistic
synthesise
frontrunners
##increase
ruhrlandklin
sandboxes
ajoutee
victorian
##20253035
invoicing
andrzejewska
unacceptable
corroborate
stochastic
biontech
breda
bwindi
cetera
dnsh
densities
ebrd
fyzoklinika
gaseous
gomez
garkov
g43gagf
himself
kiosks
kelley
lourds
mammals
sælen
sirca
tencent
tavoni
uhoa
vvf
vigueur
vandaele
yellow
##colombia
##millan
##gianni
stenmarck
enthusi
enlightenment
##utomobiles
asociacion
##odowska
algeria
alumni
albasud
parfitt
plusieurs
unhindered
pr1346
disregard
undergraduate
seguimiento
avalanches
bucharest
subsaharan
subdued
leguminous
capgemini
gutierrez
nonwovens
libya
cookstoves
brunei
trimestre
norwegian
creativecommons
facilitylfamdd
macinnis
hosteltur
unfavourable
intercontinental
counterfactual
rosenzweig
evapotranspiration
humpenoder
vladimir
ruhrlandklinik
089
0203
1b
1c
1develop
3c
4c
4ir
5°
6a
6g
716
721
8a
8c
916
935
914
ae
aro
ait
ale
aide
agraw
b3
bow
boc
bates
bps
berm
burr
blu
bread
bold
bilaterally
buck
cis
cest
cerv
cere
cup
c25
coles
c28
caires
cdr
cinc
colog
cpi
caught
cuba
cagr
dac
dure
divers
dice
dasg
dinar
dji
e1
eti
epp
eid
eap
eee
eager
fm
fh
fom
fate
fev
fial
fang
fars
fridge
fwc
frost
gm
gut
gest
gual
gile
gbs
gart
gamb
g45
gca
g46
giao
germans
hk
hc
hac
hod
hid
hos
hay
hase
hart
hang
hind
ips
iam
iges
ipea
ieee
js
jal
junt
jata
jero
jfr
kt
kz
kain
kam
kang
kids
kinn
kyrgyzstan
keeps
l3
lip
lub
lys
lian
lamb
loses
ldc
lille
leste
ming
mre
mine
mell
mam
miles
massi
mrd
masters
m71
mosa
nr
nan
nem
nim
nop
nvid
nast
natives
niss
npage
oro
oasc
pon
pent
pel
pir
ply
pie
pause
pelle
puer
pinter
qin
rab
rum
rasmus
ropa
rianna
sis
sac
sid
sip
sov
sene
sight
sli
s00
siles
s15
sars
sedia
saba
sull
sailing
t2
tes
tem
tical
tign
tres
tons
trol
tics
tik
tson
tions
ua
ub
uro
upps
vp
vin
vod
vries
vices
wig
wif
wise
wenn
wfd
xu
xix
yth
yake
yves
yoy
yemen
zab
€84
€18
€37
€38
€86
€95
€98
€600
●a
##dy
##d8
##dec
##dac
##dade
##dema
##iat
##iom
##iak
##teen
##tles
##taken
##tabil
##tops
##oz
##otic
##osia
##ooling
##obe
##oza
##nl
##nish
##nology
##nesian
##nssa
##nga
##a4
##aj
##aed
##ait
##aient
##apped
##ll
##lon
##lay
##lated
##lam
##lde
##liano
##luster
##yo
##yb
##uo
##uation
##uak
##uven
##uws
##uille
##bu
##b4
##b9
##bet
##bri
##bps
##biod
##bner
##bian
##bury
##rp
##rar
##ras
##ratory
##r19
##rison
##e5
##ej
##eem
##eets
##eau
##kin
##kat
##kos
##kain
##kong
##kamp
##kina
##kken
##ses
##sci
##sustainable
##specific
##cer
##car
##cet
##cop
##cult
##cini
##codes
##center
##country
##connect
##x30
##1f
##189
##1r2
##zg
##zel
##zie
##zier
##pur
##ppe
##ptic
##pour
##pad
##pone
##person
##mn
##mip
##mates
##meter
##mones
##mba
##voc
##hy
##hut
##hran
##high
##hell
##hyl
##hpc
##hares
##horn
##hrain
##528
##01
##06
##09
##417
##448
##4005
##4plan
##gp
##gate
##giz
##gio
##gmann
##gbc
##gawa
##fa
##fc
##fam
##flix
##3r2
##210
##2r2
##2rail
##670
##jes
##jat
##jas
##jdad
##q1
##qatar
##wf
##watch
##week
##𝑆𝑆
##tio
##tiq
##tiere
##onic
##onian
##onte
##onvention
##onik
throw
thier
thermost
thumb
##erce
##erated
##erog
##esity
theft
##ndigo
##oris
##orra
##orph
##orca
##orques
##enu
##enistan
##inin
##inis
##inates
##inese
##inav
##intern
##alia
##alog
##alination
ined
inad
inaug
##anie
##rote
##rovs
##atz
##atv
##atts
##atform
##atelli
##eda
##edor
##eded
tok
toil
tome
togo
##iso
##isk
##isms
##isson
##isoires
##arv
##aran
##aris
##arites
##arhead
##arques
##arrivals
##argane
##itail
##itous
##itano
##uru
##urpr
##urvey
##uriserv
##ico
##iced
##icos
##icago
##iciled
##iculty
##ingly
##ecu
##ecz
##ecluster
##ationary
##entrepr
##omares
##omfort
##omorph
##stelle
##ilage
##iliter
##iltration
##repar
##reira
20qu
20to
2045
2066
2070
20fin
20port
20report
##lean
##leurs
forget
fortal
##ulence
rea
rege
rebo
retal
reelle
reactive
reforestation
##asan
##oler
##oldi
##olished
##ete
##etri
##etch
##acp
##acity
##acio
ong
##simo
##iri
##iran
##irability
##irley
##abr
##abe
##abay
##abai
como
suble
suits
suffici
suarez
stalled
stael
sturge
stahl
streets
enfo
enonce
##ersk
##ersman
##mpian
##tser
##tsch
##riel
##rift
##peop
##utely
aseet
##emo
##emind
##emann
##emony
##emitte
##rast
cou
coch
coff
cops
cobo
cock
##odal
##oding
eurodac
eurohpc
##idate
##evan
##evic
##evara
##ithme
##unhofer
algar
alcan
exage
withhold
withholding
##osystem
##ossier
beat
beeh
bendigo
##oconferencing
##ocentrism
##thora
rese
rescc
resorts
resourcing
##tero
##terior
##forshe
isn
ishare
##cha
##chere
##chler
##chke
##ushe
##imer
##imming
sha
shin
shan
shield
sherb
shirley
##illo
##illips
adb
adhes
adobe
##opers
##oppe
##iest
commenced
usha
usgbc
impover
implied
imprec
impeding
ecv
ecall
##vert
##fficulty
chp
chem
chad
chich
churn
chung
chicago
plots
clm
cl3
cles
clia
clause
compact
compelling
composing
##quent
##range
##ranco
##berman
##appendix
##akia
regio
inda
indm
indent
indrix
##lou
##loop
##louts
deac
deficiency
deficient
deja
deinstitutional
##tivas
acciom
##adb
##adevan
unity
unaff
unece
universe
unatt
unafford
unrelated
unpublish
##ervice
##italys
##ighi
apporter
##earance
prerog
##roma
expose
expire
exposing
expired
expulsion
##antz
##anted
digitalis
polyn
politis
##ardin
spun
spam
spars
spik
spraw
spike
allen
servitisation
servicing
mars
marqu
mariana
marques
sustains
commissioning
mej
meps
meersman
willis
##orsch
intu
intui
leuven
desa
desalination
desirability
##encecluster
smugg
consump
trad
tram
traw
trave
traded
1011
1055
1013
1037
argo
aruba
arithme
disemb
disorders
disintegration
##echa
##grande
##actors
transgender
transdisciplinarity
scc
scrol
haeg
hague
hamil
hajat
repond
reprise
assuring
ager
agence
ague
agui
agsy
##ivan
##ivar
##ivores
##asts
perish
##ellato
##ellstrom
invitations
##divid
##difficulty
reconn
rectify
underlining
2020e
202020
##entia
deck
decor
decont
outer
finish
##untary
opted
propre
prophyl
manning
##arya
newest
##uee
##ologic
marker
markers
markushe
seul
seated
setis
parton
partenar
moh
moel
pubs
publie
technol
sociales
uph
upwork
##ularity
busine
buseur
obesity
skel
skys
informality
##rick
dire
diaries
##amination
##aga
##agog
##agne
particles
heal
heint
heforshe
##aterial
##iston
##ongo
publicity
projet
projecting
inner
1951
1952
innovator
2021br
2021directorate
articular
articulate
strategi
highs
##pres
saas
saved
saxon
##bots
##bouti
fundi
2019q3
etapes
amor
amic
amif
amoros
amuak
hormones
approving
generaux
bugmann
contribu
weadapt
pound
poised
emble
emco
emds
emmer
roz
rozen
rojas
boe
boh
boiling
boston
prix
prive
##ifinal
nox
notic
nobre
1222
1245
activites
##abling
anne
annees
subt
subreg
subpoint
subclass
subdivid
lau
laur
##unct
valean
overlook
overbur
overhead
overha
overtaken
evi
evac
evonik
0040
0033
redd
redirect
organole
##ethee
elated
election
elling
elbe
elvis
union2021
11eb
cres
crude
termism
ese
esp
esde
esco
eswa
natl
natur
persisting
##research
frazier
fraunhofer
creer
crept
infected
infiltration
collated
##onsu
soa
soum
sohn
gui
guer
guia
guevara
demer
travind
fiat
risa
revpar
15000
impact2c
timed
##works
##bale
##arman
protests
cares
carlo
esteem
localizing
##nership
globalization
##303
##302
equipping
equitably
consumables
geoph
genders
george
geomorph
generalist
jouer
johann
petit
0199
top10
topdad
##oukens
insere
instig
insurer
promethee
defi
defra
expectedly
strategy3
1852
wastage
meda
##egna
##egrift
actes
actuel
13th
1333
destines
destinos
futur
growers
agricult
##totic
##togianni
consign
abovem
circu
concret
bioav
tyler
##ava
##avan
1724
facie
faciliter
importants
governs
objectivity
advises
keynote
keynesian
##aird
potenti
furthering
schoukens
##204
##202
##20bn
##deira
##ostot
biodiverse
participates
participacion
totality
totally
resiliency
knowledgeable
delisting
delft
##axis
worrying
qualifies
methanol
oppla
educating
2017c
remorques
##ogliano
##0000
##00115
worldfish
limpian
identifiers
endemic
endpoint
shareable
2524
25116
##atisfact
ceres
ceremony
anything
airsp
30x30
##angle
budg
infrastructural
fusions
emissions2021
24th
2425
corine
longstanding
uriserv
singularity
discards
flatic
lima
distant
affaires
estimator
vertically
##tening
goodman
591
2284
##upta
##yck
##ftung
directe
directement
##partite
philipp
phillips
visibly
entrances
pandemie
guideline
2371
2826
urbanization
casehand
popescu
refra
provisoires
countrypro
necp
maart
maersk
fr5
lawrie
competitiv
rightsstate
patented
evaluer
obliging
traced
traba
truth
icieg
1005
1004
1008
1006
##model
landing
landowners
legislate
ifvm
depuis
##redo
2626
accommodating
portra
understandings
3122
3199
pollute
pollitt
smartcities
smartcult
##ilites
stewards
competency
insto
##luxembourg
involuntary
##teenth
paypal
administer
charger
chargers
hera
unwanted
2015a
2015b
precarity
0002
00030
00040
administra
administratives
swine
swapping
swimming
barn
barone
barker
barros
barranco
2014b
individualised
contexte
likemind
microfinance
presently
presentant
553
3500
brund
brux
##sho
##sheet
voltes
instruction
reduction2035
encourager
biennial
turner
turism
turtles
dependant
##onews
disposing
dispatch
langford
principally
principaux
principato
trijp
tripartite
##edicine
36i
sij
##keeping
processes4plan
concernes
concernent
concernee
concernees
sdg12
consultative
sectional
viewing
caldeira
passage
password
searched
maturation
maturities
mattha
matrices
retraining
blum
blau
blurring
ipes
terzi
situacion
controller
##embacher
clearing
517
##asonic
lesbian
4410
financement
gdps
gdlc
gdacp
chooses
successor
critic
realising
realism
distributionfigure
sergio
uncont
unconvention
##goal
tfue
##ibati
##ermann
billions
hotrec
cambio
desktops
achieves
homepage
##sapp
quests
985
071
074
073
072
jrc121
4949
slugg
broadc
031
034
03595
conductivity
mobilities
4342
resultat
708
holt
fishers
##affairs
622
primacy
752
542
franco
powertra
notebooks
netflix
domestically
908
907
abc
739
802
807
582
589
fourteen
syria
externally
edition11
edition13
editiontourism
meanings
pressemitte
proportionnal
electronically
095
090
092
cements
ceps
apo
rightly
637
##890
##899
vij
erre
erma
941
948
##sibil
continuent
ppmi
reportedly
671
675
670
951
958
deviate
##erico
##useppe
691
693
969
##218
##212
burg
nlf
871
874
872
876
harmonize
726
maxwell
tacking
688
682
friendliness
dga
dgvms
debora
poste
poster
posters
postpone
maritimeaffairs
classroom
lexuriserv
grande
gratitude
optimized
938
939
##plans
##plane
##platform
851
854
runner
logging
logics
spearhead
luo
luers
luisa
justifiable
justifies
##apees
reinik
cc0
noticeable
notice19
notice17
791
793
mali
lasts
788
bgk
##efined
819
2088
diversion
865
867
midw
midst
soutenir
dominating
domiciled
##oundation
832
utilization
utilize
perspectiv
macias
macmillan
824
##reta
vacations
boosts
booster
890
892
896
paap
paiement
frequencies
commercialised
053
063
067
066
069
conferring
virtualisation
durables
migrations
migratory
##257
##259
dawn
ferrie
ferreira
timeshares
hoteles
damm
##155
existant
##197
##196
denying
##afe
dissoc
obtains
voiced
pricewater
youths
ledger
##gery
namq
naming
arranging
couriers
mtg
##143
##1467
##271
##275
##276
##mingham
panor
panasonic
indirecte
earthcheck
farrell
ivm
ivoire
surveiller
vanuat
captain
header
ministre
plethora
weakness
##264
##266
mobilizing
societe
gaeil
gaiani
hosteler
##407
##406
disseminated
083
087
azais
vaccinate
##itises
csos
spreadsheet
categorie
unduly
##asinghe
##titudes
##173
glantz
channelling
channelled
##556
##559
archived
archae
archipel
engineer
500501
msfd
robotisation
analyze
genes
genomes
genotype
genomics
videoconferencing
reflectance
braun
shift2rail
color
colonial
hartik
harrison
curation
curtail
cancers
collectees
factorial
exercices
intercro
##ariates
drm
stayed
telem
tripled
paci
agrobiod
##185
originate
executing
schengenvis
mixing
##narow
intending
bounded
valuables
inspect
inspires
layoffs
semifinal
formalised
convert
converters
subsidiarite
##285
##280
##287
mcken
nfps
##244
##234
##2345
streamflow
favourably
italians
morb
morita
nutshell
feddema
compensated
ideals
dropout
registries
prepayment
biologically
circumstance
cai
carol
caicos
##809
##aneous
contravene
contraignant
matrixes
biotype
##azores
claiming
1058
garfield
chinellato
biometric
akkain
##mistim
berr
bergh
berger
deployments
1045
judici
##296
triggers
prospect
issuer
silk
silvia
visualises
egaed
jury
ncsdc
ncostot
approximations
doubts
fixe
chargeback
epgan2
##904
1978
##375
##378
nutritionally
conditionalities
##458
1257
aquacrop
oliv
olaf
rusle
thermally
atmos
premised
merits
##391
##394
interpretative
koz
##ijer
##ijen
##viated
drove
dropping
mindful
quieter
##awatts
1095
sensibil
##guadelou
writers
donations
donatelli
1151
benchmarked
ouargane
clientconnect
1982
bednarow
celgene
##ennium
discovered
unskill
unsurpr
unsatisfact
##moeys
fraudulent
cashier
contaminant
bns
editing
waas
universidad
maintenir
steelmaking
titles
bahn
baham
raining
richard
trainer
ncsdm
groen
retrieve
cellular
supplementaire
€184
€1bn
140670
considerablement
grab
##ylis
foreseeably
mentality
extractions
matilde
##442
##eraient
replicability
replicating
normalised
renteria
##ciu
terminating
halve
halving
halted
oxidation
oxfam
##ka2
resolving
photograph
photography
vitality
##ymatic
reacted
energ
energetic
divor
##weight
discriminate
discriminating
uniformly
breast
radiative
walker
##cribe
anticor
beside
keel
settled
belonged
nomnga
recyclers
psychologists
modalites
strike
frontload
regenerating
ecolabels
letting
palm
palomares
##ibergen
conceptualise
marginalisation
mexican
conserving
conservators
multiply
##eza
##anias
montreal
cosmetics
nitrates
wilson
differentiating
juven
unesdoc
telecom
4000
breeds
i559
##582
##inced
provenance
resistances
climatological
abstraction
multilingualism
dangers
camere
camera
outremer
seniority
##uaide
##kenes
married
cbm
suspect
medicanes
rapports
irrig
galeria
##itchard
convective
convinced
intersentia
hampers
outdoors
disaggregate
##678
ontologies
seemingly
valorising
cmems
hoek
##worthy
coeff
borrowers
birmingham
pedago
pedagog
ruij
toxicological
extremoph
2307
habilit
sinkevici
tanks
spectral
manipulating
barbuda
rapporteur
##archal
sudan
fragmenting
roland
tnmd
interrelations
missed
blends
laser
restructure
52016
kras
mesh
nationaux
vicious
vicecons
incidences
wealthier
routiere
1481
lfsq
lfs1r2
lfs3r2
lfs2r2
stringer
stringency
ttpur
compromettre
interestingly
affiliates
calendrier
lisa
liscoast
millennium
ordination
anteced
antagon
micronesia
superieure
bergmann
graduated
duplications
isolate
climatiques
2901
giuseppe
mercado
mercogliano
leakages
phytos
prioritizes
blackwell
hierarchical
kjellstrom
€72
€750bn
€720bn
injury
grasslands
grassano
n7911
n7912
praia
zhou
nepalese
chiffre
chiabai
cruising
1500150
52021dc00
hilfr
€100bn
tobago
stereoty
interdependence
solvay
solvents
columns
pioneers
stiftung
cognition
artisanal
##ologist
##harris
##eckmann
enzymatic
mediated
colleem
lighthouses
nsis
rmrs
squares
wcag
reclamation
reversal
360º
frontieres
manifestly
gerd
molec
pearce
pledged
repartition
liberia
handicapees
breakthroughs
scarcely
bissa
bisexual
rubber
##trecht
reallocations
avenir
revolutionising
electriques
irreparable
dominica
garantiss
ajzen
ligne
osor
tolerant
convening
trailers
imagery
reinvesting
enzyme
0301
luca
ranasinghe
##steiner
anonymized
chairperson
redistributed
criminals
katal
##kmenistan
##macao
plausibility
complications
bonzan
benin
##austri
##orns
recurrence
cwrs
dwellers
igles
igualdad
mccall
velazquez
accumulate
subcontract
pretoria
espana
9789284419111
dismissed
baccini
bacciu
ignite
ignition
kleibergen
rhom
tasty
inferieure
spotlight
autorite
schmit
affixing
believed
believing
symposia
unpredict
n7711
n7712
s10640
xviii
€800
chiefly
catalysing
catalysers
sedimentation
irreversibility
overwhelmed
ajustees
gilleland
kerjan
kalra
kitts
##ecoopers
christmas
relaxation
enveloppe
revisiting
690669
perfectly
remplacee
rubriques
bakkenes
r9103
r9102
r9104
r9004
ruling
sabic
zlevspecific
steeper
shuttle
incumbent
supprimer
remanufacture
##aughter
deteriorating
rodrigues
bmw
bhave
bacher
bachelor
ioann
ravel
ravitail
vibration
onsite
deprivation
housekeepers
metabolic
hyperloop
darkness
lodged
podesta
ryan
visees
##business
##monio
reactionary
alleviated
beijing20
peaceful
mahadevan
disruptors
checklist
unsupp
##climate
mentorship
diagnostico
epidemiology
lgbtiq
traineeship
bunkering
cessation
fondament
fournisse
gwp
kiribati
utm
##housecoopers
interchangeably
changemakers
depicts
depicted
##2009l0
sheltering
receptacle
downing
dieuaide
davis
honda
kontogianni
laney
maker
nabi
pm4sd
rslr
yarns
##labelling
##400600
##700800
invoices
outweighs
annuels
softening
uncovered
tajani
bilan
bailey
fsfs
hesit
kuwait
oliver
pitches
tcdata
tec00115
wagner
##amento
##kanen
renditions
leap4f
counterfeiting
radicalisation
disagreements
promptly
cortes
dampen
ggmbh
kraatz
litres
lemke
lemonsu
rico
romao
sapic
sokas
compartments
refreshable
patriarchal
patrimonio
editorial
petrochemical
homogeneity
conglomerates
cayman
cayenne
eboli
epso
gabriel
kampylis
mensah
tillage
wearable
##consum
eckert
composants
spoilage
mendoza
hawkins
publique
publiques
evaporation
persuade
discontinue
unconscious
syndrome
##bekken
glazing
celebrate
nouvellement
accompagne
francisco
dummy
canteens
gobierno
itineraries
castro
diners
dorta
fct
grenada
izon
kibale
lynx
nzeb
nzebs
obersteiner
pnas
q7a
sopron
vitro
vitam
vandegrift
##partnership
stagnated
covariates
clerical
clerks
arnold
scandinav
hamdi
avantages
valentina
analogue
carnivores
investissements
derivation
interpolation
illiterate
illiterates
emotionally
nederlanden
bucaram
ciamba
c2017
flickr
lenzen
louis
lasse
mgdd
mastrand
pupils
pixabay
rieckmann
sivakumar
s11069
tirana
teenagers
wouter
##division
##files2
##wickl
towels
condensed
##lovakia
controles
meilleur
disappointing
avril
sostenible
guilt
centrally
dispensed
hypers
corrigees
misconduct
20002001
prosumers
contradictory
motorbikes
inhibit
celebrating
wih2020
concessional
32019l0882
##bulgaria
stephenson
bibliography
bvd
bacteria
cfs3
d41586
fridays
imsoc
kronor
menee
nevis
paleo
scepticism
s1161
trouble
►m1
thesis
invertebrate
forbearance
asahi
alcasena
alarming
commencement
plunged
accentuated
interfacing
meehan
assertive
plattform
##resilient
equatorial
##assembly
quintana
##00600700800
discernible
trinidad
awaiting
deposit
administrator
flexibilities
catalytic
weekends
homestays
python
cultivated
excursionists
youreurope
aramyan
bombard
corsetti
fidelity
hsbc
kallbekken
kendrovs
kappes
kriebel
nectar
nieuws
osha
pizam
r9321
tonga
vimosz
zdhc
##xpert
ingenuity
##ecanarias
sundberg
asymptotic
##universities
adolescents
church
accroitre
acclimatisation
unicorns
uninsured
pronged
legendre
mangroves
approvisionnement
weissenberg
respiratory
prefabric
overriding
geometry
furthest
butterflies
stehfest
matzembacher
debusschere
gradients
gauging
saturated
faroe
kobiety
brothel
##2003004005
10001001
ibarreta
ombudsperson
photosynthesis
privilegiee
puzzle
warehousing
diaspora
gobiernodecanarias
whistleblowers
dismantling
##406080100
alkemade
agrawala
bermuda
burrell
cincera
cologne
duree
dasgupta
dinaric
djibouti
farsite
gualdi
gilead
gartner
gambling
hacia
hidden
hasegawa
jeroen
jfr3
kainuma
kinnaird
l3harris
lianos
ldcs
massively
nvidia
nastos
nissan
puerto
pinterest
senegal
silesia
sullivan
tignor
trolley
tsoni
uppsala
wifi
wennberg
zabeo
##ejeria
thierry
inedible
20finale
20portrait
fortaleza
regexpert
reboot
sublethal
sufficiency
staelens
enfoque
##people
coffee
algarve
alcaniz
resccue
sherbinin
deinstitutionalisation
unaffected
unpublished
prerogative
sparsely
intuitive
smuggling
consumptive
arithmetic
disembark
haegeman
hamilton
aguejdad
aguiar
decontamination
prophylaxis
markushegy
skyscanner
heintze
2021brussels
amoroso
amuakwa
emmerling
rozenberg
overburden
overhaul
organoleptic
ellingrud
eswatini
travindy
geophys
abovementioned
concretely
bioavailability
worldfishcenter
2511630
airspace
flaticon
casehandling
countryprofiles2
rightsstatements
smartcultour
likeminded
bruxelles
matthaes
blauhut
unconventional
jrc121262
sluggish
pressemitteil
proportionnalite
deborah
reinikainen
pricewaterhousecoopers
vanuatu
gaeilge
hartikainen
agrobiodiversity
schengenvisainfo
semifinalists
mckenzie
unskilled
unsurprising
unsatisfactory
pedagogies
sinkevicius
viceconsejeria
phytosanitary
15001501
bonzanigo
ravitaillement
fondamentaux
fournisseurs
leap4fnssa
mastrandrea
kendrovski
084
0bn
1pp
2z
2f
3b
3bn
32020
32009l0
4d
4f
4figure
5k
5is
616
7b
7trn
8o
8f
911
a8
a6
aan
ast
ace
auc
aard
aout
aau
aria
a2021
ayl
b4
bour
ball
bors
bia
bso
beng
bare
bord
burs
bones
bhar
bags
bologn
cnd
cic
cst
cus
cub
cues
cee
cav
c27
c26
cpd
cbi
cmo
c33
cgs
cwa
cauti
cucc
d2
dul
devel
dance
dors
dich
dover
dag
dare
duss
daughter
e4
eures
eace
ebs
eph
eora
ff
fic
fion
fum
fult
fag
fare
fog
fave
fda
fpi
fako
faso
fledged
gj
ging
gts
gour
gfs
gior
gerson
goni
giang
gianna
ginkel
hm
hen
hing
hess
hover
hex
hare
hms
houn
hints
hinn
hodg
hikes
ili
iban
ief
iger
ierland
iforest
ja
jts
jess
jak
jose
jack
jade
jenn
jief
javier
jarv
kl
kan
kort
kay
kys
kings
killing
kaf
kenn
kiss
kno
karo
kla
krey
klim
kull
kdt
lb
lq
lil
lion
lapt
leth
lord
lcc
llu
lets
lunch
lutter
l186
mx
m3
mø
moc
mim
mour
mip
mif
mbs
mav
mild
mdes
mlt
morse
nb
nile
nass
nether
npl
nbes
naps
nka2
oy
og
oﬃ
ost
ole
ove
ovid
oke
ought
ovation
pid
pag
pile
pint
pair
pants
paint
poch
pias
pwa
pelt
pinn
png
pmi
qid
qub
q11
rx
rur
rst
rri
rim
riv
rink
rick
rash
rhe
rinal
s5
s6
sre
sas
sess
spp
stive
syst
sine
sres
s13
soria
sorted
sowing
sintes
tu
tan
tat
tall
tad
tant
tub
tue
tach
tels
tener
teg
tern
tensive
tbe
trop
tuv
tires
uz
uop
utrecht
vy
vz
vw
vas
vri
vall
vard
vie
vist
vee
vaz
vhi
ville
vdr
vno
vorsch
wre
wels
wals
wining
wof
witch
wires
wurt
yel
yun
yust
yaco
yeh
zu
zr
zus
zamp
zett
©0
€16
€80
€29
€88
€56
€300
€141
€270
●c
ﬁn
𝐹𝑖
𝑀𝑖
𝑃𝑃
𝑆𝑖
𝑊𝑖
##d1
##dp
##d9
##dal
##dir
##dest
##dex
##daily
##i2
##iq
##inder
##iaczech
##tz
##tour
##tember
##tok
##tree
##tax
##temporal
##tuaries
##oen
##oad
##ogram
##obod
##nan
##nom
##nas
##nant
##nbo
##night
##nton
##a0
##aal
##aite
##aute
##aib
##ajk
##lis
##low
##lage
##lace
##ller
##l200
##yol
##yder
##yards
##uh
##upp
##uating
##uism
##uxembourg
##uka
##uario
##bf
##big
##best
##bons
##bourn
##rri
##rable
##ritor
##r203
##reli
##e6
##ept
##eik
##egypt
##eisen
##ku
##kk
##kg
##kis
##kise
##kii
##kova
##kala
##sat
##sevel
##sons
##source
##sup
##sler
##sector
##sphere
##scribe
##c1
##cp
##cate
##cos
##cion
##cere
##cience
##cock
##calf
##xit
##xiv
##1l0
##zm
##zon
##zhe
##zane
##zsch
##pts
##paper
##pkh
##pectral
##mr
##mc
##mel
##mth
##mme
##menti
##mag
##mond
##mair
##mont
##mbio
##mcs
##micro
##mermans
##vic
##vel
##vol
##vra
##viation
##vina
##vacy
##vao
##vonen
##vlik
##valued
##hon
##hin
##hat
##hir
##hort
##him
##hum
##hard
##hof
##hai
##haw
##5d
##523
##5r2
##010
##029
##045
##048
##0200
##4b
##4g
##425
##4bio
##424
##423
##4r2
##4r0
##4nature
##4people
##gr
##gis
##gri
##gill
##gens
##gva
##gley
##garo
##gmac
##fb
##fed
##fel
##fran
##feld
##fron
##fections
##fishing
##fils
##fasmec
##320
##325
##312
##318
##324
##345
##347
##8e
##818
##2bn
##227
##722
##746
##6bn
##6r2
##jn
##js
##jak
##jans
##jera
##june
##jello
##jeck
##jsen
##jevic
##ql
##q2
##qci
##wart
##wani
##łodowska
##tian
##tient
##tibility
##tially
##tista
##tized
##onven
##onoses
##onoch
thack
thames
##eras
##erate
##erting
##erph
##eront
##erita
##estern
thetis
##ndt
##ndo
##orr
##orf
##orer
##oran
##orel
##order
##orised
##orient
##orik
##orini
##enos
##enues
##enner
##enya
##enella
##enko
##enetr
##enbach
##inh
##iniv
##inist
##invent
##inican
##alc
##alle
inel
infor
inch
inex
inject
inacc
andere
andrea
andorra
##anov
##anties
##ananth
##rogram
##roite
##rosa
##roplan
##rogramme
oft
##atw
##atal
##aturing
##ateness
##educ
##edland
##edek
tod
toc
toutes
##isy
##isu
##issa
##arge
##arid
##arine
##arie
##arget
##artis
##argen
##arini
##itance
##itant
##itology
##itaux
##itrea
##itania
##urg
##urec
##uries
##urullo
##icio
##icks
##icenses
##ingford
##econd
##econt
##ente
##ompe
##elen
##elan
##elia
##elink
##elier
##elka
##elmi
##elicenses
##stud
##stati
##stering
##storm
##iland
##ilian
##ilgor
##iluk
##reu
##rev
##review
##reiber
##retero
20b
20in
20and
20de
2051
2059
2063
2058
##lem
##leberg
proud
##mented
forem
##ulth
eud
eux
eupkh
eustati
rew
reij
reori
reorgan
reorient
##asch
##assive
##olved
##olvt
##olitano
##etz
##etro
##eterm
##acs
##acies
##activity
##actional
##sie
##sient
##sider
##sided
conway
contig
condem
##irsky
##abo
##abat
##abant
##abria
##abili
##abono
##abouts
comoros
comegna
comitology
##igi
##igible
##ceu
##cement
stan
stain
stad
stunt
stablish
stern
stakes
stref
strot
stroma
stmicro
enoll
enquet
##ersen
aci
##tsema
##tshof
##rik
##essed
##essand
##essors
##essful
##utti
asbest
##emor
##emans
##emend
##raise
##ratisation
cot
cox
cous
coves
cosp
cofinance
##ppi
##odo
##oda
##oday
eurocom
euroqci
oration
orts
orch
##ido
##ithos
##uni
##unen
##unya
##unsevel
alb
allo
alive
alatt
alzhe
alessand
##owner
##owice
exces
exogene
##osur
bei
##ocs
##ocion
##ocusing
##occhini
##there
reson
resisting
resembles
resceu
##forsch
islam
##chp
##chart
##champ
##chair
##chester
europeens
##usbay
anual
angu
ananda
anuga
anuario
##ime
##images
sher
shank
shading
shaw
shoo
shuk
sheds
##ucidate
byram
##iones
##iondo
whit
adina
adger
adigital
adulth
##opulation
##ophe
##opinion
##opedia
##iespri
incite
inconven
commenting
commfron
paral
parash
pareil
##otti
##otech
##otox
uspto
impenetr
##udel
ecr
ecart
ecty
ecdc
ecomm
ecbas
ecarts
##forms
##verts
##ffice
##ffrey
neo
neal
neocol
chh
ches
chant
cheng
chav
chances
chores
chik
pla
plains
plenty
pluvial
##ourtos
##ialithuan
clld
clark
clave
clash
claud
clicks
comped
comptes
comptabil
##mef
##mender
##meier
##quel
##quito
##bericht
##api
##apalli
##apalan
##aponics
##apuram
##aka
##aker
##akhi
##akkel
##akami
regles
reglements
indel
indeterm
##loo
##andi
##ando
##ande
##andya
##aye
dei
deh
deve
deems
##uston
##ustering
##tivo
##aller
##allenge
accult
accru
##estate
##estonia
dated
##adio
##adier
##ums
##umis
##umab
unre
unad
univ
unbal
uncc
unpar
unused
unifies
unreal
unrav
unincor
##erves
##ancement
contests
contenues
workload
appl
appdata
appointing
transient
prc
pris
prises
pritchard
##rometry
##romanias
relational
releg
relocate
expri
expecting
expires
##antep
##ip048
##eree
polit
poliv
polsky
poljans
##ardt
strat
interie
interval
interrupt
intervist
intertemporal
spi
spit
spelled
spani
servants
##lications
##licaciones
marc
marge
margh
marang
marina
marco
marpol
marcel
mariya
sustainabled
commissioners
mega
mekong
##orship
##thermel
##iavina
intact
integ
leang
leaching
socces
desinvent
deserves
##evelopment
smit
smell
smhi
smgp
consular
consens
nota
tradu
##izz
##izon
##izzo
10a
1027
10figure
10km
climb
arc
aren
arbe
arena
arora
arrest
arxiv
disappro
disassembly
disorder
ita
itters
##grave
##acted
##actual
scas
scans
scithos
haar
havlik
productions
assured
assault
agencia
agmip
##ivre
perles
perkins
##olluted
canarian
##ellsch
##ellosis
inviting
##ovan
reco
recue
recome
recirc
recup
rectific
2020i
2020s
2020h
2020g
2020f
2020j
2020ict
2020q3
##undp
##undry
##icher
##ichtshof
##ualdade
##entiated
decou
effis
outflow
outranking
finite
basel
basque
propres
manually
manoma
manchester
envsci
whichever
##ghg
##ghes
##ghir
##ghai
##ghetti
greend
gregor
markandya
##south
sez
sepp
sending
seoul
seaport
seagr
seghir
##anco
##ancia
mover
moates
mothers
moham
directs
publier
##icale
##exm
##exsoft
##express
levelling
uptick
avoir
##ularies
industr
buss
obstruc
obras
skovs
skew
skłodowska
skourtos
##ieactual
##acho
informs
dixon
difi
sectori
##amud
##ammap
##amura
##agos
##agna
##agata
##agonia
##aguer
##agalli
marketable
particle
heated
heft
heger
heij
heikk
##eneurs
publicopinion
19a
19b
1919
1926
1969
1947
1963
1958
1967
1964
innovantes
2021b
policyres
##utional
##prs
programmatic
programmers
planner
##bool
fundacion
transpiration
2019long
etu
etv
etf
etude
etroite
amadio
horizoneu
contributory
article21
article15
article17
doe
doug
dobes
doelman
dokken
##engage
invest4nature
ween
weed
weber
weap
poff
procured
emt
ema
ems
emg
emit
emsa
emrich
roi
roig
rouss
rogue
roeger
rogel
rounsevel
rothermel
bob
boer
boar
bokel
boyd
##ressed
##ressers
commune
communes
communist
communiques
communaute
##ifier
##cessible
notions
noord
noaa
1215
1218
1247
1244
1287
12464
activite
ensuing
##acking
annon
subdivision
subcate
prefect
prendre
locate
autre
laos
laure
launder
laundry
overrepres
overstate
overtook
overidenti
overfishing
##oked
##okiespri
20000
evade
evalue
changements
transport38
internacional
0028
0039
0043
0047
00139
reder
eld
elation
elaps
elzen
elhous
elucidate
11c
1110
1139
indica
indicatively
compano
eskise
##resid
fragments
crease
implementations
##rowork
infine
infants
lega
improper
##bsrat
sox
soient
monito
montser
guam
guian
demic
demark
travers
2018e
solow
solvers
1415
1414
1426
1412
setback
revises
revier
whereabouts
15th
1520
1584
1525
1523
1569
1551
1557
timor
timmer
timmermans
timelier
costal
##balenya
gloenv
glovo
##arms
practises
applicators
protracted
proteger
carer
cared
carts
caraib
carvao
carretero
estan
localities
##304
equate
geometric
geosphere
geosciences
geoscience
##eyer
joost
johan
peti
peaking
employmentopen
0159
0186
0162
0197
012345
topology
topographic
ida
ids
idc
idem
accessorily
insert
inscr
wasiluk
promul
promocion
secures
secrec
secaps
sustainabilityx
wasters
medias
medroplan
##ceptions
##ega
acte
1335
1380
13140
surgical
surgery
destine
1610
1615
1613
1622
1673
approached
grows
selon
##toffice
circles
circulated
tyre
##avong
mullis
1750
1716
1727
1717
1748
facial
faculty
facemas
objet
partnersco
feels
performant
##asse
fired
presupp
##venting
potassi
authoritative
schell
schuster
schooling
schiavina
networked
engl
##201
##205
##209
##2010
##2014
##2017
##2023
##lien
participant
standpoint
posit
##ende
delist
qualities
designer
metho
varela
varnish
##owns
finalise
multiutil
multisided
qua
##structed
remarques
worldview
lind
tween
2134
docum
2525
2514
2529
cerema
certifies
circulareconomy
adopte
betting
betrie
integracion
referencing
3028
3029
30286
30902
##employ
##employment
protectionist
sharon
wwf
takeaways
2454
restent
restra
restrain
corell
comparably
linkov
url
urzi
cooperacion
disconn
disconnect
flower
flame
fluvial
flammap
treme
formule
safran
safest
limiter
distorts
affective
affluent
verbra
vertebrate
verlag
parliamentarian
goodby
centuries
tableware
tableau
594
2219
2226
22spain
5050
##11r0
appropriation
appropriees
appropriateness
competiveness
taxa
##partially
phnom
visitation
entrance
entwickl
2320
2323
2393
28th
2800
2827
personality
reflex
refrain
refocusing
modele
proves
countryside
downsi
##ankton
incluent
maas
frasc
frmcs
fractional
demander
patstat
patrol
patagonia
sitca
trn
trations
trump
trls
tractors
ic3
icj
icts
##dflower
materially
materialised
10010
land3
shortened
legislated
legislatif
2930
recommender
##ectivities
lobal
loarie
porte
becker
##austi
encore
encode
drier
smartdest
openings
belt
steffen
prioritises
dealers
collaborates
collaborators
factored
facteurs
owed
##tement
showers
##races
4039
payable
payout
payloads
facilitator
charities
charles
charco
microwork
##antson
prevu
prevue
preview
prevoir
herold
herae
hertel
##504
##508
preclud
0007
00016
00025
00014
00012
00060
swot
barr
bark
barber
barely
barredo
2014a
##eldorf
3230
3235
3222
3223
3246
surveyky
microf
microdata
microfil
profes
iiasa
presenter
presentable
3534
brs
bron
brunt
bright
brisson
brabant
##tifs
procedia
princet
essf
essnet
promoter
renaturing
encourag
bii
bienn
biosphere
bioclim
turks
turki
turkmenistan
detaille
vep
veuille
giview
raj
raes
raun
raiff
principes
avere
##tised
##tislav
2010b
3836
3838
3389
3340
3333
##rolled
sdc
sdss
3432
##iquitous
combusted
newscat
3637
boruff
offsho
viewdoc
caledonia
calvin
calgaro
calabria
##porated
livability
lively
plans5
##ativa
##enarbeit
passes
alternate
matthe
booklet
4242
##utsch
residue
efeler
terken
2011b
3939
3948
990
993
992
##inah
4543
lesoth
4450
4445
4447
44399
accorded
accordee
4646
4644
submits
specialis
specialization
freire
freedland
metcalf
##essional
definite
4745
serio
serie
serenella
##ieved
uncomm
uncdd
uncapped
cleanest
latent
stats
standardise
hyvonen
bordering
borderless
homepress
0211
reads
##saw
983
982
98germany
075
slv
characterises
characterize
germanwatch
pathfi
turnovers
quantile
package´
4340
43239
sincere
balear
balinese
balaguer
harms
confound
upsurge
703
702
easin
holder
5643
softwar
5751
indexed
respectful
pursues
accessibletourism
edss
edwards
edges
edima
##ptes
preparer
2009a
2009b
644
bodi
756
##arantes
widows
widened
drag
dragon
power4bio
flowchart
probleme
noteworthy
transparence
subsets
subsections
influx
centrepi
oceanography
professionnelle
902
90th
coasts
abolition
irena
731
737
736
806
##ucher
evergrande
##tificativa
aupres
##1010
marchadier
progressed
arrives
symm
sykes
symbio
externe
novembre
##insurance
##inski
pressed
bull
bulbs
bullet
##168
##162
##16r203
##comput
##354
##353
heath
762
766
avoidable
##mani
##manage
##management
094
096
09669
cei
apsim
aplicaciones
664
669
6605
beyer
declustering
declarantes
hydrol
viabono
##bnet
pilgri
eritrea
945
##bras
##brary
##wayne
fleury
continuum
continuera
hydrosphere
ppi
678
foundational
2050s
devising
geographer
695
961
##213
##217
friuli
negating
negatif
burning
burkina
878
722
hughes
recognizing
dimit
advisories
925
922
##ashi
equips
equipes
aides
aiding
##ixi
maximizing
maximilian
hospitalier
hospitalisations
grams
grained
gramm
graves
grades
concerts
optimum
optimises
934
##epal
hardwood
##plf
855
856
centralized
ils
footage
footnot
ltp
ltvra
eventuelles
justifying
justificativa
reinventing
dimensional
dimensioning
##beat
cze
czso
czajk
operationally
investigates
predicts
794
796
maladapt
texas
##swe
##sworth
781
783
7878
78700
martins
##efeller
814
divert
868
862
866
pourrait
midnight
midgley
soutenu
revenus
taskforces
doming
domino
831
836
utilizing
829
##rett
misuse
89h
eeb
paving
paudel
conformities
conceptually
preventable
preventative
browning
planete
97892844154
97892844208
histogram
##ropoul
stocker
stockle
commercialization
senses
accompanies
trustful
ghe
051
05001
064
068
durations
visionary
##255
##253
ferrer
examen
timeshare
##153
existante
boardroom
042
0414
0427
0405
##191
##198
##192
occupies
denial
denso
denotes
dissolved
delegues
voor
##itterother
##gerichtshof
dmdu
courage
mtv
abson
##2786
##ekova
immun
artificially
sumi
sumwhere
moderne
ivanov
vanapalli
ghgieactual
forwarded
simplest
simplifications
seventh
voluntourism
transmis
transmits
##2626
schoolnet
speedy
constate
gao
gazi
##408
##409
solidary
solidarite
drawback
lvpl
displaces
085
azore
azd7
cohesive
transferrable
novo
novartis
unfold
unfilled
csrs
repetition
categorical
undiffer
explainer
tails
##171
##172
##176
exploitative
lightweight
pesca
aero
##555
##558
##552
##5566
arching
decarbonation
engineered
cropland
5003
5002
aquifer
aquaponics
msc
msrri
robotization
campen
campus
analytic
analyzing
genotypes
coherently
bravi
bratislav
built4people
colony
harb
harley
connectedness
curious
curfe
curacao
curbing
##gested
bottled
spenders
caters
equivalence
mylan
penh
##arius
breakout
subsidising
originated
illum
illino
illumin
institutionalizing
lumped
svobod
faw
faurec
advantaged
layouts
exempting
facebooktw
converge
converter
milk
milani
##288
reunions
mcdonald
mcarth
mclean
mcgill
mcilgor
nfc
nfrd
attitudinal
##242
precipitations
##231
##237
partnered
wrt
wrf
wright
##theid
bauer
morales
morris
moritz
morais
moriondo
oneself
nuts3
federico
compensations
cah
carole
carous
##801
prejudge
sani2
##ittella
2038
##azid
##azione
constitutive
1059
garc
garner
garanties
salmani
akt
akan
cropsyst
berkel
release9
release10
disproportional
eecc
deployer
##athan
ambitie
disproportionally
##10000
##368
##366
##369
##294
##298
##299
1073
10731
evolves
prospere
prospecting
repairing
emphasising
emphasized
emphasize
creditors
suggestion
silberman
visualized
crowdflower
safeguarded
egdn
indicateurs
illustration
ncds
naval
motorways
gatherings
##lsfo
chargee
contrasts
epos
1145
##907
grossly
pasqui
ranger
1973
1976
caso
casting
##370
##377
##anox
nutritionists
wino
architectures
warned
conditionality
##454
##fym
springboard
12519
1208
interconnect
02011r0
counterpart
rcg
russo
thermo
premise
merging
##395
##396
interpretations
koh
wooden
woodward
woodburn
woodcock
##ija
infringes
erodi
erode
droit
recommended5
snyder
senat
sensible
ult
##guadeloupe
donovan
susana
1158
graphically
clientele
bedroc
bedrij
##ennan
licences
licencing
mails
unsold
unsorted
unsched
unsucc
xxx
xxv
##uvananth
##moins
motivational
motivating
motivators
fraude
cashless
1301
elaborar
violations
violated
##476
supervising
jurisdictional
eicaite
negotiated
remedying
remediate
bahrain
baedek
broker
rainoldi
richter
stops
##ungunya
levin
##issent
##isschler
absolutely
momentous
1083
celles
diameter
##nitz
##386
##668
aspire
aspiration
1161
1167
biofuel
complained
fighters
gritti
mentor
attainable
exporter
extracting
embeds
##441
replications
attracted
appearing
normalization
normalize
reimbursements
rentocchini
##ciencecluster
induces
1187
##593
parcel
photonics
##709
distinctive
week1
survived
preserves
##wealth
clickworker
discriminated
breath
brexit
gcb
gcf
walter
religions
biogeography
biogeographic
satisfying
800k
8000
besch
blood
bloemend
kea
keetch
##financial
##ophy
overlay
##634
##632
touches
stratification
straws
arguing
1296
benefices
beneficier
craf
crausbay
eif4s
##abilite
federations
federates
iaas
mask
maskey
masotti
1365
candidats
palau
palgrave
1541
prominently
32016r203
##standings
conservancy
multipliers
entailed
parameterize
cascade
fabo
fabri
##881
shoppers
microenterprise
wetted
foresti
appliance
applique
differentiation
juil
##scp
##ichea
equipe
teleconferencing
banning
banque
i5530
i5520
i5510
##561
##incdd
genetically
julia
##ae4
containerships
laguna
##ogenously
scholarly
ssm
##876
reproducing
moderators
directional
authentication
harvard
rebounding
assembling
assemblies
petr
petra
petrol
villes
intersect
##richt
rebates
rebond
albanian
##unctionality
valorised
cmcc
cardona
cardiff
houston
worsened
##urait
rewarded
roughness
inflows
borrower
borrowed
magnitudes
jeffrey
masterplans
wallach
wallingford
##portal
##haas
reconfir
reconsider
extremism
viiivi
spectacle
spectrometry
manipulated
1807
1681
##program
##proof
ancient
phenology
ibidem
pulp
pulling
pulina
pulls
sandy
##appelen
envisions
stormwater
absorptions
conflictual
gigs
gigabytes
jpg
santorini
zoonoses
unavailability
encountering
52018
bridget
bridged
krish
talking
tedqual
vicinity
##merce
##685
##682
incidental
paradise
imperfections
compilers
spillovers
1483
hybrides
crowdworkers
lfs5r2
lfs4r2
lfs6r2
##978
angola
abbreviation
gesellsch
karali
omission
omitting
omni
€50bn
2072
autonoma
michetti
##refgoogle
20401
deliverable16
duplicates
snowb
thorburn
upgradability
financieres
cyclists
acknowledgement
giant
giov
griev
grizane
grijsen
mercosur
torr
torino
##lexia
particuliere
surpluses
##dependence
phyt
occasions
upskilled
€750
€729
##morocco
centered
31094
screenings
zhu
prompts
reopened
shrink
regressions
appointment
150000
timetabling
advocating
irregularities
irregularites
52021sc
hilf
hilaire
nicola
sanctuaries
veneto
##ahua
##ahashi
apparel
solvent
discretization
explorer
rcp8
destroy
exhausting
artisans
perfume
recipes
precisant
insightful
suddenly
cabi
cabinet
hurdle
knutti
##entionally
stabilization
stabilisers
reputational
securely
excesses
colleges
predominance
eedapp
lingering
rmit
tsis
tsas
wcd
##ormick
remplacer
hailstones
hailstorm
discouraged
discourses
absorbed
manifestations
gstcouncil
molvt
pledging
buffets
liberty
liberta
fluctuation
fluctuating
turbulence
handicap
elevator
eleventh
misclassified
assigning
bundnis
hunters
huntable
randerson
rubio
storylines
unequiv
unnecessarily
revitalise
revitalising
revolutionise
electrified
immatriculations
ajae
ndici
niue
roder
rider
wbgt
€343
##fois
convened
convenient
percentiles
imagining
cafeter
lucia
ramon
ramos
ramieri
ssp4
ssp3
ssp2
€2000
##huber
##rocessing
totot
anonymisation
anonymous
chairman
##quette
##ovskii
00411
redistributive
downscale
criminality
64014
symbolic
estadistico
katz
katowice
melbourn
somalia
##technology
##laander
anchoring
monetised
fundamentals
bibliometrics
bonus
bonaire
bonuses
benjello
badjeck
eo4sd
h4919
h4939
nurtured
punkt
wishes
cohen
impeded
consciousness
scanners
recurring
brackish
baltica
diagrams
igad
igualdade
lotze
liaise
mcconoch
mccormick
pfm
vuorik
vendor
##docs
##documents
##document
##0550
pretzsch
discarding
diminished
9789284419470
quarantines
rechargeables
jeopardising
dmmo
ignoring
ignacio
ksos
loren
lorain
murcia
murakami
ticks
##uthorised
##osaar
shelton
impartiality
depression
predisp
predefined
spotl
uplifting
dietrich
bioeastsup
schmid
symptom
mirrors
aesthetic
s10113
##irov
thyberg
therapy
extinct
unintentionally
megawatts
etablis
pefc
peatland
multifunctionality
35324
sensorial
slowdowns
catalysed
52020dc07
irreversibly
8217
cartel
gsflow
hopefully
iterations
kalleberg
pcr
rfcs
rfnb
rfnbo
ramps
sony
christophe
undergoes
upcycled
ellmer
revisited
downturns
succeeding
inconsistencies
eprs
ftas
fricko
garde
garden
gardening
jacobs
kwakkel
rosq
rosina
rockstrom
rockefeller
rigorously
tuning
chronically
supprimes
polymeric
opensource
openshaw
##agnoli
60521
stocktake
possesses
bachmair
bartzok
pervas
passively
tony
tonjes
##french
##fields
##accini
chaos
allergies
1010006
travailleurs
quota
remarkably
affiliation
metabolism
##co2e
immigrant
discretionary
overcrowded
sebastien
darker
mosquito
rymes
ribes
ribeiro
##monitor
##factories
deutsche
mauritania
559391
##dc0086
fertilizer
accomplishment
overwhelmingly
underscore
bidirectional
cinq
cinemas
cesses
dumbrovs
gfas
galleries
hlth
mallorca
mallinis
puissent
prolongation
cheques
decoupled
prescribe
depicting
biosecurity
confronting
magnification
witnessing
stipulate
stipulated
reinvigorated
cdsapp
gastronomic
lanzi
munich
munoz
mowrm
makro
nh3
nhess
yarra
##r08
##womens
sponsored
sponsorship
marshes
scotland
skiing
skippers
sofia
behaveplus
negligently
unfolds
scholarship
deductive
imagineering
cushioning
incompatibility
bailouts
ericsson
ijerph
kuo
lady
ladakhi
niches
painting
tirol
tightening
conceals
stylised
shadow
chatbots
unregulated
unleashed
prudent
seabed
seabirds
overestimated
blanco
slideshare
neglect
davidson
semantics
moratoria
wilhelmi
convince
liberalisation
3a52020
bernal
gilroy
khan
kragt
sokhai
yangon
revert
reversibility
shih
shippers
##ammenarbeit
lavoro
lavorel
landfilling
##industri
##industry
dispersal
undesa
1970s
escalating
bundesgerichtshof
husbandry
festival
mondiale
intermittent
cauffman
ejecu
gabon
jonathan
lutz
ohlan
##cyprus
##consumption
##croatia
##8001000
##worldwide
##onialism
andritz
##uliarities
rendered
rendering
asymmetric
altexsoft
eckstein
chefs
##aportal
unaccompan
hawelka
recalls
moyens
redundancies
urbclim
organismos
unconsumed
syndic
78529
glaciers
equivalised
vocabularies
passionate
masculinity
reassessed
shutdowns
supprimee
itinerary
dortyol
favre
gnu
getsurvey
izurralde
lpj
lynch
oberbay
peculiarities
sillmann
sopac
sieg
siege
takeda
takahashi
veldkamp
toutefois
##ischler
rejected
sterling
aliment
aliexpress
admissions
pluralities
pluralism
##ransport
unauthorised
uniqueness
scandizzo
deconstruction
empresarial
12008e
analogous
fiorini
delineation
tremendously
mazahua
necessitated
necessitates
instalments
barthel
bruns
brunet
essenfel
earthobservation
50001
judgements
remunerations
remunerated
predecessors
zafigox
aparicio
apartheid
bregroup
daly
dyslexia
densely
folke
gorman
gorbalenya
hopitaux
louise
lassalle
mastering
napolitano
pupil
ratti
riggs
sivapalan
s11027
teeny
tampon
tampons
ucb
wsr
wolf
wolves
##diva
##centre
##mlmupcncsd
##werp
20forec
stevens
stevanovic
entso
coercion
coercive
ortega
ecocide
attentive
meilleure
disappoint
1960s
internships
sostenib
monteiro
guilty
insertion
flavours
frustration
dispensers
prosumer
motorbike
episodes
celebration
antarctica
electrolyser
bootstrap
bootstrapping
centroamericana
reaffirmed
dictate
ea19
flyer
faulty
golf
hutfils
kiniry
moody
nuances
ozcan
szabo
stigma
vivant
vancouver
venezia
venezuela
winges
thiruvananth
stretching
##identified
cherry
##lovenia
contagions
leaflets
##ivibool
opaque
emfaf
boehler
boehringer
redeploiement
biogenic
##anguage
florence
introduire
2011automobiles
politicians
francesco
francesca
gettyimages
replenishment
sentinel
sentinels
diagnosed
photocopy
photocopying
radiator
besoin
besoins
32018l200
52020dc0066
52020dc0098
suffisante
servicestourismtourism
zscheisschler
zscheischler
32021h
32004r0
bdns
dracup
fernando
gxexm
hedges
hectare
jenkins
jagau
mistrust
mycotox
oefs
paved
sriniv
tdgva
tilted
vernaccini
wenlock
yacht
yamagata
##pretation
##feeding
##𝑖𝑠𝑘𝑧
inaccessible
reichstein
##absor
alberto
beetle
##ocalisation
rescue
antigua
##oplankton
parasites
##adenmark
unpolluted
explique
intervening
armington
disinfect
2020young
mancps
segmenting
requalification
strategiques
lahlou
insurability
figurant
scheffer
encryption
encyclopedia
brasil
biopharma
democratically
pressrelease
floodplain
testbeds
2080s
misperceptions
misunderstandings
05101520253035
pleaded
circumvented
salinisation
salmonellosis
russians
merchant
erositivity
ncsdmoincdd
reimagine
universiteit
reconciliation
karlberg
52020sc0550
niemeyer
tecnologia
tgs00107
oversimplify
frankfurt
celebrated
abrogeant
0102030405060708090100
enthusiasm
arose
cereals
cdrs
diversite
etias
foment
fevr
fialova
gestures
hostile
hinders
ipsos
juntunen
ktdc
lublin
mellanox
mosaic
orographic
pellet
piras
sided
sovichea
tiktok
ubiquitous
vinci
##nlse
thermostats
##international
##alogue
inadvert
inaugural
##atvialithuan
toilets
##repared
retaliation
##rastekova
couverts
beaten
shanghai
adhesives
imprecise
chemnitz
unaffordability
polynesia
scrolling
perishable
partenariat
skelhorn
amortisation
contribuent
emblem
bohringer
noticecont
subtracted
subregions
subclasses
overlooked
overheads
evacuation
guerre
geomorphology
maarten
competitivite
trabajo
portraying
31991l0
administering
sijtsema
processes4planet
uncontrolled
broadcasting
powertrains
abcb
apoiar
posterior
postponement
archipelago
intercropping
morbidity
berrittella
olivier
bednarowicz
bahamas
photographs
energetica
breastfeeding
anticorruption
juveniles
irrigated
hoekstra
pedagogical
extremophiles
habilitee
52016ip048
krasovskii
antagonistic
bissau
garantissant
iglesias
subcontractors
rhomolo
unpredictability
##4006008001000
hesitate
vitamins
scandinavian
louisiana
hyperspectral
bombardier
churchman
prefabricated
##200300400500600700800
markushegyi
pressemitteilungen
2zero
aucune
aardappelen
ayllon
borsuk
bharwani
bologna
cautiously
cuccurullo
dorset
dusseldorf
eacea
epha
fiona
fumagalli
fulton
faveur
giorgi
gersonius
giannaros
hinges
hounjet
hinnosaar
ilibrary
iefp
jackson
jiefang
kayaking
kysely
kingsbor
kafred
kenney
karolien
lbsi
lqtur
laptops
lethal
møller
mifid
nassopoulos
piasna
qubits
rstb
rimini
rinaldi
srex
tadesse
taches
tenerife
ternal
tuvalu
uzbekistan
vyrastekova
vzbv
veeken
wofost
wurttember
yacoumis
zusammenarbeit
zampieri
zettabytes
##ritorial
##hortfall
thacker
inchausti
##education
##argentina
##ompetitive
foremost
eustatius
reorienting
contiguous
condemned
strefler
strotmann
stmicroelectronics
enquete
asbestos
cousins
cofinancement
eurocommerce
allouee
alattar
alzheimer
excessively
exogeneous
anuales
anguilla
adulthood
inconvenience
commfrontoffice
parashar
impenetrable
ecommerce
neocolonialism
chavas
chikungunya
claudia
indeterminate
acculturation
unccd
unincorporated
polivisu
poljansek
interieur
intervistas
spaniards
margherita
marangoni
sustainabledevelopment
intactness
desinventar
consensual
ittersum
recueill
recomend
rectificative
decouple
manomaivibool
seagrass
skovsgaard
hefty
hegerl
policyresources
etroitement
dougill
rogelj
rounsevell
bokelmann
subcategory
prefecture
laundering
overstatement
##okiesprivacy
elapsed
elhoushy
montserrat
demarketing
gloenvcha
caraibes
joosten
secrecy
partnerscookiesprivacy
presupposes
potassium
varnishes
multiutilities
multisidedness
worldviews
betriebsrat
disconnected
parliamentarians
goodbye
entwicklung
frascati
charcoal
heraeus
precludes
microfilm
princeton
turkiye
veuillez
raiffeisen
offshoot
matthews
terkenli
lesotho
metcalfe
uncommon
pathfinder
softwarelicenses
symbiotic
09669582
hardwoods
czajkowski
maladaptation
7870049
9789284415489
9789284420858
gaziantep
drawbacks
azd7442
undifferentiated
bratislava
curfews
illinois
svoboda
faurecia
facebooktwitterother
mcarthur
mcilgorm
carousel
berkeley
egdn2
02011r0692
bedrock
unscheduled
unsuccessful
baedeker
bloemendaal
eif4scc
32016r2031
viiiviia
gesellschaft
destroyed
melbourne
##laanderen
benjelloun
vuorikari
rfnbos
bartzokas
dumbrovska
unaccompanied
getsurveydetail
oberbayern
essenfelder
thiruvananthapuram
32004r0261
srinivasan
inadvertently
noticecontact
31991l0271
52016ip0486
0d
0a
0co
0develop
0difficulty
1€
1th
1mm
1reg
1co
1yr
1mb
1company
1kg
2t
2e
2¼
2has
2mb
2km
2trn
2incor
2increase
3t
3over
3other
3green
4a
4b
4s
4develop
4trn
4rine
4resilient
4raise
4dependence
5¼
5oc
5bn
5be
5co
5200
5figure
5trn
5nm
5increase
6work
6can
6knows
6portugal
6green
6lack
6labelling
7f
7½
7figure
7develop
7lack
7sy
7waste
7engage
8b
8w
8½
816
8figure
8su
8digital
8e7
8industry
9a
9½
9ee
984
92030
92025
9160
9d7
9digital
a7
ati
ain
ais
aec
ara
acep
a20
abon
a11
auf
a22
aena
aleg
aster
aitch
aele
aiga
ainah
bs
bent
bag
bise
bination
bonn
bams
bfs
bai
benn
b86
bda
b85
bpi
b2f
bagn
b141
b142
bkk
banco
b978
c5
cure
cran
cag
cents
c30
ceg
ccc
cables
cible
cather
citing
cems
c18
celle
c32
cdd
cdn
castr
cgt
censors
cila
cologn
dd
dl
dy
d0
d3
d7
dent
dst
dsi
dab
dus
dech
dps
dso
dpr
dries
dres
dond
dint
duction
dreg
dta
dott
ditt
dana
dune
dfl
della
dlt
dalez
dye
dunes
dunning
doris
dossier
darman
eh
eis
eom
eet
eion
eigh
ender
eine
edf
easter
eef
e12
ewater
ebre
elicit
ebit
ebert
fd
fg
fti
fel
fos
fop
fission
fay
fad
fps
ferm
fans
fern
fade
fems
f60
fili
fca
fana
fift
f99
f132
f4f
gy
gk
g1
ged
gpe
gun
gow
gop
got
gum
gio
giron
gass
gcc
gern
gsp
gini
gym
gtr
glick
gghg
gowns
hw
hers
hors
holo
hbs
hoss
hug
hides
hips
hoo
hoch
h52
hda
hires
hike
huth
haines
hvac
horse
hinkel
hchp
ih
ies
iec
ist
isi
iem
ipp
iod
ifor
iia
icc
iank
ieep
istat
itif
iuf
ibn
i90
istock
ionia
iphone
iza
iori
istan
ji
jj
jw
jer
jat
jing
jac
joc
jure
jech
jov
jam
jord
jans
juan
jpd
jean
j62
j58
j61
jah
jansen
jiang
jorge
junct
jfym
ka
kc
kf
kro
kent
kom
kmp
kut
kem
kod
kus
kot
kell
kare
kok
kues
kond
kink
kans
kost
klu
ksh
kau
kep
kassi
kerse
kode
kaba
kiesel
kasp
lj
ler
lith
lus
lap
lant
liz
lov
lake
lanc
lability
leng
lok
lans
lmm
lacy
lse
lira
lung
linc
lcs
lodge
lopes
licht
lako
md
mh
m0
mf
m²
mst
mers
mum
moll
mub
mbo
meng
munc
miod
ments
mint
mined
mmes
males
mne
milling
msp
mung
mwc
mosc
miao
mikk
n1
np
nen
nel
nil
nle
nir
nig
nce
nra
nun
nay
nest
nance
nach
nag
neth
nown
nice
nier
nhs
nbc
n81
node
n82
nadal
nisia
nwp
nunes
nwf
nijen
oe
ov
oes
oec
ots
oly
och
oss
opend
oost
olig
osp
oek
oems
odom
ods
osc
pb
pw
pab
ppe
pow
pfor
pme
pell
pso
pond
pamp
pink
pax
pock
pind
pier
ppt
pont
ponds
pva
puk
pcs
p121
pads
poros
punct
qa
qe
qs
q9
q88
q87
qrea
q2016
qrange
r5
ron
ration
ras
rts
rud
rial
rant
rip
rood
rast
rue
rues
rown
rdf
rains
rsp
rmis
r90
roch
rani
ritch
rival
r95
r92
rigo
ruth
rosa
rwi
rican
s0
s8
s7
s9
sle
sul
sain
sting
sso
sys
sart
sank
sved
s12
s100
s45
sigu
s96
s113
s116
srt
slette
sardin
sql
tl
t1
t3
tul
tain
tip
tard
tps
tric
tam
tunc
tens
tale
tension
takers
tins
tilling
tams
tense
tube
tame
telles
tabled
tiger
taught
tesse
ux
uit
uran
uast
utd
uva
ubc
ubis
uclim
vt
v1
v0
ves
ving
vab
vid
vort
vot
vad
veen
vire
vied
vto
vises
vax
vests
vita
vows
vigu
vailable
vaugh
vito
vangu
vazquez
votes
vighi
vlsfo
vlaanderen
wod
wire
wite
wav
wound
waf
wams
wij
wille
wished
wanders
woa
wlt
wisch
wpef
wmn
wrote
wazid
xp
xing
xil
xion
xue
x11
xiang
ya
yan
ying
yok
yards
youn
yug
yei
zl
zen
zal
zan
zuc
zip
zio
zup
zina
zwan
zorn
zoli
zaid
zika
£0
©cop
øres
€89
€40
€12
€22
€28
€23
€43
€47
€75
€59
€99
€53
€62
€57
€41
€145
€117
●d
𝐸𝑀
𝑁𝑁
𝑇𝑈
𝑉𝑉
𝑋௜
𝑙𝑖
𝑣𝑎
𝑣𝑘𝑧
𝑾𝒆
𝛼𝛼
##dl
##din
##d11
##dock
##dman
##dini
##d52
##daco
##dgs
##d85
##dossier
##diston
##dressed
##i0
##iment
##iac
##iab
##iates
##iade
##iari
##iencia
##ieme
##tb
##tj
##tor
##tan
##tell
##take
##tected
##town
##tland
##text
##tron
##tanto
##tungen
##tml
##transport
##oi
##oal
##ois
##oud
##oise
##oons
##oft
##others
##oother
##oba
##oham
##oei
##oils
##nor
##nen
##nel
##nig
##nut
##nical
##nld
##nified
##nologies
##nelles
##nham
##ncs
##niger
##nucc
##naran
##nhuber
##a9
##aer
##aut
##around
##amental
##auty
##aghan
##aigi
##lb
##lj
##lat
##lip
##lund
##lina
##lau
##l10
##lodowska
##lennan
##laportal
##yat
##yth
##yme
##yak
##yard
##yps
##yss
##yang
##yte
##ydes
##yssa
##yola
##uen
##uur
##uities
##uum
##uant
##uell
##uys
##uart
##u27
##uki
##uero
##uarine
##bb
##b0
##b6
##bj
##bar
##bent
##bot
##bud
##bov
##bene
##bace
##bata
##bold
##b2030
##blood
##bilite
##brian
##rl
##rent
##ril
##rir
##rab
##rels
##r11
##r111
##rists
##rhr
##racking
##e1
##eon
##eal
##eel
##eers
##eia
##eering
##eera
##e125
##ejo
##e311
##kn
##kb
##kc
##kj
##kar
##kom
##kol
##kow
##kary
##kline
##kok
##kou
##kland
##kets
##kton
##kke
##kyl
##klar
##klim
##kensen
##kowski
##kcy
##kvist
##kyrgyzstan
##sur
##sub
##search
##spects
##selves
##sani
##sectors
##slin
##second
##cn
##cv
##c8
##cas
##cain
##core
##card
##cie
##camp
##cats
##crop
##craft
##cda
##cares
##cdn
##cocell
##ciso
##xy
##x244
##1k
##1ere
##1200
##zer
##zar
##zet
##zion
##zio
##zens
##zavi
##zona
##zky
##ped
##pra
##pia
##pell
##pted
##pans
##pledge
##pool
##pik
##pantson
##mt
##mw
##mec
##mir
##mig
##mith
##mos
##main
##mud
##mell
##mary
##mount
##mind
##mitig
##maff
##matically
##mune
##maki
##midt
##mermann
##maller
##vc
##vast
##vign
##vets
##vesting
##vaux
##vania
##vnik
##vailing
##varez
##voked
##hm
##hv
##hig
##hri
##hra
##hting
##huc
##hot
##hear
##hub
##hry
##home
##hok
##hond
##hles
##havi
##have
##haz
##hita
##hmann
##hmar
##hua
##hmer
##hlets
##hauer
##5f
##525
##515
##514
##524
##04
##0g
##089
##060
##081
##0101
##04006008001000
##410
##4bn
##426
##413
##4fe
##4d85
##gur
##gion
##grou
##giv
##gents
##grow
##gav
##gian
##gote
##gone
##grid
##gior
##game
##gencia
##geca
##guri
##f9
##fing
##fas
##fac
##fut
##fly
##fting
##ferm
##fection
##fise
##fire
##fety
##fsp
##found
##fonds
##fki
##fares
##felt
##fgren
##functional
##frances
##fsoi
##farms
##fessional
##3d
##350
##310
##316
##319
##317
##313
##322
##323
##380
##336
##329
##337
##346
##3d8
##8a
##835
##856
##8colombia
##230
##211
##289
##221
##2mark
##225
##226
##2lt
##2annex
##7c
##762
##6f
##628
##657
##9001
##9682
##jd
##jv
##jg
[...]
